▁commun
aeda
▁Syed
▁Antigonos
▁quyện
KHN
▁Cẩn
▁Nhậm
▁lét
▁Abbeville
▁Thầu
▁Đật
racy
▁Charl
<836>
▁Manchester
▁Druze
▁hóng
der
▁Coelho
lig
ofan
▁Mund
▁Voss
▁Kill
ostomum
▁Ơ
yrium
▁Của
▁VINAS
▁Tụ
▁SCMP
ichi
▁Ẹ
▁nhại
ando
▁Ôi
▁Nim
▁khởi
leigh
▁Kos
▁Vassil
▁Shizu
▁Ice
▁Teheran
eves
▁Kitam
▁Olios
▁Oppo
oshenq
▁TTHS
▁Galáp
<768>
án
▁Vừa
▁Rabin
▁Đương
ranj
▁Fland
eckl
▁Oscar
▁Bó
▁ballad
▁coriacea
ver
▁Pin
ipen
▁Kêu
▁Musk
<495>
▁Nana
iề
▁us
otria
atol
▁Dyn
atori
▁diệu
▁cylind
▁Abenomics
thgen
▁har
▁nẻ
▁German
▁Khab
egal
<1919>
ostris
ities
▁Exchange
▁Trái
▁Doraemon
▁BCH
omori
soni
eole
<840>
▁Phí
▁Arctia
<1781>
chun
▁Prodid
▁morphine
oichi
▁Huề
fur
▁vòm
▁Font
<271>
▁Rog
▁Hospital
▁Xích
▁Srivijaya
▁Amedy
▁START
nn
▁Nichols
▁Chó
cio
▁Mandya
endish
▁rái
▁cấn
▁ngực
opon
ayashi
▁Zyuganov
▁kẻ
<224>
ribution
▁Riga
▁When
▁eu
▁cave
▁Taxi
▁Prithvi
▁Sing
DR
▁Kim
her
▁Rupp
▁trợn
▁lộng
▁CKQT
▁Brooke
▁Mehr
▁aust
opterygidae
▁oan
▁Girard
▁Panmunjom
▁Aircraft
▁Kolom
go
▁Perrier
▁Pediciidae
ichev
▁sạch
lut
▁Chứ
▁Hebdo
▁Các
▁Rain
▁Samsung
▁góa
▁đệ
▁Tectariaceae
<1692>
▁Breedlove
▁Kè
<889>
ková
iếp
<487>
▁Oonopidae
▁Crane
▁Funariaceae
<949>
▁Bangui
▁menu
▁Château
▁cinnam
▁Fans
▁nổ
amnus
ires
▁stream
▁Penny
iese
▁Catania
▁kernel
▁Anah
▁Starr
rock
uala
▁Vargas
▁Phoenicia
▁Olivier
wo
▁chắp
▁OFC
▁gọn
su
eaceae
▁Soto
chuk
▁Cymoth
dae
▁ND
▁Library
▁Patrick
▁xòe
▁Expo
▁commune
▁Atlas
▁Mimi
▁Shin
▁Chọn
orm
▁neb
▁ách
lace
▁phả
▁Terry
▁Aeschyn
▁mượt
▁Tucker
▁Samsun
jin
ment
▁ấm
▁Cù
▁lợi
▁trảm
▁rim
▁Object
▁Tình
▁Rogue
▁Match
▁Wilm
udai
▁bìm
▁nhật
▁Lukash
▁Chua
▁pall
luk
▁Electra
e
▁chũm
atu
▁Alexandre
▁Upper
▁Pv
▁https
▁Mario
ugia
▁Nyuserre
abeth
▁Genesis
▁Proton
▁xẹt
RR
▁Jericho
estes
▁Bền
▁quở
▁đởm
▁Prix
▁Trentino
▁Tầm
▁Holm
▁Nicky
▁Webb
▁Reim
▁Constantin
▁Templar
▁Palestine
ilt
▁Schind
sone
▁Đợt
▁Nghe
▁đập
▁Sè
▁Aderidae
ÀNH
rap
▁vả
▁Oecetis
▁Pleth
▁soái
ellina
▁Ayn
▁Morawitz
▁Kiểm
▁Vest
▁Ử
▁hoài
arius
▁Tes
▁suyễn
▁Mơ
▁side
▁Pinh
yria
▁Giây
ror
ug
▁Nhân
▁tấc
▁no
▁Heat
▁Bergoglio
andal
▁VNCH
▁ngẫm
▁eb
▁Chiêu
▁Nhí
▁Saito
▁Thưa
▁Zoster
▁Aff
zz
akovsky
▁phô
▁aurant
▁Explor
▁PSG
▁Kosz
ussa
▁Georges
▁Wikimedia
▁Zor
▁Ames
▁frông
ib
▁mui
ocharis
▁cent
▁Hain
▁III
▁Hôn
rasia
▁Sept
▁Sinai
▁Tinian
yrev
ogyrus
ood
▁Woodward
▁Rendle
SI
jn
<1528>
▁log
▁KTT
▁Schiz
▁Ist
dz
aridae
▁cui
arad
▁Sindh
▁Fél
▁Cact
▁bán
▁Sìn
▁Phalacridae
iros
▁J
▁Desmid
▁Barychelidae
ornata
▁Harlem
▁ghềnh
aire
▁Ván
▁himalay
▁Mickey
▁thổ
mac
seé
zab
▁Industry
ur
▁Deh
▁Zhao
teng
▁Agon
▁thủ
▁Tochka
rophila
▁hoãn
▁heli
▁muội
▁NNVN
▁Kron
icial
QG
▁Il
ẻo
▁Bost
yk
▁Ory
▁Miếng
ematis
▁Mountain
▁silicon
read
▁Somal
▁Official
▁Murakami
▁Records
stown
amin
▁Hau
▁Oberea
▁Dum
ats
▁Caribbean
▁Af
▁Sah
▁Vin
▁Tịnh
▁Moss
▁Sé
▁Gob
▁Ukrain
▁GPL
▁Pilea
▁Mercer
<1801>
▁Mardin
ersi
▁Hamburg
▁Leucauge
▁tặng
▁SK
▁Ogas
▁TNBTCNN
▁Pikachu
▁Downey
▁Saltic
▁Lewinsky
<1438>
utch
ường
▁lầm
▁Navarro
kalan
▁sụt
<881>
ỐC
▁Jesse
idgeon
▁Aspal
▁Euphorbiaceae
▁Roewer
lanta
▁Iris
istigma
▁Boehner
osu
▁Le
▁thích
▁Éc
▁to
▁Agard
▁Clap
▁Mesol
▁Trum
▁Institut
▁Kry
▁Ltd
▁vặn
▁Hard
▁Philon
▁díu
▁Luer
▁Hsi
▁Liberia
▁Thống
▁math
▁Rund
▁Hero
jik
▁Jia
▁Parap
▁Maeda
▁Cống
ilion
▁Adolph
▁Leioth
▁RB
▁kir
▁Cach
▁balo
▁Coon
auchen
▁Vấp
▁Đi
▁Pierce
iks
akra
right
▁Tha
wehr
olica
▁Peter
rô
▁Centro
▁sọc
▁Seychelles
<1041>
ÔNG
▁đình
tain
▁Mesochorus
field
▁kilomet
▁Aulon
▁tố
▁Halictidae
olor
sam
▁Paraíba
▁kỷ
▁yên
▁thà
▁Meir
tha
▁Anci
▁Race
▁Colt
▁Diêu
▁Sắc
▁Dubai
▁Crosby
<439>
▁HĐXX
▁Man
▁tụi
▁Pulau
bê
▁Tind
▁EX
▁Morales
▁ricin
▁dưới
▁Senna
<1076>
▁Mon
▁ẩ
▁mồ
▁khanh
opsidae
▁caliber
▁rĩ
▁Latino
brid
▁Sho
▁Royen
aff
▁Prom
▁Leste
▁Coffee
ersey
▁Liv
▁ap
uzov
▁Update
▁Stick
oxit
hat
els
▁Lov
▁Negan
▁Yể
esta
▁XY
<1534>
▁lướt
▁tòa
olly
ulare
<1043>
ône
▁Thé
▁border
sat
▁Larsen
ario
<761>
▁Pelec
<688>
church
▁Mari
▁Interest
enburg
▁thẫn
▁Cabo
ifoliaceae
▁Cyclanthaceae
abar
aky
▁xui
ebo
▁brom
oplusia
▁Gates
uth
▁Direction
use
ci
▁PV
▁Jok
entus
▁Beh
▁Túng
sengumi
▁điển
▁Ioan
él
▁Phăn
ishima
▁para
▁Grande
▁Reza
▁vượt
raw
▁Đẽo
sonia
▁Muk
▁Limon
▁thuộc
bum
bur
ls
▁Dẹp
▁Kleist
nick
Le
▁sp
▁strong
▁Hrad
▁Salis
▁phờ
▁Calvados
▁Vya
inth
▁Bái
▁Chelsea
obasis
▁Ichneum
▁Ứ
▁Aberdeen
▁Tenerife
▁Tyl
iper
lie
▁Denis
▁KQ
▁HOA
ffiti
▁Brave
▁Đạt
ry
▁Pert
▁Craw
▁Platinum
▁Iber
alis
▁sợ
▁Nahiyah
▁Urata
▁Heidi
▁tỉnh
▁ngẫu
▁CDU
weig
osz
ostega
▁thỏ
▁nóc
▁rằng
▁Gómez
▁lắp
▁Kremlin
▁KSV
▁toạc
▁Holmes
▁rục
▁foli
anyika
▁serv
▁Agr
▁chơi
▁Điôxít
abolcs
▁Torpedo
urion
<315>
▁Lvov
▁đãi
▁Tect
▁Luông
íc
▁AJ
▁Saale
▁Parr
▁báp
èze
ơmu
<405>
▁Hamm
irlik
▁Gwad
▁Mak
ument
▁aen
ẽ
▁Rank
heimer
▁mặc
ostr
ichthys
▁Dictynidae
▁las
▁Kostr
<593>
reut
asone
TTQ
▁Aurel
<1398>
▁Stevens
ensia
▁Comte
▁hand
ermann
▁Paleo
▁Aladdin
▁Bad
▁Well
▁Adriatic
▁Ric
▁Helmut
▁prop
Ứ
▁Swans
▁xẻng
owe
▁Still
▁Chab
▁Talent
▁max
▁DLC
▁Sachsen
▁Clifford
ness
▁Conoderus
▁chổng
▁Georg
▁cấp
▁xan
▁lamp
acet
▁Pras
▁Inform
arz
<1810>
▁Chechnya
▁Chod
▁Cosmarium
atan
<1614>
attan
▁Vor
▁mửa
▁Foot
▁Vochy
▁Neckeraceae
opal
▁chức
▁ắc
uon
<189>
▁Vent
olm
▁Facebook
▁thở
▁Shaba
▁lò
obile
▁Noy
▁Amaurobiidae
<146>
▁Đếm
▁Ủi
▁Shikoku
▁Solar
anter
ropy
aguar
▁Tó
▁Ouattara
▁gon
▁Patriot
lab
rail
▁KAB
▁kèo
▁Caspi
odontia
SO
▁THOA
ẽo
▁Nix
yne
▁EUR
lau
▁Platnick
▁Khaisilk
▁Cabrera
fun
<1182>
▁Bott
▁sùi
▁Abhis
▁Be
▁thong
▁Collin
cad
▁Woodrow
▁Gazmin
▁hormon
artoum
▁ngoai
rz
▁Middleton
▁Acrocercops
▁mer
▁crist
<1253>
<1230>
▁Tiếu
ham
▁Youtube
▁Desv
<588>
▁LĐ
▁Lăng
▁Ama
▁Anastas
▁Office
▁bùa
▁chừa
▁nghếch
▁Ngày
▁Newton
▁Aim
▁Ishig
▁Chit
▁nucleic
▁Tehran
▁Brah
echnya
ton
ombank
▁Jinn
liano
oj
<28>
igyn
chet
Queen
▁CC
dinh
▁Hare
▁ÂL
▁Phiệt
onghean
▁Chặn
▁boliv
AC
▁mền
▁Creative
▁Ryuk
▁Fighting
▁Thò
▁Nobel
Ang
▁Marguer
<1661>
▁Jibril
jou
▁Bun
▁Alab
▁CSP
<650>
▁Varde
▁Rogozin
▁Lenta
▁ECO
▁nặc
▁Batista
kei
▁Ramm
jakov
▁muỗi
nhanh
▁Chris
osper
▁Vera
▁FB
▁South
▁Ye
▁RAM
arina
▁dấm
ystem
▁Main
exia
▁Smic
▁Dajoz
▁Kitô
▁Mee
▁Trit
▁tửu
▁Uta
▁chắt
▁Dhan
▁ukiyo
▁fast
GTVT
▁Qua
▁Trọn
▁perm
▁Johansson
<1625>
▁vẫy
▁nhởn
▁Cres
<1624>
ugan
▁Tsarn
▁SEC
▁Cung
về
▁Mắc
▁Hyksos
quier
▁cưỡng
▁lei
<1418>
lington
▁Geng
▁Up
▁Lima
olic
▁Volutidae
▁Taft
ft
ipas
▁Ọ
▁Tokat
▁FM
othele
▁ngừ
▁Fri
▁Ôxít
ều
umber
▁Kình
▁Tull
<344>
▁phay
ucation
ett
▁cùn
▁Phụng
<828>
▁Hmeymim
▁Keep
ours
▁Hinata
<566>
iga
wer
▁young
▁mbar
Í
▁Oct
arts
▁x
▁bil
▁Sein
aun
erick
itai
acon
▁Krishn
▁Polyt
oniac
▁tex
Á
auxite
<335>
▁Cyclosorus
▁tồn
▁trùm
âz
▁Noah
eddine
▁Yoshida
ATTP
▁Johnst
▁Amman
<417>
ón
▁đợi
▁Baha
▁Good
▁with
▁Lài
▁diếp
opterygium
▁ấ
▁ODA
eborg
▁hoằng
▁Còi
<extra_id_75>
▁Wh
▁Mugabe
▁IE
awy
▁Adal
▁vinyl
▁Robb
▁Kumgang
mann
▁Rao
▁UR
▁dậu
▁ưng
▁Umayyad
eport
▁Novgorod
uzu
▁Chiển
▁al
ìn
▁derby
<205>
edom
<230>
▁PHONG
▁nod
▁Bộ
▁Susilo
ward
▁dúi
<282>
▁Aleppo
ms
▁BH
▁Ger
▁Valencia
sod
▁Ly
▁twitter
▁Paulus
▁Rowhani
▁thuế
▁ô
▁Fau
▁Valeton
▁Carp
▁biogas
▁Tagalog
riô
rey
ovsk
èo
kan
▁Punt
▁Buôn
▁BTS
leur
▁Zhurav
▁Elena
▁Caladenia
▁thúng
▁cast
▁Nehru
▁ADN
▁Madonna
▁mot
ogas
▁cưa
LĐ
phar
▁Tiện
▁spir
▁Gòn
<extra_id_72>
▁brevis
▁QNa
<1409>
een
<1097>
▁Mosul
▁Oen
<1227>
▁rợn
▁Teut
▁Transvaal
eum
▁lạo
▁bàn
itr
sium
▁Levy
Õ
weiler
jib
▁Suh
▁Ngôi
omitrium
▁Machar
▁Thur
<6>
▁de
ềng
▁electron
EM
▁hae
▁Ramanagara
▁dich
▁Gilles
▁Beo
▁Lắc
uss
▁Mansour
▁Mug
▁Store
tu
chia
▁Shogun
▁Meade
▁st
▁Klang
▁PMU
▁Kansas
▁Glouc
▁Passalidae
▁Nil
▁Strom
▁Miyamoto
<61>
<1106>
<959>
▁USDP
<14>
▁Brúc
▁ria
ướng
▁Charlemagne
bonne
rill
theria
▁Jacqueline
▁Raoul
▁hat
jer
▁Mont
gorod
▁Siphocampylus
▁Vog
Saint
▁Kis
▁Villar
▁Bely
▁Asper
▁Maidan
▁sục
▁Trung
âu
▁Tic
▁Lô
phorus
ganixtan
etts
<744>
▁mấu
▁tục
<780>
▁Ciudad
atos
▁chơ
▁Mogherini
▁Mous
och
▁Mátxcơva
▁rug
▁chap
asar
<1786>
▁Bolero
▁Jana
ke
oridae
ciolo
▁rứa
▁elegans
▁Sa
▁Nig
<410>
atre
▁Elsa
illip
▁Viol
▁Cowan
▁Goiás
orough
▁Khâu
▁Scheer
bu
▁EI
▁phở
▁Blinken
erb
▁Berez
necht
▁Sle
▁Bedford
▁đòi
▁Weekly
▁Azerbaijan
avy
▁GE
▁Galileo
▁IBM
ansha
▁đen
▁Ryukyu
▁cảm
▁logarit
▁jin
▁Osiris
▁Winkl
▁Verdy
▁thảo
zac
<1535>
▁Lieber
neri
▁Ike
cas
▁Para
▁Camilla
▁Baltim
▁Pend
▁Magnus
▁Jaeger
kal
▁Beautiful
▁Wilde
▁Container
▁Navratilova
ekiel
iansk
▁Jasmine
▁Vo
▁mặn
▁Joko
▁Essex
▁Development
▁Gall
▁mid
▁nạc
▁Castel
▁vill
▁most
▁Vient
▁Phel
idiidae
term
<extra_id_95>
ochkin
enaria
▁Đáy
enzl
<500>
watini
ky
▁nick
rys
▁Casablanca
▁Cử
▁Shinzo
▁Lụa
stroem
▁Trắng
▁Poor
gi
<158>
▁ER
▁sấm
<1210>
▁Vở
▁Rayth
▁Thàng
▁Epip
▁cuốc
<678>
▁HĐND
<1604>
▁hàng
▁Hopl
ASS
ydia
ebus
▁rạp
▁Yay
▁xoắn
<1916>
<1748>
▁National
▁Lucius
▁Theory
chii
▁Manisa
▁m
▁Thược
▁Chrysometa
▁Miện
▁kham
▁Yll
▁phang
▁Mán
▁Anto
▁Hãi
vec
▁Acapulco
▁viện
▁Giẽ
▁Borussia
▁Soria
▁Scud
▁Wr
▁Tampa
ỗm
apoderus
brough
▁Nho
▁Theoph
▁Niam
▁Orion
inen
▁Chư
ations
▁GTGT
▁Maui
▁wiki
▁Order
▁khóm
▁nhòm
▁xốc
▁Notre
▁Hud
▁Loy
<492>
▁Tetrag
uski
<43>
<1759>
▁cáng
mia
ik
▁Ayman
▁Seif
▁Heroin
▁chốt
▁Hatta
▁CH
▁dồi
▁Connaraceae
▁PressTV
▁Gorsh
ist
▁Nàng
▁khỉ
▁choảng
▁Vênêxu
loban
▁Oposteg
▁Foley
▁Kaszab
▁ferr
otensis
▁cối
▁TU
ikon
▁Naja
<1327>
▁Phim
▁Ge
▁Frédéric
▁ròng
▁prat
pô
▁Merapi
▁Kobe
▁DM
▁Intel
▁Kalashnikov
▁ảm
▁Khế
▁Chuk
▁xắt
ivar
▁Nỗi
▁Strasbourg
▁Lausanne
zhi
▁háng
<1863>
▁Ăngten
▁dol
▁Palm
▁Mohammed
▁Hoch
otica
▁Aspid
otto
▁Palencia
▁ắ
▁Cur
▁Gaster
ujah
▁Abra
ipter
<1090>
▁Zong
▁Polynésie
▁Hinton
▁Tortric
▁Oz
▁Bout
enst
▁GW
ispidae
▁Torre
▁Parthia
▁Recep
ifs
▁Gross
▁LĐTB
▁carbohyd
▁Pars
▁nhuận
▁trêu
▁WM
▁Miller
▁rớt
<1819>
elos
<379>
▁semi
▁the
▁Audio
ột
▁Who
▁Cous
▁SNG
▁Thật
▁NF
▁census
▁đôí
▁lốc
▁NTSH
ritus
▁Gloucester
▁Garnier
ebrand
▁Austr
▁Motion
▁Derek
▁Hydroc
▁Field
dom
▁NT
▁silicat
▁old
than
▁Saud
ostethus
arkhand
engo
ifax
▁apicalis
icata
opop
▁Cranmer
▁Cucullia
manov
▁Thysan
▁Meyrick
<129>
▁Nah
Bike
opica
▁Nhớ
rade
apura
SCC
▁ị
▁str
heim
▁Đót
▁sh
▁Fuk
anger
▁Albuquerque
▁Nusra
▁Mill
▁Gordon
▁Hubb
▁Grace
▁Tí
▁Cunoniaceae
▁Nicki
oufakis
▁Z
▁Gael
▁porph
▁cọng
<481>
COM
▁Lazio
<431>
<504>
<1155>
▁Mew
▁Medicine
▁Khem
▁fac
bo
▁lăn
of
▁Les
▁Himachal
▁Pablo
▁Đua
▁inox
▁tặc
▁côi
▁Uss
▁hậm
▁Baba
▁Xan
rahman
▁MSF
▁amino
▁COD
êla
▁law
▁March
õm
igu
▁macul
▁chip
▁bại
tia
▁Toshiba
ảm
▁Dendroph
▁Severn
▁Dailymail
▁Primulina
ubov
▁Đẫm
▁clor
▁nói
onet
▁Rok
▁Ang
asc
▁au
esha
▁Đấy
▁Elateridae
EA
▁Sát
▁trẻ
▁Zay
▁Neh
<136>
ogan
ones
▁Rutte
nhof
▁Bổn
▁Messina
▁Samp
ermont
<830>
ahara
▁Suffolk
▁Add
▁Olmert
▁Joint
DM
▁Leptogaster
YP
▁Eli
▁Range
<1905>
▁nhang
avn
▁đức
▁they
▁ĐV
▁mph
enov
estic
▁bak
▁Whig
▁Khiếu
pure
▁gượng
ianz
▁Uots
▁hispida
▁Irmsch
▁BQLRPH
▁Cỡ
▁Idol
▁Đổ
ient
kot
▁Radula
▁cá
elur
d
▁Ageratina
▁Erawan
▁cọ
▁Yoko
▁Vành
▁lùa
▁Erag
▁Anthophora
▁Bryaceae
ĐC
▁Trigana
II
▁Zul
▁thét
▁Smile
▁Frau
▁Tuất
▁Network
▁Ille
dle
▁É
▁Ovi
À
▁Lens
antri
<1900>
▁kts
▁Henderson
▁Tiễn
otrich
▁bước
▁Yeo
jon
ỡng
▁py
▁Saqqara
<1532>
ơr
▁Cour
<1522>
vald
▁rock
▁Attapeu
eaux
angh
▁lỳ
▁chừ
▁hen
▁Diab
▁Boon
▁Triumph
ael
▁Scotland
▁FGFA
▁Vine
▁Pool
▁Củ
Ấ
▁Tetr
▁mạn
▁Ukraina
▁Shop
▁tuốt
▁Trưng
▁ww
▁Crepis
▁Yamaha
▁Stirling
▁Garfield
▁Contr
ihara
OS
▁carn
▁Lường
▁Ucraine
▁Markus
pie
▁Lamponidae
▁Daniel
▁Joseon
▁nỡ
▁nhiễm
▁Québec
▁PQ
▁Haram
▁Rash
▁Antalya
▁TMDV
fi
est
alore
serling
▁Alvarado
<1454>
eso
▁VAMC
▁Thoa
▁[
▁nucle
▁Vietnamnet
▁Casal
illes
form
ce
iê
<1252>
▁túng
<1757>
phor
<1406>
<1135>
▁Pt
adel
uku
▁DCNS
<1612>
▁ninja
▁Kimura
▁xtan
▁mận
▁Sính
<131>
RA
▁Chứa
ohn
▁Rav
ène
▁Pick
uela
imorpha
rocn
▁Miệng
angan
▁Rivi
anderthal
I
kii
▁phồn
▁Trăn
▁Cé
umi
▁Yukawa
▁MRCC
▁Wort
▁Human
▁tuông
rev
othy
oup
marsch
<89>
▁LÊ
▁Country
uyên
▁Fren
<876>
OM
▁ox
uval
▁Bend
▁Bissau
ah
ort
▁Valent
cat
▁Punic
▁PT
<444>
▁Quetta
ắc
▁Desmodium
▁Bowman
▁sự
▁Got
▁lac
▁Khalifa
▁bim
cosmos
<1276>
▁Ness
▁there
ẫng
▁res
Ồ
nders
orah
▁Indra
▁Hugu
▁Corinth
inalis
▁phò
▁Palp
▁bớ
▁bow
▁Serbia
▁Dwyer
<112>
▁rạ
App
▁chảy
tyn
▁Mảnh
jajiva
alensis
▁Zvezda
oprotein
nyeong
▁mat
▁xu
▁Sín
yptera
odictyon
▁Mika
▁Trafford
▁đun
icomorpha
▁Stratfor
▁Austrolim
▁giàn
aria
▁hit
▁Down
▁Yomi
▁Phai
▁Guzmán
▁Noteridae
▁Fordo
▁Is
▁Vinac
▁Monsanto
▁Ceryl
<1047>
▁Myrm
▁trip
mix
ỀU
▁Chưa
▁EC
▁thổi
▁Hm
▁Sunrise
▁ruột
▁lấm
▁Milwaukee
ốp
▁Thiềm
▁mõ
Ẩ
▁Pomp
▁FAL
yad
▁Hoành
▁Medan
▁Aziz
eling
▁Economist
yns
▁Hắn
stv
▁Andrew
▁Avignon
▁Â
▁muỗng
▁LGBT
▁Rông
APO
ass
▁Juncus
▁ACV
▁Vie
▁Dic
isión
▁Haruna
▁giăng
▁NXB
▁ĐSQ
bal
▁tro
▁Stap
▁pus
▁Friend
▁Goldblatt
▁sty
▁aden
reek
▁súy
rod
ắm
▁Bov
▁Narathi
▁vư
▁Vạn
HT
avis
▁Alc
▁Vita
▁hir
▁gig
▁Ax
▁Hộp
▁Lysim
aei
▁Messerschmitt
uporn
▁Adventure
▁Hul
SS
▁Jacqu
▁Castries
ahar
▁bần
▁vỉ
acebook
▁richter
▁Xinh
chat
▁Olympia
ectin
▁Monterey
▁Ashik
▁Commiphora
▁bợm
▁Cán
ette
skoy
<1023>
▁Gibraltar
robiidae
▁Led
<1761>
▁lềnh
▁Pan
▁Gunn
▁Deborah
<1880>
▁born
▁bùn
▁This
▁Ayutthaya
▁Morillo
▁thuốc
▁Goodman
▁Pamir
▁Tím
▁tành
▁Art
ík
▁Dul
▁Prud
ocarpaceae
inac
▁Leroy
▁Xoan
▁coron
▁Urum
▁cử
▁Králov
▁Rạp
▁Wilson
▁REUT
▁sw
▁Nổi
▁Bopha
▁Ngỡ
▁Bác
▁Kastamonu
▁Track
▁Glaser
▁LU
▁dọc
▁Nênh
<1561>
<66>
<520>
▁Davut
▁Casc
▁Rangoon
▁Natural
gom
▁Hutu
<1499>
▁Newcastle
ourn
▁Trù
▁Minamoto
▁rò
▁Rana
▁Phineas
ộn
▁Mio
▁Williams
▁ruốc
▁IRNA
▁Easy
▁Luft
▁HB
▁Huống
▁Benny
▁ùn
eira
▁Williamson
▁Suarez
▁đớp
▁Nara
▁Porcell
▁latifolia
<250>
▁Saint
▁mem
▁CBS
▁Figu
song
ès
▁LPG
▁Zayed
▁dem
▁lãm
atuan
▁Xibia
▁Ốp
<986>
▁Bihar
▁Newman
▁Resp
<770>
rad
ypter
ipit
▁GDI
shkin
▁Gom
▁Balkan
▁Warszawa
▁Xie
▁thị
hane
▁out
ographic
itata
▁Lic
▁xối
▁Macao
emys
▁Lukashenko
▁Betulaceae
▁hoá
▁Crum
<947>
▁Chức
osp
▁Gánh
▁Hiroyuki
▁Austria
▁Málaga
▁Alber
<746>
▁Varese
▁Slip
VN
▁carp
▁Alph
▁Pearce
ushu
aro
▁Carson
estidae
▁KG
▁RV
<extra_id_45>
▁Lí
sted
eor
▁cover
▁Tenn
▁Newport
it
▁Pav
▁Adolf
▁zero
▁tùng
▁khét
▁Deutsch
▁Mobile
▁Andes
▁sag
▁between
▁Hwan
<1639>
ifolius
ul
▁Guyane
ocrocis
eber
▁xứng
frey
alam
untain
▁điểu
ideum
igne
▁Juba
▁StarCraft
▁Tiềm
▁Endl
▁Diến
▁Đỉa
nyov
▁PAK
itru
idd
▁Millenn
<1063>
▁Chăn
▁Kamenev
▁imper
▁Madd
▁tử
▁sản
▁Kham
▁Tot
▁NDC
▁Lowe
eh
▁XII
▁Dũ
omal
▁Tran
▁VietnamNet
▁Ro
▁myc
cak
enau
▁Steinmeier
▁Starb
▁Carr
▁Rockstar
alp
▁obscurus
riyet
▁Hoth
▁dực
▁Apple
▁Bud
▁Fle
▁Dr
▁phích
▁Natri
▁uỷ
zat
▁microphylla
▁Nhựt
▁Nur
▁Triển
▁Isch
gian
▁/
▁bóp
▁Zamora
▁phys
▁NOV
▁mỉ
▁Gmina
eol
eiermark
▁Cheo
▁khoăn
ilon
▁vớ
▁Sabre
ów
issima
auda
▁Ngụ
▁Dund
▁Pavl
▁Resolve
▁Spartan
▁Sar
▁Gạo
▁Klim
▁PVN
ds
▁ức
▁Money
nett
oleuca
▁Kv
enkirchen
▁Kyl
▁Oliver
▁Trứng
▁Feng
▁NFL
▁Samb
▁SQ
▁Ayrault
▁Soul
▁Lw
otonin
ỨC
▁Dool
▁chạy
vili
▁Cric
rowski
iku
▁Factor
▁Ac
té
▁Hold
▁Video
▁Dysder
▁grandis
itarsus
<245>
eola
▁Mờ
oval
▁Bresl
▁Novell
▁xuống
▁Macedonia
▁thoát
▁Alder
▁kém
▁Brighton
insky
▁Tetrab
▁Gillespie
<140>
us
kaz
▁Aspar
▁Chalerm
▁Oxford
▁Prasad
bos
▁HCl
▁xua
▁PH
▁Po
▁Raz
itomo
<675>
thong
▁Jura
▁SBBS
PC
▁Sơn
▁Huỳnh
▁Colom
▁Medved
▁Normand
▁aureus
▁CATP
▁Canber
▁Prion
ansen
▁Hawkes
▁nhốt
▁Nhĩ
▁Cycl
▁Diplaz
▁nhói
▁Ledeb
oại
▁Ilyushin
ridae
IV
▁mọt
▁Hindenburg
▁Hartmann
▁Phạt
▁Messi
▁HỒ
▁Miko
▁Boleyn
▁Augusto
cinna
enki
▁Body
<1776>
▁tấm
oni
▁Jutland
▁Bourget
▁XHCN
▁Sword
▁Maiz
▁kab
▁Trent
▁pras
▁Ceratin
▁tiệc
ject
▁Zin
▁Pent
▁Liz
▁Kịp
▁Compostela
▁NGUY
▁trâm
▁Truk
▁Bactria
io
ụi
▁viễn
▁Nass
<543>
▁Pavlov
att
ict
edio
▁Ắc
▁Điếu
▁hâm
▁Ber
▁Nhập
▁UCA
▁Penn
▁Assam
▁ppm
TV
▁Wallis
▁Spartak
▁Campuchia
▁Chao
▁melan
▁Silvanidae
orra
▁Joplin
▁luc
cheon
nell
▁Bik
optila
▁HÀ
▁bức
▁Eus
▁Gõ
▁lateralis
▁Sô
ifera
hafi
▁Concordia
▁Crime
▁Republic
emen
▁Sylv
▁Hang
▁Gentry
▁Eocen
ới
<537>
▁về
<1046>
oidea
ography
▁Hosni
nee
▁Ammotheidae
▁lem
ophone
▁Bolzano
▁Sime
▁ICBM
ơu
▁Carne
▁Mem
▁Mons
▁Ut
▁Virginia
▁ngoắt
▁Ug
▁Chợ
phaer
▁Sard
▁Microc
tơn
▁Tian
▁Biệt
▁Voltaire
<1739>
<488>
▁Aegean
▁Sayyaf
▁Bauh
▁Sph
elli
▁Pump
▁Vườn
▁Hishamm
▁Bonn
erton
evan
▁Panam
▁Dasyp
▁Tob
omant
tland
▁kali
▁Secur
▁thồ
▁fal
▁Dnip
▁Rebec
icord
▁Dao
▁acule
▁ĐL
▁Thuột
▁Hưu
▁Mat
rac
▁Hunt
▁Lash
hazi
▁Yam
rence
▁mị
▁Vietf
hanensis
▁Prob
▁Hug
▁Dưng
▁rigida
▁buồn
▁tâm
▁Tiến
zh
mas
▁Sait
▁đụng
▁Twitter
▁chẩn
▁Leo
▁Tắc
uti
▁yakuza
oxylum
aus
▁Donovan
▁nerv
qawi
▁robustus
▁album
▁Cây
▁Giữa
▁Bing
aeum
▁Beni
jem
otoma
Ắ
▁Địch
uel
▁Amasya
▁Libert
▁biến
▁khoan
▁Extremad
▁Yingl
▁SV
roug
▁Selaginella
<286>
ướt
▁thốc
itary
▁sém
▁hươu
<1310>
▁sạc
odis
▁Pasha
ấp
chem
igl
▁Termin
▁Bettencourt
▁FDA
zone
▁Reiche
lach
▁croc
▁Anura
▁Leopard
▁see
▁mu
▁Chín
▁Fe
▁Fac
med
▁Kokang
▁succ
▁Erd
▁và
▁Hẹn
akha
<200>
▁Paran
▁quên
enot
<811>
▁Seng
ươm
▁access
cell
▁Service
▁Rian
▁tróc
▁Before
▁Mordellidae
▁Shugh
▁QUỐC
▁Riot
<1089>
▁rên
▁Quận
ister
▁GO
<1239>
▁Nhậu
▁tệp
quirer
▁McNaught
▁Sửu
ebb
▁Lili
▁Pre
▁Strategy
▁Ớn
▁Pai
▁bét
▁Assassin
▁Guyana
<1866>
▁Hansen
▁bột
▁Nina
▁UNAS
ein
▁trăm
sseldorf
▁LaG
▁Udal
▁ICB
▁admin
▁Xán
emy
▁Namco
▁tha
▁Nhẫn
▁Haag
▁Omsk
ozo
▁Commonwealth
anov
▁lè
tam
▁Campylopus
▁YP
iệc
▁Vyso
<72>
▁tiêm
ores
▁Zetas
▁Má
▁wood
▁Square
▁Federica
▁Magu
▁Jerusalem
▁chẹn
▁rờ
▁Escobar
▁ing
▁Chia
▁Boheman
▁Macrog
▁Petra
▁Ũ
▁Bén
▁Thâu
agara
▁MA
▁Montana
▁Chamberlin
▁Atom
▁Shap
itia
▁Twin
▁Honshu
▁k
▁Toul
▁Thiệu
ivik
▁Yakh
▁pud
liv
▁Melinda
City
▁Allianz
recht
▁mực
<592>
▁Ndrangh
ibr
▁Mys
▁Ceramb
▁FT
olution
▁cand
ai
▁hiểu
▁Hypox
ân
▁Druce
▁Ulster
CD
widwin
▁Trả
▁es
uz
▁Sigismund
▁Puebla
▁Saratoga
▁Vale
▁Fatima
▁Frame
<904>
▁Ferguson
ẹm
▁Kork
<extra_id_71>
▁Albums
▁dB
▁rãi
▁Va
▁Falklands
▁nè
▁Hạnh
▁cưỡi
▁Angelica
▁chờ
rensis
▁Fight
▁VDB
▁suk
▁Qur
▁fern
▁sảo
▁Trophy
▁Farm
▁Khơ
▁Figaro
▁Non
▁tưởng
▁Rice
▁Issa
▁PDL
riam
romia
▁CÔNG
bike
ins
fel
uttata
▁Scarlett
<extra_id_18>
▁Đôla
▁Edge
awa
▁đạm
▁Qatar
▁Phù
▁trân
▁Hybos
▁Córdoba
▁Hach
▁Belt
<533>
▁Ẫ
▁Tanas
▁Eunidia
▁chồi
▁Siph
▁Gio
rael
▁Gifford
▁Nickel
inos
▁tra
qua
▁Barney
▁Metall
▁phung
<572>
<981>
CACAF
▁Rơi
▁Paras
▁Dường
▁rộp
ophagus
▁kháu
▁trau
esia
▁sổ
ho
▁Proc
▁Ghost
▁Eubl
<1212>
▁Two
▁Colony
▁Abdulrahman
▁bic
▁Federico
▁Yur
▁Nay
▁Loạt
▁Trải
▁resp
ashtra
sses
ouck
▁Bala
▁Desmos
▁Karach
▁VnMedia
▁Turner
▁Teg
▁ngời
▁Sheng
▁Amp
▁Dod
▁Sệt
▁Srin
▁Clarence
▁bổ
▁Beyoncé
▁Committee
▁Nathan
▁Krz
▁Ishihara
▁Dido
▁Rivière
▁Kart
ML
▁gỉ
iệu
<298>
fries
▁pun
efre
▁mày
ited
<360>
▁Altai
▁Cagli
▁Plotn
ogyakarta
▁xóm
▁sab
▁Ibaraki
▁TMA
▁Ic
▁Writ
▁Giống
▁cặp
▁Mận
▁Microstylum
nc
ivan
▁Door
▁Clapper
▁tảng
▁Tribune
roth
osomatidae
uyến
▁Brach
▁lúi
<445>
▁Plotnitsky
▁vã
▁..
▁Gluc
▁khuấy
fried
▁thẳm
▁Guz
▁DOC
▁máo
▁dề
▁Promozione
▁Were
▁chịu
▁Pomorski
▁Sướng
<698>
▁xẻ
iti
ider
yo
▁Studio
▁TPA
▁Produc
▁Krai
gan
▁tận
▁Mana
arab
▁Frosinone
▁Yat
▁Amir
▁Veng
▁Walp
▁bực
▁reg
▁kíp
▁Toulo
▁Brun
eser
rillia
▁thông
▁Lowell
pa
▁ếch
▁Herb
▁lộ
urina
▁ác
come
Care
▁Dop
erta
uy
▁Dresden
▁Melbourne
ume
▁Boss
▁Lôn
<929>
<664>
▁khoát
▁Odon
▁phân
urus
zny
▁Cumberland
▁Agost
ks
hik
▁Seychell
▁tắt
▁Scots
▁Boomerang
▁PD
▁Marty
▁Dann
đã
▁Tháng
▁home
▁nhai
▁fir
▁Mưa
itol
vre
yuan
▁Bagdad
ano
▁Vim
▁Vaccinium
▁SAR
issus
▁úng
▁ngả
▁Farid
▁Lesbos
Qu
▁Đẩy
▁Populus
▁Quay
obryum
racantha
<599>
▁Aurelius
aburi
udo
▁peruv
now
osperma
▁Teuton
▁Lược
▁sữa
▁USNS
<1549>
▁Tipulidae
▁bàng
<408>
uren
▁lời
▁Neuroptera
▁Novara
▁Puk
wan
▁Sparrow
▁hứa
▁Ib
rip
LA
▁Soon
▁gard
aska
chb
▁Big
pid
<187>
▁Mello
Ũ
icella
eople
yli
<1262>
▁bên
ớm
▁Hag
▁Das
▁Fad
▁magiê
▁BND
▁DW
▁Daewoo
▁Shake
▁Radcl
▁Aq
zhev
BO
▁riêng
anakkale
▁Nolan
▁Oedemeridae
▁Hỗ
▁CTV
▁Bis
tis
▁TIN
leg
▁Frag
▁micrantha
▁Hallow
▁Rainsy
yphus
▁Sylvia
▁SY
▁Bri
iction
▁còm
▁Pomina
<1811>
<576>
▁Aquino
ytsia
▁Cienco
▁Kurgan
<1285>
▁Prab
edov
▁Sas
skie
▁Tikh
▁Gun
▁Philosc
▁Desmond
▁Penins
ibal
▁Côtes
▁Pyrros
akote
▁ghé
▁Takah
▁conf
rance
▁Dictyna
▁sực
▁Sardegna
▁dòi
▁cuội
▁Joker
▁Fonseca
aka
iplex
▁Backstreet
<451>
▁lith
hiri
▁Rodriguez
rie
▁Pretoria
ofa
▁Lỗ
agh
▁Columbus
▁Devon
▁Tính
▁húng
▁Trảng
▁khò
▁Za
fjord
▁Thư
▁Pskov
▁chiên
▁Purple
aing
▁Yerevan
fra
▁Ribeiro
▁Timberlake
▁Zav
▁Frisia
▁Crus
▁Web
▁Brachyth
▁soi
EPCO
▁Ace
▁lụng
▁Look
▁Somaliland
ioth
cial
▁cộ
<18>
▁Blum
iện
▁Dicranota
▁lấn
SCL
▁Kogalymavia
▁PTT
ch
▁htt
ersii
▁Grau
▁Khuyến
▁mad
rops
estina
▁Nòng
▁aut
ebr
▁TSKH
▁NDĐT
▁CSTO
▁Toru
▁jong
▁Bụng
▁Castilleja
<624>
▁Indigofera
xit
▁Methyl
hidi
<extra_id_29>
week
▁cõi
▁tiếm
▁Theridion
▁Mitrom
▁Xảo
▁Gag
▁Bonif
zig
▁reticulata
oid
▁Knight
<629>
▁buồm
éc
▁Irkut
▁tần
▁Dis
▁Pueb
eral
elsen
▁Beit
▁Taub
▁Vai
mers
▁móp
urgus
▁Voòng
sonne
▁Yon
umm
▁Sailor
▁CS
itskaya
▁Club
etina
▁scandal
eker
<1912>
▁Spiegel
▁Freiburg
▁Bấy
▁Anyphaena
▁Basarnas
▁Christine
GH
▁Hypena
▁ENV
<414>
▁hoay
▁Children
▁High
▁Bắn
▁Đạm
▁Cao
ieri
▁Dlamini
▁xén
▁Sae
linger
▁Greenwich
▁Hid
lac
adon
apolis
ober
omidae
▁kh
▁College
opha
▁Eisenh
▁xưởng
▁nghỉ
▁Reagan
▁Singer
▁dào
▁Alderw
▁SYT
▁cellulose
▁Rabat
<906>
▁hao
▁Platyst
▁mưa
ocrates
▁lấy
kos
▁Rivera
▁Mast
▁chum
<1559>
▁Malat
ihalli
▁Zala
àng
▁Androp
eland
enidae
ỏ
▁Tá
▁Puy
▁AGM
▁Durand
▁Dangerous
▁VietTimes
▁Dipoena
▁Kịt
anda
▁Berber
<776>
▁tuk
▁Goethe
▁tơ
▁thói
▁Din
▁Ana
▁mướt
enkov
▁Vay
▁Brachythecium
▁reo
▁Norodom
▁Orleans
▁García
evik
▁thửa
▁Afar
▁Hiện
▁Thần
alter
▁Đùm
▁Amor
▁Cerv
atoides
▁Limb
uni
▁Prz
▁Kẽm
<1689>
▁Malvaceae
mah
<216>
evitch
▁Khatib
▁Sind
▁Trogossitidae
▁Hiern
▁Moldavia
▁does
▁Cat
▁Vững
yrus
▁thor
▁Họ
▁Marshall
▁Morning
▁È
▁Bortnikov
rex
▁pubescens
érie
▁Wembley
icaud
▁Vespa
▁Andreas
▁Won
▁Nimr
▁Leah
stand
▁Gonz
obleph
inot
orhynchus
▁Dê
▁Epidend
<119>
▁Noum
▁Bom
▁Nursultan
▁nhằng
▁line
▁Tez
▁Duệ
▁iod
zquez
▁tháp
adh
▁sầm
▁thò
▁Sweat
▁bịa
▁Nakamura
unia
idor
▁ù
▁pap
▁Papadem
▁Ptilodactyla
<994>
▁tort
▁Giêng
▁Volgograd
▁Yeonpyeong
<459>
▁phế
ensus
mittee
▁thể
▁Schleswig
iles
olina
▁Tho
▁Mải
okes
▁joh
aleuca
▁đùn
eguard
▁SQL
▁Elek
▁Đem
▁COP
<92>
idel
fe
▁Severodvinsk
▁Gy
actyl
▁Gibral
▁Myrmele
▁Never
emin
▁nạng
▁Dor
▁Hier
▁Watergate
▁margar
▁Yol
▁oper
ularis
▁Mitsubishi
▁Sol
▁bích
shi
▁đáp
DC
▁bông
iki
osuke
▁Fariq
▁tràn
▁Polemon
▁Hari
▁Beilschmi
<503>
ype
▁Murad
▁Lokomot
vaal
▁Syr
▁hóm
▁Ceph
wei
▁Dub
aho
▁Osho
xt
▁Mordell
▁Limoniidae
seus
argi
▁Croton
▁Pot
ọt
iones
▁sông
assia
▁Gibson
▁Kingdom
▁GameS
▁SI
▁5
▁Trav
▁Lống
▁hồn
▁Campt
▁vỏ
▁SE
▁Yersin
▁Vulcan
▁mâm
▁Messia
abi
▁Wilhelmshaven
▁Pedro
lyc
▁Ira
▁Kays
<279>
▁Olm
akl
▁Bướm
ộm
▁pounder
▁Nevis
elm
▁Ethan
arth
▁zoom
urst
▁À
▁UE
▁Atta
▁Xã
▁đờn
ỆN
fort
▁Presl
▁vùng
wing
▁Koichiro
eolatum
▁Genji
osus
amoto
▁Quynh
▁Bogota
▁cy
▁của
oche
▁OF
<1266>
uo
▁Bốc
<1722>
<76>
▁Stephen
▁Band
▁sericea
▁Huck
▁trễ
▁xắn
▁boong
▁Tunisia
▁phủ
▁Dance
igas
aust
▁President
ains
dock
▁thoả
▁thức
▁cô
▁thư
anke
enahalli
opodium
▁Giresun
▁Trinity
▁hiệp
▁hung
▁tồi
kreis
▁náu
▁Product
▁Simone
▁ferruginea
▁Nhụ
▁Ùn
azer
▁Lách
▁Cần
▁gôn
ambus
▁level
▁Bellary
▁gigant
▁Dải
▁Maranh
<637>
▁Taraxacum
▁Shekau
<952>
▁Marusik
▁chỉnh
▁Evangel
▁thẩm
▁tật
▁head
▁Fum
▁húi
<1369>
astus
ánh
▁KHÁC
<1137>
▁quyết
▁đẩy
▁Amsterdam
time
ớc
▁vàng
nk
▁Bristol
▁Combin
Sp
▁Matter
aite
▁UNO
▁Chương
▁PVTex
▁Grumman
▁Bì
▁angustifolia
ammer
▁Abruzzo
egopteris
▁Stryker
▁rận
í
▁Hayden
▁Liên
aulipas
▁Doc
▁Rẫy
▁Prông
uire
osis
▁Parris
▁Gladiolus
▁Vf
▁Th
▁Ral
▁Dylan
▁Glenn
CON
▁Return
▁Olympic
ườm
▁Khal
opis
▁Chrom
▁Bro
▁đồi
ôc
▁Rủi
▁grandiflora
itta
▁Cha
ophthal
▁Nepticulidae
oena
▁tép
▁RM
▁sỏi
▁Wong
ococ
▁ớn
▁Chávez
ichneumon
▁Ferm
▁Isabel
▁rad
▁Chậm
▁Bald
▁Cụ
▁tric
▁Chor
ious
mes
▁VPCP
▁Wladislaus
▁Nơ
▁Sie
▁Đam
<1576>
▁Constantine
▁Chiov
▁Sputnik
▁Borgo
▁Carter
▁Boca
ochromis
▁xtrây
▁Goebb
▁Tropid
ậc
ianella
▁mọi
oir
▁Vex
▁Eclip
▁thiển
obius
▁Aurora
aterina
▁André
ogna
esian
IDE
uta
mart
▁Nazaire
▁phác
▁Ceb
obolus
phy
▁Warmi
uma
mium
ebanking
▁Eff
▁Taeyeon
ylan
▁Shadow
nin
▁Gok
▁Jackie
▁Muscat
▁Jenn
epalum
<1098>
▁sandwich
Com
▁Ailen
▁ANTV
<352>
▁Cũ
▁nhĩ
ead
▁RGB
▁Belorussia
ttky
▁Hamburger
ize
ki
anzibar
<1147>
▁Hert
▁hói
▁Karad
▁Higashi
▁diez
▁Arya
▁plutoni
ình
▁trọi
▁angolensis
stanbul
▁Reich
▁Woody
ám
bah
lahoma
▁sai
▁Hull
▁alc
▁QN
entia
▁Nazareth
<58>
andria
<1476>
▁dó
▁Pers
▁Shiva
▁SmackDown
<81>
trup
▁Wise
gos
▁dẫn
rastrum
▁Want
▁ngàn
▁lasi
ovii
▁Var
▁trá
▁DRDO
icau
▁rực
▁Eind
▁Centre
▁Siirt
▁Saigon
▁Alexandra
▁Pena
▁Coelotes
▁thoa
▁mam
▁Limonia
enso
▁gạ
▁AAM
▁tàng
ượm
▁Cou
verd
osome
▁concept
▁Album
▁Uppsala
▁gluc
▁van
▁Fernandes
▁ves
ướu
inde
▁pac
▁Marguerite
▁Trác
TM
▁Burm
▁Suri
▁Vihear
▁Chóng
▁kẽ
▁Aquafeed
<1546>
inc
<240>
▁Cửu
esl
▁Fug
▁insul
▁Marion
▁Rita
▁Viz
ướ
iếu
▁dừng
▁QL
▁dẻo
key
ocos
▁Partners
▁Thích
▁Bauhinia
amil
▁Hanna
▁Suzuki
▁anten
▁rưởi
▁Ulaan
▁coria
▁Berne
▁Agave
omphus
eot
ated
▁THANH
rito
▁Dell
ido
▁sun
▁Tir
ura
▁Kofi
▁CAR
<extra_id_5>
▁Mâm
▁Kessler
▁xắc
▁Phyll
room
▁Lastrea
eld
▁biết
▁Luftwaffe
▁Nghiện
▁KPA
▁Ormoc
▁Brabant
odus
▁ngổn
▁Marxist
uyama
▁Lehm
▁Mẹ
aoke
▁Yeltsin
encourt
▁lặt
▁Sergeyevich
pi
anthe
arm
▁CYP
▁Lam
▁Dứt
▁Tẻ
▁vút
<1143>
he
For
▁Hezbollah
ERS
agnep
▁Billie
▁Feynman
▁Freder
▁hiệu
▁Craven
▁Flores
<1077>
▁Marne
<1314>
▁Lehr
▁chét
emera
▁Barra
▁Coelioxys
ỌNG
▁Littorinidae
▁đó
ebank
▁Osp
▁Normandy
▁Pots
uchi
rau
▁Alp
▁Pattaya
▁Centau
▁AB
▁Trier
▁mov
onicum
yia
▁Heliconia
▁Kerry
▁Oak
atarina
bc
▁Limited
▁TTYT
▁mau
▁Prote
▁prote
▁thăng
JP
▁Lady
▁nán
▁ngẩng
▁Pay
zil
ostola
▁NAT
▁ỗ
icollis
▁LCA
▁Boeckel
arde
▁TMCP
hib
ilin
▁Amy
▁Manila
▁Zdrój
▁Mycenae
▁Sapporo
▁Hẳn
▁Congress
▁sulfua
▁Trifolium
▁ngút
▁Senk
illima
<1100>
<969>
rushev
▁Marcello
▁T
▁chụp
▁sc
▁Sark
▁cố
▁Wyatt
aiman
▁Kissinger
rouz
arin
▁Right
ser
▁Đời
▁Klitsch
▁phức
▁Reuters
▁GPBank
▁quỵt
▁Colub
<1415>
olith
▁Sunderland
▁Mer
▁Savoie
▁Clayton
▁Ked
▁Mốc
▁Lud
▁Kam
▁eo
atic
▁ES
▁ủ
▁LX
gis
▁Fag
▁Kylie
▁Brade
RAAM
▁Magellan
▁Cộng
▁Rost
▁Watan
▁Schimp
▁rệp
▁Anom
▁Dendrobatidae
▁Cooper
▁virid
▁Golan
▁Duterte
▁Pollard
▁INF
▁Rudy
▁lor
elet
▁nin
▁Tmesisternus
▁Deal
irl
▁Joan
▁Belfort
edonia
▁Tbilis
ensky
▁Shiro
<1011>
▁VIA
<1300>
ospilus
▁Quest
▁phen
abria
▁Đẻ
▁smart
dorf
▁Medell
▁Zawahiri
▁tám
▁Niger
▁Watch
▁Oed
éo
▁triang
▁sõng
aima
▁Swart
▁Ecnomus
eway
▁Gestro
ales
▁Islam
▁Dante
▁CSPCCC
▁Cháu
▁rương
On
duce
▁Coen
stantin
▁Wakayama
▁Balik
tông
▁Cảng
CNS
▁Trĩ
▁ADMM
▁hirt
▁Rơm
cast
wich
▁GTĐB
minster
▁rod
lim
▁CN
▁Rễ
odactyla
ẢN
enn
▁Eisenhower
pens
ropoda
▁Kreuz
▁Assange
▁BLTT
▁Wald
▁Antôn
▁Sel
▁Pyrénées
▁AESA
▁Sách
▁zo
▁Bah
▁Ấm
▁clip
▁cat
aler
▁obsol
▁Saadi
ee
▁trư
<425>
ovit
▁ISS
aliph
▁Fouc
▁Kamikaze
▁Farah
ien
▁Berg
aware
▁mói
▁Unha
▁PLAAF
ahn
▁Zarag
maire
▁Tsh
sh
▁Matxcơva
▁HỒNG
<extra_id_10>
▁Kimoto
indra
ùng
▁Glenea
▁Mey
▁Xuyền
▁Nation
▁Nghỉ
▁Pott
gas
▁mak
▁Independence
▁Shaun
▁Justice
▁Booker
▁DSS
<326>
▁Lưỡng
▁Lek
▁dos
▁vulg
<1755>
allem
▁khôi
▁khốc
▁kỉnh
<793>
▁CM
▁Ky
▁Raj
▁hydrocarbon
▁Vlas
▁Ới
▁ẵ
▁Cleridae
rome
▁Vasili
▁Aeg
▁Ad
▁MG
▁Philodromidae
▁Markgr
▁Share
▁Bibi
▁Thank
▁Bertrand
▁BizL
▁Chuồng
▁Sonad
<1383>
▁Bò
▁Negev
inocy
aill
vulus
ishu
▁Dứa
▁López
▁Wit
▁Dọa
<1074>
▁nhộn
▁Fabio
▁sình
▁Bruss
▁Steinm
▁Houten
▁Bolb
▁bạc
▁Dorcadion
rem
▁Bagh
tona
▁Albirex
▁Cân
let
▁zir
▁Ophioglossaceae
▁căng
▁tắm
ằ
upit
▁Giơ
ayas
▁Freetown
▁lép
▁dộng
▁Mảng
▁plumb
▁vel
▁Sivas
▁Kirov
▁khấu
bb
▁Sidi
▁lông
oross
olensis
onicus
▁Félix
▁Wernham
▁Eight
▁Đãi
oteidae
▁Guevara
▁Uc
▁lự
<979>
au
▁vịnh
▁As
▁tủi
ocolea
▁seg
▁Amblystegiaceae
▁Sop
▁Nats
▁Acroporidae
▁Díaz
azon
imax
▁Drilliidae
▁cụp
▁Tối
▁nên
▁lun
▁oa
▁VGP
ís
<1199>
Station
▁vạm
▁Cầm
▁HĐ
▁lind
▁ngô
▁sào
▁Tao
▁đảm
▁ov
<1233>
▁Chẩn
▁Julio
▁Orissa
▁Thiếu
▁Slipinski
▁Papilionidae
▁delta
▁Poseidon
▁RE
▁Innova
▁Hớn
▁Opera
▁Bahia
▁Ngãi
▁SHTT
▁đãng
▁taek
▁Isma
▁penicillin
<1643>
▁Côte
▁Rào
▁Aut
amiya
▁Ak
▁kk
▁Bruxelles
<1736>
ênh
ula
▁khoắng
<1703>
sp
▁Calli
▁Abuja
▁Sande
▁xình
▁Bain
▁Allan
▁Guderian
▁Gi
igera
▁xóc
uras
Pa
▁Popkov
▁Dolomedes
▁Ebert
▁luzon
▁Jedd
▁chuẩn
▁IFA
▁uế
▁Aleks
inium
▁leuc
▁Ops
ippi
▁Mua
angel
▁Cip
▁Oerl
▁Shintaro
▁ĐBSCL
▁Company
ibe
▁Đinh
▁Raphael
▁Shia
▁Phổ
alc
▁Russ
▁Taekwondo
▁nhú
▁đẽ
▁Akbar
▁ẹp
<47>
▁Koppal
ity
▁trướng
▁Potter
▁ôn
▁bac
▁huýt
▁dìu
edi
▁Bội
▁Nhạn
▁APG
wein
▁Back
▁glau
▁Salticidae
▁lơi
▁Famicom
<568>
▁concerto
▁virút
wold
ées
▁Cảo
▁fin
<1773>
<1878>
iễ
▁found
▁tầm
ardii
▁Bened
sby
▁hydro
▁Chopin
idase
▁spinosa
<1377>
▁diện
ull
▁Bapt
ochth
▁Đâu
▁Milo
▁Cái
▁England
▁Khur
▁chìm
aught
▁Shink
▁Abdu
▁Tongchang
ellaceae
▁dơi
▁Rhyacophilidae
lake
▁Hun
▁Bonin
▁microg
▁Al
▁Express
▁Khỉ
ré
▁pop
▁Xia
▁Nas
▁COC
▁UT
enthes
ceptor
▁SEAL
▁Kastamon
▁Thụ
▁Dro
▁ok
oul
▁Shebab
▁NYP
XX
anta
▁Herceg
<970>
<1651>
<657>
<789>
<1531>
rostis
▁Leaf
▁met
▁PG
▁Momb
▁Argiope
estan
▁Bedd
▁Milos
9
▁Riek
▁Ios
▁nón
▁Pomer
▁mùa
escu
▁Dros
▁đuổi
▁Kul
▁đênh
▁hor
<1622>
ovision
▁Diễn
▁Pil
qq
▁hụt
▁Count
▁Pattani
▁nịnh
▁Kyiv
▁Proctor
▁Dreamcast
▁hí
▁thắng
▁Pung
iens
ina
<903>
▁Aki
▁Gọi
▁quàng
▁Marsden
<1727>
<772>
Z
aine
▁Anti
▁BW
▁codice
▁Yuri
▁Quất
▁Allium
▁Chanc
▁Nub
▁Industrial
▁tích
uki
▁Griffin
▁Leth
▁Dầu
▁Coff
▁Songs
▁Bonap
▁Software
▁Bales
<699>
<1219>
UM
▁macrocarpa
▁QĐNDVN
▁thoáng
rp
▁thợ
▁Himalaya
▁Rosario
had
angi
▁Cors
▁Erigeron
▁thỏa
▁quặt
▁Doan
▁Ol
▁ket
▁Obi
<1617>
den
▁rec
▁ElBaradei
▁Rhipid
▁caffeine
▁CBCC
<436>
▁Pob
▁Guinea
▁lớp
▁CQCA
<668>
▁khêu
▁Shab
▁Pterobry
▁Orban
▁Ueshiba
▁Ether
▁tết
▁Mauritius
▁affinis
▁Hiền
▁raion
elum
▁Ipsos
▁Maire
▁Wine
<314>
▁Nhanh
▁nhành
▁mó
▁Jeanne
k
▁Fokker
▁AirB
▁Sal
▁Mossad
▁Troy
▁Ferrara
adies
▁Quar
▁Hayat
▁Schindler
▁Nkur
▁FUN
tua
▁Tổng
▁Schiffner
sil
ern
▁Communic
▁Pleuroth
▁chứa
▁phía
▁Cindy
▁Giu
▁Văn
bul
▁HNM
▁ngao
▁Stigm
<563>
<1889>
▁Kudrin
▁Qaida
▁sua
<821>
<741>
▁GIA
qu
▁Lac
▁biển
onius
lord
▁sạt
▁dứa
▁Valls
mour
▁view
XV
ăng
▁Anthrenus
obos
inaria
▁con
ontia
ted
▁DAR
▁Kerch
▁ổn
▁não
arest
phila
▁Polhill
▁Roux
▁Khà
▁quen
▁TNCN
▁Curtis
▁gấm
▁nhếch
▁Willis
adores
▁Calceol
▁MSDF
▁ASIAD
▁trời
ặp
▁Andren
▁Muricidae
otrichum
etorum
nataka
▁cơ
osidae
ker
▁Reina
▁Bare
▁BTT
▁TTGT
oside
ipus
▁angust
▁shisha
▁một
hua
▁Szabolcs
▁Moskva
▁quẹt
▁Jungle
<375>
<270>
iuk
▁Bẩy
▁lav
▁Hunter
▁magie
▁Olsz
acola
▁Serdyukov
▁acoustic
▁rik
▁Drag
ovsky
▁tĩnh
▁Emmanuel
auchi
lán
▁Yos
▁canô
▁Sessho
▁ốp
▁Vall
▁Bergman
<549>
▁Rihanna
▁BP
▁Neoc
▁Đ
▁iT
▁Mesh
▁Helicopsychidae
▁đôn
▁Mut
▁HMAS
<1324>
▁Datuk
▁Eph
▁Quýt
▁nhắc
òm
▁ether
▁Stockholm
▁MF
▁luôn
<1272>
<1371>
▁Ừ
▁Yongbyon
▁rong
▁HOÀNG
▁nhanh
▁GPLX
▁lỗ
▁Roos
▁Bèo
ỵ
polis
imex
▁notified
ipogon
▁Phúc
▁Ogasawara
toch
▁Not
▁margin
▁Cronquist
▁Kenshin
▁rảo
▁Lucas
ombe
▁Mark
▁EDC
▁Tour
rub
<1903>
▁Trùm
▁GDĐT
▁subt
▁nắp
▁Doãn
▁Thund
▁mun
▁Faw
▁Burke
agua
▁Neva
▁Tùng
<1338>
<1269>
▁erem
Ê
<311>
▁Phú
▁vay
▁Ninh
▁Banner
▁Fre
▁TTAT
▁coc
<1831>
▁Cobain
▁BPC
ulus
▁Bion
▁ESPN
▁Gành
▁Chou
▁lút
eing
▁Trường
ẫn
▁Litsinger
▁Huguenot
▁TCty
▁HTTP
▁Apollo
irang
▁Phô
▁Mía
▁Hạng
boa
aii
▁Banh
▁Permi
▁trả
▁BIDV
▁lưới
▁hạch
▁Thấm
▁Wemb
opleura
▁Rhynchosia
▁Ardèche
▁Porphyrinia
ustrial
▁Liberty
▁VAT
▁Beno
▁Airline
▁Yu
▁Covent
▁Plagi
▁nghén
▁Isaac
▁riêu
▁Fei
<301>
▁vữa
▁rượi
▁Yout
oto
▁Qass
▁Lesotho
ames
▁Cannes
▁hoa
▁Oaxaca
▁Hac
▁YG
▁Sutton
▁Nept
▁Tud
ạng
▁bá
rid
<519>
▁Misrata
▁ngàng
<422>
▁Orle
▁sl
scher
▁Joaquin
▁Alger
▁Phraya
▁mỏm
ible
▁khít
neumon
▁CSIS
▁Caldwell
▁sơn
▁por
▁Chan
<819>
▁Sil
▁mộ
▁Clus
<804>
▁Nhã
urger
eper
▁giường
▁Psamm
▁Electric
▁đạt
▁Bức
gara
▁Thuân
wondo
▁Fleutiaux
▁Severod
▁Fund
▁Philíp
<800>
ature
<1346>
▁Khảo
▁Pyr
▁don
▁Noether
▁đẻ
<860>
▁Ord
▁Stay
wyn
▁hì
▁mớm
▁Guth
▁Horse
▁DAB
▁Nars
▁htm
▁đỏ
enza
▁em
▁HD
▁Head
▁Kô
gir
▁Góp
▁Nepeta
ichia
▁đẳng
▁Winner
▁lượn
ropet
▁ưa
▁Beb
eshow
▁crypt
▁Warncke
▁Shao
▁Miếu
▁Akh
▁bứng
▁NU
▁Ỹ
▁Pyc
<1479>
<1577>
▁Ndr
▁McCarthy
▁Mary
▁Uh
▁Police
été
▁trác
▁Tener
▁Corp
▁phái
▁TCN
GA
ivi
▁Kết
▁Topol
▁Azhar
▁aff
sk
▁Tàn
▁Aisha
▁Sap
▁sess
ange
▁Ajax
▁Nicole
▁Chip
▁ph
▁Mao
▁Khẳng
▁kiểu
▁Sebastián
▁Aleksand
▁Chibok
▁amp
▁heter
▁Pretty
▁Turnbull
<extra_id_50>
▁Imam
▁Phong
rell
▁Wis
olod
combank
▁Fly
arpus
▁Beeth
reira
ocera
▁Shri
<598>
▁Hernández
kopol
<1394>
▁Đoan
aratnam
agawa
▁Ctenidae
▁bắt
odium
serrat
▁Siena
▁Mutassim
le
▁bọc
▁Jav
▁Cột
▁Ural
▁Holt
▁Images
▁cos
ÓNG
▁Manuel
▁Emer
▁Nell
▁trút
▁gutt
tenberg
▁Chlor
ổi
own
ocephalus
aoud
<1870>
▁vua
▁Agu
▁Kei
▁Đùn
▁Copa
▁boson
▁Fring
▁URL
<516>
▁BYT
angu
izer
▁nhậu
<1013>
▁Tony
▁Uly
▁ray
ũa
▁Barleria
<1006>
▁Jal
▁chữ
▁Trưa
▁Pushkin
▁Trafalgar
▁Myster
▁species
▁Uk
▁Manager
▁Vua
▁Gast
▁cub
▁MKI
▁Halifax
▁nhiếp
▁Dinh
▁Huyết
▁Eryng
▁Tạo
po
▁đấm
akchaikul
▁Anpơ
<1175>
▁Camry
iwetok
▁Albany
▁knot
xo
▁Thymo
uf
▁Vogue
▁Ryan
lingen
▁Shakhtar
▁Pah
▁Laden
ys
isi
ogramma
<347>
▁TRA
▁LG
arta
ineensis
▁Messier
ango
▁Carnev
▁Aikido
▁Jokowi
▁Thuận
enic
▁Gibbon
▁TAO
▁Jiji
▁Moltke
▁bari
▁Naypyidaw
<1892>
▁Saussurea
ygen
▁Jeddah
▁sả
▁Atel
ogramme
uu
<633>
olestes
▁mát
▁Surapong
▁pter
▁bì
▁Ị
▁Single
▁Pays
▁tã
▁ion
▁Napoleon
▁Bois
ech
▁Greens
▁Kahn
▁Đỡ
▁Sergio
▁Rep
▁Parub
vus
amis
▁Hợp
wish
▁Noi
lycam
iagara
▁varieg
▁Shigeru
▁ngoa
▁ĐN
▁Challenge
▁Manch
▁VA
▁Kost
▁Lama
▁Lung
▁Flam
▁inh
▁Gillard
▁Sentinel
▁client
▁trứ
▁nana
▁Karim
▁Chảy
ctidae
▁Gotha
▁Tiber
▁Điệu
usen
▁Takashi
erst
▁CW
▁đ
▁Dipseud
▁Tuyn
▁quắt
1
▁cạn
▁Lèng
▁EURO
emonte
<1308>
▁Malv
▁grand
▁bướm
▁Merr
▁ứa
▁Marseille
▁Saif
▁Kiss
hm
▁Giáo
▁Oan
▁piano
▁cyanua
echa
▁Fish
▁Sleep
▁Dvina
▁Thuộc
▁Thậm
▁Thani
▁Alta
▁Vladimir
cleus
▁Nachi
▁Grac
lade
▁Glen
▁Century
▁Polynesia
▁Obam
▁Dio
▁Wanderers
▁Korotchenko
▁xiêm
▁aqu
▁Dạ
▁SCA
iểu
▁Karst
<1465>
▁cant
▁mul
<867>
▁Hegel
cestershire
zon
oron
▁Phnôm
ebel
▁đầu
▁VCPMC
▁Hakim
ianto
▁Hogna
▁Jewelry
ku
anidae
ịt
▁gù
▁bill
▁Ry
▁Lakh
▁dầy
▁Vô
▁Giáp
yridae
▁tweet
có
▁Bouv
▁Sandwith
▁Izumo
eler
▁Pinus
rysa
ukov
▁;
▁Tunceli
▁Uni
<1515>
hu
▁Mim
▁ẳ
niz
▁rao
▁Nô
▁trọt
▁Ek
arsa
dha
▁Beog
▁Tầng
▁Caroline
▁lọng
▁Jennings
<1574>
▁Deb
ha
▁Kent
▁lõa
▁Paula
▁Urs
▁Iberia
arct
▁Sato
▁Scorpene
▁Lutheran
▁Hùng
▁Thường
▁Rhynch
▁Nét
▁Paramount
▁Juss
ishvili
▁ruf
▁strict
▁KHH
<265>
▁Syzygium
▁frazione
CĐ
▁dằn
▁Noh
▁Maritime
▁Snapdragon
nb
▁Nal
umbens
▁Morgan
▁List
▁Trí
▁Arte
ahisar
▁Amorph
SG
iceps
▁Norton
▁Sivkov
▁Saj
▁Kerr
▁Warriors
▁Rut
▁Antoine
▁kích
imb
▁Endom
ostomatidae
▁Yan
▁Djed
▁TEPCO
▁tóp
▁Cloud
▁hãy
▁cabin
▁khựng
▁vọng
ersonii
▁cut
▁Douglass
▁Morsi
▁FL
▁Melandryidae
▁FIR
▁Fiorentina
ontin
▁Asean
▁Kaliningrad
▁bot
igula
imaculata
▁Hua
▁Libr
▁KF
▁cuồn
▁Lạy
▁Tổ
unya
▁HU
▁Chắc
▁Castell
▁Carmen
ande
▁Dodson
▁Design
▁Scipio
abin
▁NEWS
▁loanh
▁KMT
phis
▁Fem
▁Zuid
▁cộm
▁Mus
▁Phán
▁School
icum
▁Turkmenistan
▁Đáng
▁Royal
▁Monomakh
▁nám
ểnh
<973>
aniel
▁Harf
nard
▁Riv
▁Heteropoda
▁Kelantan
▁Kolomois
macht
▁Antioquia
▁Closter
▁Wadi
<351>
▁Teph
uff
▁Múi
▁Amak
▁Metrojet
▁Edano
▁Chuyên
▁MI
ofen
▁Cay
▁Shafiq
▁Woodsiaceae
chik
iêu
phus
<822>
▁B
esi
ja
ES
kie
▁IMA
ception
▁well
<1425>
▁Marine
▁khẩu
▁Ornith
▁JH
▁Lộc
▁fe
ty
nigsberg
▁loang
ocalyx
SA
▁JI
▁cation
▁Araneidae
▁Schar
opsis
anto
▁Thăm
▁Cre
▁chít
▁thào
▁Black
▁Wroc
▁Oro
▁caerul
▁Mes
<1582>
▁ngập
▁Roman
▁See
▁ros
▁Forbes
ecker
▁Dòng
<46>
▁ố
anum
▁rôm
▁Cran
▁Khải
▁Mysmen
ogaster
▁suất
▁Syl
ươu
▁mì
▁pass
ẢI
▁metro
ẮC
▁ngục
▁Vina
▁Schumacher
▁Độn
▁grat
▁hispid
▁Dan
▁Mĩ
osticta
▁Aechmea
ador
▁Sesshoumaru
▁Aristotle
ửa
▁Dấu
▁Spruce
▁kềm
▁Mullah
▁ku
idia
▁đua
▁Mail
▁walker
▁cọc
▁Ech
ản
▁Hyun
▁phổi
▁Iv
▁Johannesburg
▁title
wu
▁Davao
▁Silk
<36>
▁Dolphin
aksin
▁chú
▁Khắp
▁sao
▁Elli
▁Mitterrand
▁Cortin
▁răm
▁Guillaume
mose
▁Tann
▁Albion
▁luẩn
yllaceae
▁Asen
▁Meisn
▁Vạch
▁Gide
▁vạch
▁quà
▁Grove
kova
iad
ús
emite
lossum
▁Putranjivaceae
▁Manga
▁xỉu
uga
imaru
▁Tamar
▁CII
borne
▁Ngộ
ink
▁XXX
▁terr
<691>
▁Yusuf
iard
▁Chơ
dat
<364>
RI
▁Fak
▁had
▁Harald
▁Unc
itton
▁Drum
▁độc
nis
uganov
▁Bundy
▁Turchynov
<1710>
▁BÌNH
aille
▁siam
▁Yong
▁Buddy
▁Toro
▁Rhineland
▁Yêm
▁Lazar
▁Niê
▁Thiều
▁Platform
ej
arium
espit
▁pir
<710>
▁Econom
▁Odys
▁Ely
▁Storena
uban
<753>
teen
▁lớn
aser
▁Ono
▁Sáo
<25>
▁Ngươi
<1186>
▁Anton
▁Dov
▁Gir
elma
▁hạ
2
▁Case
▁KA
▁Bhum
ain
▁cân
▁Campania
▁Bê
▁Schm
▁thỏi
▁Gork
▁Aeth
ọi
▁Colos
▁Chiêm
▁ngoãn
igami
▁elongatus
<1354>
▁XPVPHC
▁Velasco
▁chin
▁Hydrobios
▁Hadena
kop
▁Exocet
▁trọ
▁Minato
▁Brescia
▁cát
▁Geith
zo
▁Ricardo
▁Riemann
▁CNOOC
▁comment
zurum
<287>
▁Thắng
▁Uttara
▁sườn
jor
rink
<1567>
▁Guatem
uko
▁Boy
icae
▁pru
▁Ob
▁Krasnoy
▁Atlantis
▁Saddam
▁Ths
▁Enz
ophon
azan
▁Wedd
▁tưởi
▁Dioclet
▁Soh
▁quark
▁lipid
▁Bordeaux
▁đủ
▁thực
▁Kenn
ardin
▁Estrada
▁inermis
▁TEL
▁Child
▁ship
▁OJB
▁Only
▁Jaguar
▁Turb
▁Lie
vin
▁ép
lu
news
▁Natalie
▁Lát
▁Schltr
▁Cum
ianensis
▁Dup
▁time
<1279>
▁tủa
▁bol
▁Perak
▁cừu
▁Eagle
▁module
edy
▁Chiếc
▁Her
vier
▁walk
▁Abadi
▁Continental
▁Lẻ
▁Chhattis
▁tỷ
achkala
▁Astracantha
▁Mank
▁Ashanti
▁Đrắk
▁flavescens
son
▁ex
ipio
▁Luk
iven
▁Paul
▁Kenneth
▁Loud
▁Szatmár
▁Ubon
<1697>
▁Fayette
▁Galil
▁camera
▁Donbas
▁Davalliaceae
▁rocket
▁Sentin
▁Inkigayo
▁vít
▁Denn
▁ichi
nes
▁Caitlin
▁Dồi
<27>
▁px
▁8
▁op
▁Stau
ornith
▁Judy
<1362>
▁Soi
aili
▁nhung
▁Sheffield
▁Fah
▁Grae
▁Clegg
▁Mos
<1051>
▁Calédonie
▁Staurastrum
▁Burk
▁Herat
▁Duma
▁Huyện
▁Khamenei
▁Djok
amatsu
▁Hahn
▁Centropogon
▁Gib
▁Bahá
otin
▁Teucholabis
avalli
Ế
▁Robot
▁oz
▁Lessert
▁Cab
andra
▁EXO
▁Potam
ampus
▁Karlsru
▁tời
▁nhái
▁Vol
▁Jersey
▁Aphan
U
▁Loasaceae
▁Candèze
▁Iglesias
▁Phó
▁Đóng
▁Hu
eaf
iculatum
▁Gesneriaceae
▁Spee
▁BAS
▁toilet
▁Kung
▁Courtney
▁Geran
▁She
▁níu
▁kiết
▁Goulding
astar
▁đau
▁Pyg
<1240>
<596>
▁PIN
▁Posen
▁miến
ggio
<1208>
▁Caucas
uldak
gam
▁Giacom
ca
▁Lumpur
▁origin
▁Ẵm
▁Youn
▁góc
▁Novaya
▁CET
▁phảng
▁Biel
▁Muhammed
ogeton
nhausen
▁Ekaterina
▁xiang
▁khơ
<extra_id_23>
▁yếm
gae
▁Kwan
▁hòm
▁Gain
lect
▁nhẽo
▁Đắc
▁Interc
oglobin
<1407>
<498>
otroph
num
▁nhớt
▁Pteris
▁Liberation
fu
▁Zapor
▁ald
▁cẩu
enius
▁Knox
bergi
▁Montreux
▁Acin
▁Rus
▁thách
▁columb
▁Kip
rông
czek
▁Boum
▁HDV
▁Athena
▁Sidew
▁Ancona
inning
cian
▁Player
<638>
▁Ba
▁Epilobium
<1066>
▁mẫm
▁Bagram
ườn
pres
▁Mazur
▁Start
▁Stro
▁Mih
▁Ito
▁Mighty
▁Oleksander
▁MR
▁Vụ
▁Spirit
▁Opisth
▁Gauck
▁xúi
<336>
abarab
▁Songkh
uit
oran
<923>
unn
▁thòng
▁Bers
▁Vandal
ựt
ements
▁Ishikawa
▁Aung
eva
▁Maritimes
▁Thuỵ
▁VKSND
▁Thomas
▁Germanwings
▁Nghiễm
▁nghênh
▁hắc
▁Aguilar
▁Yeon
▁Troia
▁Đòn
▁Pelt
<446>
▁Nou
▁MY
▁work
▁Mount
▁Faisal
▁Symphony
▁Kyushu
<539>
▁rước
▁Gort
<632>
lad
▁Đốt
▁Baker
▁TKV
▁CHLB
▁Ha
▁thang
▁MDB
▁Muc
▁Dick
▁Tayy
▁Microm
▁phiếm
zt
▁thác
▁Baiji
▁Peps
neum
▁Eurof
▁chép
▁Sphaeromatidae
▁NATO
▁Khoản
osaurus
▁cự
▁Aph
▁Barnard
▁Tab
▁Agerat
▁Cornwall
▁lymph
▁IOC
▁gao
anti
▁Chitt
▁Liêm
▁Esk
CCH
▁Zakh
▁MAKS
▁Karsch
dez
▁gri
▁Ilbo
▁Hist
<236>
ôị
▁Tautenburg
▁Lắk
▁rỉ
▁hối
▁Chẳng
▁Misumen
<1234>
▁Tei
▁dấn
▁Thự
▁DV
▁gu
aha
▁Sigma
▁Sheh
▁Edmonton
▁Form
▁inches
▁Phoebe
illa
leen
ophyllaceae
▁Tadeusz
▁Jacobs
▁Kayseri
<277>
▁Xyloc
on
▁sót
▁Wik
puy
▁Mina
aditya
▁Kofu
▁ấy
▁vẹo
▁Yamagata
▁Ap
actus
▁Fréd
q
▁Wall
ọc
<1473>
▁Strike
zania
viết
▁lọ
ffen
▁lũy
▁pau
▁han
▁Rocket
▁Huperzia
▁Brick
▁VIP
bian
<extra_id_94>
esen
acional
▁Newfound
▁Vnexpress
ibar
▁Prav
▁Seven
▁incon
▁Avic
<723>
▁Ptinidae
▁Bechyne
▁Nghi
AL
ychia
aim
<1826>
▁Hughes
▁Ukraine
▁biền
▁Lynn
ospace
adeh
▁Southwest
▁Riley
▁lóa
▁Block
▁Lour
▁Aliyev
▁mag
▁rút
▁Zid
▁Khyber
▁tristis
<1083>
▁Northern
▁megal
▁Bail
▁Gasc
ab
▁thuần
▁thỉu
▁po
▁Saeed
▁Helichrysum
▁hề
edo
▁Inh
▁thuê
▁Lang
▁Xà
ollow
▁IMEI
▁Carval
▁Wid
aul
ust
▁Alloph
▁Fritsch
▁Dead
icornis
▁phúc
▁HN
MB
▁dùng
ud
ẠI
<343>
<751>
▁that
▁Compl
▁ĐỘ
lé
▁tank
▁Ocampo
▁Nasir
▁buýt
▁thục
richt
odaphne
▁giờ
▁Housing
▁lạp
▁Hisp
▁Bột
▁Leila
▁Mỵ
▁Wings
▁nghê
<20>
▁Oahu
ricius
▁Madh
▁Aguil
▁Hân
zcz
oniae
▁thệ
rttemberg
▁front
▁long
▁Beast
▁liveshow
▁méo
fic
▁Ichthy
atures
<1458>
▁TTr
oss
▁Patri
▁rạc
ignon
▁vs
▁IV
▁TNI
▁Lỗi
▁Molk
ozione
▁Politico
opes
itan
▁Vấn
▁Volt
Ă
▁Đóa
<1348>
oxy
▁Odyssey
<324>
▁AN
▁LN
<862>
▁Krông
ollah
▁Aber
▁Gustavo
▁Sinab
▁óc
qan
▁Dị
▁Gyl
▁dặc
PS
▁TGV
▁fl
▁Magdal
▁Kra
▁Flame
inna
▁Prad
▁Vitinfo
▁Mani
▁Osorkon
▁Andersen
manpar
▁Arachn
ryl
<203>
acra
▁Hương
▁hoặc
ariaceae
▁đe
arthrum
▁Mush
omene
omyia
▁vương
▁MSN
▁Loph
▁Strab
▁Tày
villea
ulis
▁Conf
▁gập
▁Command
ời
▁chiểu
ivers
▁Saturday
▁neur
▁Trierweiler
▁cai
▁TP
▁Rasp
▁ni
ells
▁NDF
<1032>
emagne
▁Grigory
ector
▁Đoàn
▁vô
▁Musical
Hg
<626>
▁Tia
tihad
<654>
▁Hahniidae
▁BAFTA
▁ngoặt
▁granite
▁Bour
▁Greifswald
▁ocha
▁Ulsan
▁Vận
▁Myristicaceae
atrec
NAM
▁Gomes
▁Anemiaceae
err
▁huỳnh
▁BQP
▁Milan
▁ngó
▁Vinastas
ãn
▁Die
▁WY
èn
▁alt
alde
utidae
▁Đạc
▁cyc
aza
▁Penns
▁Ôliu
▁Set
▁khất
▁Móc
▁Chief
▁Jungermannia
▁phèo
▁Louvre
▁thời
aph
▁Micronesia
▁Calédon
▁Neom
▁dentata
<722>
▁dến
▁Cable
▁TDP
rel
ourt
▁dửng
▁Myr
▁gởi
▁ngâm
▁Ave
▁LLC
▁Uno
▁Dicliptera
enth
enk
▁bỉnh
▁PVEP
▁Cauchy
<476>
▁Muller
▁Linden
iolus
istol
▁phia
▁varia
▁Gừng
▁Chass
zy
▁Thú
▁Baghd
▁GrabBike
hanna
▁cấu
▁Samoa
▁Puch
phong
▁EMI
<1481>
akira
▁Zeno
▁lat
ĐN
irchen
▁Ksor
▁Ankara
chenko
▁Khuya
▁Trans
trol
▁Doblies
ideae
▁LĐO
▁Phụ
▁Cheong
▁Lubitz
▁Cứ
▁Rodrigo
▁sushi
ubi
▁Orlov
▁recurv
▁thố
▁Salak
nil
▁Mombasa
awk
▁Blau
Ệ
ios
ieh
▁Apache
▁Ladies
<1578>
▁Cavusoglu
▁Willy
▁hộp
enes
▁tiế
und
▁br
▁adren
▁Jim
▁cải
▁Bàu
iac
▁tiếu
▁neg
▁Shevchenko
▁HX
▁Iroquois
▁UBND
outa
▁nhắm
▁Lái
▁Autom
▁Crambidae
▁Chir
▁Merriam
▁ngoảnh
aed
▁mal
▁Davies
▁Ply
▁Sacramento
▁SA
▁Afric
CH
▁OSCE
juk
iej
▁Tâm
sud
ipalpis
▁gây
▁Hamgyong
ỉ
▁cho
▁Mecklenburg
▁ĐHQG
▁Ruh
<237>
▁Tê
▁MK
▁His
yris
amnium
orne
<82>
▁Abdi
▁Syria
▁Ngược
▁Hiếp
▁mảnh
▁Tur
▁Ens
▁bấy
▁Morav
▁VV
inthi
▁Sher
▁Manz
▁Medellin
▁Faj
▁Tạch
▁Bentley
▁Loas
▁Vẽ
▁bềnh
▁Ch
ational
▁QLDA
ration
▁Hà
odontium
▁LAM
▁Noc
,
▁Cap
▁Play
▁Pokémon
▁chứ
iz
ctor
odontaceae
▁rông
ularia
otr
▁Badajoz
▁Iwats
ỗi
▁Somet
▁Hạp
lene
▁Emilio
isenh
▁Labrador
ossa
▁Cappar
▁Méd
▁Hydrobiidae
wait
<583>
ophylax
▁Instit
▁kĩ
<239>
opyga
▁Hades
rnak
▁Cleome
▁VTB
▁ICTnews
▁Quán
▁Raff
▁Bám
borg
▁youtube
▁Log
▁lanc
iforme
▁Saeb
irk
▁Heracl
odorus
▁Phyl
▁benzodiazep
assidae
▁á
▁Phr
▁TCD
▁Nav
▁Mum
▁Mariah
▁cả
berti
<extra_id_90>
▁Kvit
▁dằng
▁Rộng
<1361>
▁Lưng
▁R
▁Agriotes
pitz
▁Yai
phen
▁Zar
▁Yonaguni
▁Associazione
▁Nuland
▁Fattah
<659>
▁Letter
emum
▁Nephrodium
▁Witt
<919>
▁Swing
▁Kear
▁WFP
▁Burj
▁lẫm
▁impress
ika
▁Next
kers
L
▁khứ
▁Zimb
vest
▁Brazil
▁Vitaly
▁Tap
▁Fissidentaceae
▁Ordu
kara
▁Tiển
▁liu
▁BTTTT
▁Marche
▁interrup
▁DSi
▁Fur
▁Happy
▁hòi
loe
rot
▁Tròn
▁Wass
▁củ
▁Cryptophagidae
ough
▁VPBank
▁ngơ
▁Miconia
▁Võ
▁Sne
▁Yeong
▁Mehsud
▁Kyung
▁Bua
▁Tộc
optilia
▁chốc
▁dr
▁Saturn
▁tự
▁Giao
ĩnh
▁YouTube
▁ạch
▁Catarina
ougou
▁Millidge
▁Nied
<397>
▁Kras
▁Thess
waffe
▁Phồn
▁Shoshenq
▁Cear
<363>
▁Bridge
▁Kpă
<529>
▁Crom
▁gân
▁Data
▁Macrom
▁MKK
▁TTQL
<1770>
▁parab
▁nghẽn
edon
▁Systems
▁Pran
▁Lissonota
▁ử
▁TTH
igma
▁Lennon
▁quẫn
▁Lào
▁dub
▁quản
▁Kar
▁Bashi
▁Doyle
▁MAC
▁Death
▁Marsh
▁Thánh
▁Pardosa
▁ax
▁Hoảng
▁Star
<962>
▁board
▁tòng
ropis
▁Giấc
▁Paepalanthus
▁heterophylla
ukan
▁Calderón
▁Chevron
<1787>
▁Chamber
▁rúp
▁Philipines
▁Thiểm
▁Heroes
ick
▁Vla
<1514>
▁Nhì
▁Bien
arpur
▁chả
▁tót
▁Oth
▁Kirkuk
▁Schubert
wang
▁Bib
▁Hauts
▁ke
▁Soyuz
▁Hom
▁unicolor
▁Turing
▁Kanto
▁nòng
▁thes
▁Shipbu
▁nải
▁host
▁Area
▁Metropol
▁Kast
▁dex
▁khoảnh
▁kềnh
▁Tể
omn
▁Seleukos
▁quãng
▁Siem
<1251>
▁Wilcox
▁calcar
arno
▁cac
▁Biển
▁Qantas
rionidae
<1115>
▁Borsod
▁Amaryll
▁chề
▁Leptonetidae
ofun
C
avari
▁California
olim
▁Mackenzie
▁nhở
iteles
▁Astra
▁Christ
▁xỏ
▁Phre
▁Baird
▁Crystal
▁lận
▁tau
DNA
▁KBS
K
rand
▁vác
▁Verdc
▁quắp
phant
úl
▁Vietin
▁Salamanca
▁Diad
▁Fy
▁Aristolochia
▁Huntington
▁Sonntag
▁Regional
ashir
<1818>
▁...
▁nua
▁TB
▁Buckingham
▁Modern
ribut
▁Chữa
▁Encycl
▁Griseb
<595>
▁Faboideae
▁Rada
▁gắt
anea
▁Plethodontidae
<1508>
▁chói
▁ắt
▁Cayman
▁Cậu
▁Krap
▁Halico
▁Devillers
▁khí
▁Rouen
▁Thelypteris
▁Cast
▁Walsh
ique
▁Fraser
▁Hague
oscia
▁Vienna
▁úa
▁ngủi
▁Oasinh
berger
<178>
ichen
▁Rokoss
▁Alpinia
ulifera
▁rằn
igra
▁Sukh
▁Meioneta
▁gold
▁Olethreut
▁Khiết
<861>
▁ANTQ
▁Stein
▁lip
BS
▁Combr
▁Bild
yaf
▁Juliet
ussi
kia
erto
IDS
▁Mình
achsen
▁Edirne
▁Desidae
▁August
▁trải
▁trôi
▁Katherine
▁flavipes
▁Argyrodes
ỏa
▁WTA
▁mA
<235>
▁hùng
▁To
▁Pist
<142>
▁ae
▁Nakh
▁shop
▁Bach
▁poly
omed
▁Rinh
iane
▁Sông
▁plan
Ộ
▁trưa
▁Zaharie
▁xộc
▁Pegasus
▁bẫm
dington
azeera
ome
GD
▁cồng
KT
▁Dip
▁Lyca
aik
ythm
nie
▁Chuyến
▁Châ
<107>
▁Steam
▁cassette
▁mùng
▁Hos
ottenham
and
▁Đâù
▁División
▁chặng
▁kháng
<1518>
▁nghiệt
▁Bửu
udad
▁tuyền
▁Chinese
▁Hiếu
▁Hỉ
▁Flynn
Scan
▁Broken
ipper
▁Reys
<225>
anning
re
inh
▁sàn
▁Manit
▁Kou
▁studio
▁Prem
▁Kaufman
otrop
▁Ả
▁Abyss
igere
▁vải
▁Malin
▁TTATXH
oceridae
hanov
▁Spence
▁Ối
▁Doll
▁Wầm
enze
▁Jalalabad
mund
▁Teatro
▁Cox
▁Pod
▁Nash
▁Madrid
▁Sov
▁ngu
▁Albacete
▁chứng
▁thía
ou
▁Trầu
▁showbiz
▁đằng
onus
less
▁Esther
▁Ocotea
▁Kraenzl
▁Chad
▁chình
▁Montr
▁ngài
▁khom
Ừ
▁Săn
▁Liliaceae
▁Jih
endorff
<1503>
▁Warnst
▁Tsubasa
▁Đà
ycter
idge
▁wook
▁KW
▁Rik
▁Special
aphyl
▁WP
▁Kaiser
<435>
<897>
▁áo
▁bưu
▁RG
▁Rosita
▁dung
ioneta
nar
aves
roi
▁cục
▁không
IP
▁Thấy
othec
▁Ricciaceae
▁Logan
ovich
▁Aspleniaceae
▁Gandhi
▁benz
▁SJC
▁manh
▁Smartland
ogle
<1553>
mandu
arti
▁Lufth
jian
<1184>
Br
▁Bank
▁Once
▁đậm
▁Bung
▁Panth
VD
▁Mix
▁TTP
▁Brew
adensis
▁Jeremy
hamid
▁NAM
▁NPC
▁Cerro
▁Cryptocephalus
▁Erythroxylaceae
adt
▁Cell
▁ngớ
zumi
▁Stream
▁vẹn
▁Sulu
▁chác
▁comarca
<1581>
▁Spring
zki
▁Cúm
▁Aeshnidae
▁www
▁Lippert
▁Petrobras
▁Kép
▁led
▁thơm
▁Spaniel
▁Guam
▁Vy
▁sô
▁choán
jack
cep
isan
▁Gug
▁Uotsuri
▁Trăng
▁EM
▁gọi
<extra_id_74>
auli
omar
▁lỵ
▁Aesch
<1893>
<23>
▁Ma
▁Tul
sun
▁capô
ulae
▁Tệ
▁Teuch
▁Test
▁Đầu
et
▁begin
yriaceae
▁Kuk
oyd
▁Eu
▁BTV
▁Meloidae
▁Seahawk
vinsky
▁Núp
▁Hem
▁Aderus
▁Adly
à
▁Vu
▁Magnitsky
kovo
ias
▁Đụng
▁khả
<976>
▁Đênh
▁mo
▁Cyath
LE
▁asp
zko
▁Moussa
▁Gorbach
▁OB
ahnia
agrostis
▁dệt
▁Crataegus
NET
▁lam
▁Penang
▁gươm
yros
<171>
antar
ast
▁euro
abil
orhoe
▁Pocock
▁Họng
▁ACLU
▁Falc
▁Quito
▁Malabar
▁ban
▁mỏi
▁moll
astic
▁Ita
▁Ze
permum
▁Harmony
▁Ayr
irli
▁Cristóbal
▁đọng
▁Tokugawa
inaceae
▁Gim
Post
▁Moravia
▁Scarabaeidae
▁chắn
ift
▁Palais
yatta
nitzer
▁Eugene
▁Rama
▁Alien
▁nộp
<231>
▁Six
yum
ồm
igh
▁Suvarn
▁Daigo
<1867>
<1888>
▁nguội
▁Tate
▁Irish
▁Yosh
▁Heathrow
▁Cant
▁Ann
▁Winehouse
ól
▁HUY
▁Giảng
▁CIT
▁hài
▁Inc
▁Pakse
▁Ryabkov
illon
▁Hautes
▁Squ
▁Rap
▁Alma
▁Amiens
▁giương
▁LDP
▁Mab
▁Anthocer
▁Kub
▁Molly
▁Sherlock
▁Tell
▁Lamm
▁bay
▁giời
▁Prasinocyma
be
▁cút
mannii
<1217>
<SEG>
▁Occupy
<1268>
<extra_id_16>
▁Tham
▁cum
<1440>
▁hoại
▁sat
▁Place
▁IPv
▁Cướp
▁Traff
▁Reach
model
▁Sumatra
▁Mori
▁Polyst
ố
▁Baran
▁Asplen
olas
éd
▁Coast
▁Griff
▁Đông
▁Eriocaulon
▁kếch
▁Yaman
adur
▁Lingayen
▁Bruy
▁Enopl
▁Hux
▁Xt
stein
▁Ảng
PAC
▁NDP
reau
▁Chat
▁Freddie
<128>
▁cường
▁Tan
▁Chuột
kiri
▁Vietfoods
encer
▁Madame
▁Cucurbit
▁BÁ
▁Zeng
▁Urawa
▁Kadhafi
▁nucleotide
itat
▁xi
▁tiếc
▁TBKT
▁Cinnamomum
ất
▁Rousseau
odz
▁Sh
ushiro
▁doãn
acki
▁Fillon
▁Corythalia
▁Infinity
eng
▁RIMPAC
tein
▁nia
▁phóng
▁Ahmet
rhein
ixia
▁Scho
▁Cher
▁Byz
▁chuôi
toneta
▁độ
▁tọa
nea
▁Schro
▁cris
▁Division
▁chong
▁Phớt
deutsche
▁Shah
ẬN
▁phước
▁đón
▁Poli
GASA
ysh
▁Xyst
▁Vic
rou
▁tubercul
▁Sahara
jov
XA
▁bẽ
roid
▁Maurit
▁hôm
▁Mich
▁Zucc
iega
▁Vityaz
<674>
▁Honsh
▁Jong
▁TVXQ
obacterium
▁Ore
▁Luanda
▁Alphon
▁Eg
▁Khos
ận
▁Geolycosa
▁paniculata
agle
▁Melody
▁Locke
ucc
▁túp
iades
▁Aisyah
▁Mand
▁Callionymus
▁rầm
▁Naruto
▁Forever
▁táo
▁chòm
▁ngỗng
▁Dâm
▁Thẩm
▁Pét
▁Eve
▁Subianto
Ữ
▁Bernardo
▁Hamgy
<1288>
úm
▁Schul
olone
▁Eichler
essen
ION
▁team
▁cyan
▁Kakashi
▁Tì
▁Rapid
▁cell
<297>
▁Xì
▁Bux
erin
▁Philodendron
▁VÀ
<790>
▁cuộn
▁IC
isawa
enev
<1306>
▁AWA
▁Asp
▁pum
▁Novoaz
▁Asplenium
▁CCD
▁Timb
▁CSĐTTP
▁Dorn
<1287>
▁Pervez
▁Jenk
▁Leclerc
▁Sharp
ohydric
ostok
ền
▁cờ
▁Thử
gor
▁Aviv
▁León
▁Coel
▁MM
▁Wells
▁Ashe
eno
▁Braxin
▁Nathaniel
▁Ứa
rite
▁Merino
ether
▁+
▁pet
▁Nog
▁Earnest
▁Lênin
▁Matthew
▁alex
▁IHS
▁Sea
ashita
▁Peres
odiazep
▁Joc
▁Raja
▁Kẽ
▁Hàn
▁xới
▁Bosch
▁Bradley
▁Sắp
▁Ipad
fast
welle
▁musc
abris
▁indica
HTT
▁Oberonia
▁Hermes
▁Thoát
▁yahoo
▁Duss
hoff
otta
▁Houston
way
▁Trach
▁sub
▁Berks
▁Happ
▁ign
▁Pall
icea
▁SUV
▁Ceropegia
▁Dengeki
▁lum
▁Nect
ciel
▁Tuân
▁XKLĐ
shan
bar
▁Thau
▁quyển
▁Airlines
▁Swaziland
▁GD
▁Crepid
▁Ớ
▁Duda
▁Gottfried
▁gradi
<589>
▁Image
imbart
▁hùn
veen
▁Naval
▁Giã
▁Bolivar
▁Chướng
<936>
▁Yaroslav
awai
▁Rhodes
ồ
▁lành
▁Hashim
▁Nghèn
rut
▁LiveLeak
▁Haye
▁Dora
▁Bust
▁Aly
ip
▁Bolton
▁Igor
▁indicus
▁KSNDTC
▁kẹp
▁Gang
▁Fiji
▁Vết
▁acid
▁Wehrmacht
▁khê
hou
▁sup
▁Syllepte
▁Madre
▁Franklin
iflorum
▁Shad
ook
▁chòi
êt
▁Houla
▁VietinBank
▁Rei
▁lười
▁truncata
enc
▁Abbott
ngen
▁tròng
<837>
▁khoẻ
▁Abub
▁mel
ven
▁Cristina
▁bass
▁nitida
olip
▁tuất
▁Khob
▁Mẩy
▁annul
ceps
edel
▁Bút
▁Sex
▁RI
▁Salzburg
<1368>
▁Sihanouk
▁thay
▁Niedersachsen
▁cứu
▁nã
front
▁Mãnh
▁Krom
chy
ượ
pling
ạch
▁Vissel
ferase
▁More
▁thêm
▁Dunn
ish
▁Pamela
roe
ếch
<1768>
▁gym
▁Faroe
▁uyển
ochet
▁Robbie
unan
▁QCVN
emitsu
range
imba
▁giò
▁Anderson
▁Jai
▁Đảm
▁Shinaw
eu
ucker
▁bẻ
▁Percy
▁Musashi
▁Taepodong
▁Powers
aini
<769>
▁NI
<1904>
▁tháo
▁DAS
▁Team
▁Pagan
▁ái
▁Thượng
▁Ring
ridi
▁vung
▁Nixon
▁vari
assa
ôx
olobus
▁mũi
▁Hal
▁Kirchner
▁Nóc
▁rèm
ding
▁Jharkhand
▁Goo
<1471>
▁Quincy
▁Libnotes
▁ngai
▁Mayo
▁Calyptranthes
▁Sitticus
<1606>
ideo
▁đốt
atherine
sberg
▁tanh
inella
▁Xyris
▁visa
kale
▁Seas
▁pack
▁bun
ility
▁Dryopteris
▁Sasha
▁mải
▁Đên
eau
▁Curt
▁phào
▁Vinachem
▁Gryfino
▁Valeri
▁động
▁ể
mex
Bay
▁euc
ĩ
▁Leb
▁Cup
uzz
▁Muhammad
▁Nen
▁Uloborus
▁Wick
▁Bảy
<703>
▁mụ
ody
▁quin
rypt
▁OC
▁virgata
▁Micron
esc
riles
ambi
cey
▁Bazaar
▁treo
▁Catocala
onment
▁GNU
▁Michigan
▁Nấm
ngton
azir
mit
ethus
▁hỷ
▁muang
thon
▁phyll
<1832>
▁Roch
ening
▁nhờ
▁Ẩn
▁Peterburg
▁Fasc
▁Teresa
▁pha
▁Michx
▁Thomson
<1157>
▁Ponta
▁thóa
▁Christoph
▁Pelosi
▁Naver
▁Javelin
ulosa
▁Naz
▁hiđ
antino
▁Chuối
opteryx
igen
▁Milton
▁Pridgeon
isma
kesir
▁MERS
▁cuốn
ũ
▁Thỏ
▁nhòe
▁Rạng
siaceae
<676>
▁are
CG
▁Jimmy
▁Lớp
▁Ale
<972>
▁Olividae
▁dùm
<621>
▁Ariana
▁Huff
▁tri
▁Phas
▁nas
riventris
▁Ngợi
▁Walking
AR
▁LAN
▁BĐBP
▁Orch
<extra_id_77>
omum
▁Uralvagonzavod
▁phình
▁bận
for
▁jun
▁Horizon
inski
▁Valerie
▁triệu
▁Domenico
▁Moravskoslezský
▁Pernambuco
▁madagasc
iflora
▁NTSC
▁Cod
▁xóa
▁hong
▁Occitan
<359>
▁Lá
▁Qu
▁PA
▁Bưởi
▁Venice
face
▁Hashimoto
▁Hựu
▁Barrack
▁Nikephoros
▁Blizz
▁Lắp
▁loay
reus
▁ECOWAS
▁Chond
▁erectus
▁cond
nah
▁eryth
▁Marcus
▁Nauchnyj
▁Bam
▁Oh
▁Dumb
▁Sajida
mum
▁Guo
▁Lãi
▁Ven
plic
entes
▁minuta
aev
▁chế
▁Giả
▁Shil
▁Kia
▁pH
▁Anita
▁Red
▁Soạn
<1281>
▁Dia
▁Lynne
▁Freud
▁Kuw
ion
▁Emerton
ttemberg
alcanal
▁Mộc
ASM
▁Sprague
▁UNI
<591>
▁Business
▁Dinamo
ior
▁integ
▁Choice
▁Salon
nster
▁chia
▁Industries
elii
▁Tyumen
▁Pul
▁Jac
▁ARM
▁Louisa
▁cảng
▁Tomatoes
▁Oanh
▁Australian
áng
▁Oles
▁Small
oc
▁Noz
▁Tovich
▁major
▁Pôn
<1766>
imar
<1840>
aema
▁Div
▁Ne
▁Near
▁Nubia
▁Khôn
▁ăngten
▁giấu
▁rào
▁Ascalaphidae
▁Hilton
▁Rennes
<1373>
▁dolich
▁dòng
▁Moj
<1372>
▁Claudia
▁Krapov
▁Extremadura
▁Yokohama
▁sảng
▁Màng
gl
ppen
▁Baum
utin
enas
eriaceae
ternative
▁Julia
chio
▁Tatarstan
▁KBC
▁arcade
c
ụ
▁Fair
▁L
▁boongke
count
▁Byrne
▁Jop
rophylla
ủa
▁tụm
▁nghiên
▁tuberculata
▁Rem
▁Meg
▁cũng
▁Juv
▁Board
▁Gens
▁Salisbury
▁Gió
▁Yellen
▁Param
▁míttinh
▁Soundtrack
▁Vejjajiva
▁Heydrich
▁Zion
▁Fujimoto
chyum
▁Martha
▁Ibn
dera
▁trại
asm
▁CCCD
▁Zodariidae
tô
▁Cửa
▁Garuda
▁PCCC
▁Khuyên
icularia
▁Queensland
▁Chambers
▁Kuz
▁Clev
▁Bourg
▁pallid
▁Nova
▁Welles
orit
▁AV
innat
▁Pixar
<1555>
▁Mama
▁Funimation
▁He
▁Wig
obu
▁HKVN
▁Franciscolo
▁ké
▁Bremen
▁Chung
▁Orlé
idelberg
▁cước
uris
▁Điểu
▁Baltimore
oshin
▁Zvez
▁Saleh
▁Samir
▁Ereb
eroin
▁Panama
▁kè
▁Hanh
atham
▁oái
▁Vendée
▁Met
fre
▁Linné
▁Batu
▁Wiener
▁Kab
▁Mạc
<1080>
▁Rajap
▁Civil
▁thau
▁Elaph
▁KTX
▁Biều
▁rubric
▁ước
<370>
▁chín
▁quặng
chys
▁Dân
rogen
ocrypt
▁âm
▁Hưởng
azawa
▁lảng
▁Masdev
ckey
▁Phil
ộc
eier
wood
▁Gagnep
▁Aiton
▁Grud
mara
▁Gayet
xier
ugh
▁ma
ocroc
▁Halloween
▁Herschel
ulans
eops
▁Perugia
▁Heil
▁Col
▁Thrace
▁MHBS
▁PVI
<634>
<19>
▁Bin
xcova
▁Giản
▁Nhiệm
uster
▁Cơm
▁sens
▁Driver
GĐ
▁Nefert
▁cởi
rl
ighter
▁Flanagan
▁Charente
ahu
;
ocia
▁argent
▁Eber
<1504>
▁Lũng
▁Eaton
iophyllum
rifolia
alli
▁Wurdack
▁Liu
▁Luther
sons
▁Loát
▁crom
▁Chech
▁Loi
ethe
▁su
▁Mur
▁Home
atea
kamp
▁Nouvo
▁hashtag
▁acumin
▁Dichochrysa
▁Londt
▁tinh
▁lóe
▁Khăn
inensis
▁pent
▁Daph
▁Vilnius
▁Panmun
▁Kẻ
uddin
oia
seong
▁Gehrels
▁class
▁BL
yphon
▁viền
▁Khoảnh
▁Thuyết
▁Michener
▁Chamae
▁inst
▁Bashar
▁Dabi
roniaceae
▁TCP
▁EADS
ichthy
▁nành
▁Niamey
▁di
▁ná
▁dỗi
▁bứt
<567>
▁Capitol
▁Miel
▁Ốc
yx
▁serrata
▁Edward
<extra_id_88>
▁Ent
▁Shawn
rack
ophil
▁Mirror
▁Ráng
▁Til
▁Silent
▁nỉ
▁Gia
▁McGill
oglu
▁Fris
▁sở
▁Bandung
▁Bayburt
▁Hồi
▁SAS
▁eph
vill
▁Hyperoliidae
▁Kiếm
asin
▁Hemer
▁Nhất
▁meth
▁Aiden
izia
▁bục
▁TCCB
▁giùm
<1486>
▁hart
▁Globemaster
▁Vietjet
▁Naomi
deutsch
▁Svihla
▁Aristoloch
▁Estr
▁Hút
<354>
castle
oensis
▁Tunis
▁HM
▁Jain
▁Basescu
ối
▁Brahmap
▁series
▁Aphonopelma
▁Snap
<extra_id_28>
▁Miguel
vil
▁Kính
▁Schust
▁mách
▁Khartoum
▁Manmohan
▁Hispan
▁Dol
▁Shiz
▁Moch
ague
▁Nhị
▁Photo
▁vam
kent
icat
▁Commission
▁RPG
▁pav
▁Um
nheim
▁Fleisch
▁hấp
▁Bursa
▁Zero
age
▁Gaza
▁Robertson
<788>
▁Thạo
otep
▁Lavigne
▁Bur
▁Ahmed
▁vồ
ishing
sdorf
▁Helios
icost
▁eg
<1911>
arnas
olph
▁ĐT
▁Valeria
▁Nice
artan
▁thua
▁Gương
▁Moran
▁Acanthoscelides
▁proc
<extra_id_3>
▁UNDP
<1146>
▁Unit
antes
cia
▁đảng
▁Gle
▁Water
▁Fortuner
▁Centaurea
▁Duc
ify
icho
▁dãn
▁Opt
igal
▁báu
ỡn
utta
▁Drai
ophloe
aura
▁Dubrov
inah
▁Strat
▁Connect
waters
▁dar
▁Ce
▁Yatsen
▁Ươm
▁Scarborough
▁Chùa
▁Mesopot
ousine
▁Lupinus
▁Rhiz
▁Giuseppe
▁Troch
aux
▁tu
▁kg
oshenko
ercops
▁Clarkson
▁genus
▁virgin
▁MU
adev
▁Shang
ấ
▁Niz
▁Shik
▁Hik
▁Nicola
▁ĐỨC
<406>
▁Bunko
▁Vis
▁cầu
azia
▁Benigno
ylus
anna
▁Trán
▁Airbus
3
▁Clear
▁Shch
▁Arms
▁BMW
▁Fukuoka
<1562>
oyo
▁Dwight
ampa
▁Seem
▁Bernstein
▁Trào
AN
▁Katharine
▁ẩu
▁Calderon
▁rotor
▁Interscope
<471>
▁Hicks
▁Fantasy
▁vốn
▁Poec
gues
▁Salz
▁Dactyl
▁Tata
▁Nhìn
▁Trochidae
▁Connor
▁Univers
dtirol
▁falc
▁Mitchell
▁Đo
hyd
▁Đó
▁Mật
▁Welw
▁Mozilla
▁Kampala
▁Velik
▁Yamag
Jet
▁VCSB
▁DHS
aghan
▁AQ
▁caud
▁trầu
case
▁Od
ought
▁nẻo
phu
▁phẳng
▁hứng
▁Mitsui
▁Duarte
▁Timor
iano
▁khuya
▁Lindl
▁entropy
▁Geocalyc
▁Trogl
▁Mức
▁Mills
▁Podlech
▁Baek
rin
ingeri
▁Alcaraz
▁Ef
▁hữu
▁đào
▁Associates
▁Spotify
▁guitar
inet
▁Oleg
▁Kern
âp
▁Murmansk
▁Andrade
ĐX
▁Colin
▁Robinson
▁phai
▁Mệnh
f
<1360>
▁Marques
▁Zack
▁AAV
▁Khác
<1529>
estum
▁gem
▁Jeep
▁Mumuso
▁Achille
▁Fukui
▁CPP
▁Tantawi
▁Leung
<538>
▁Quyền
▁Dord
rapha
▁Tum
▁were
▁Sebast
▁such
▁Hayata
▁Monaco
▁gẫy
rix
▁oxi
▁liễu
▁MGM
▁Chén
▁acry
▁Nièvre
▁Tigris
iền
▁Thon
▁Hafez
▁brunn
▁Shannon
▁Airways
▁Dimit
▁VietJet
▁Suite
▁gầm
▁Ngay
▁quệt
▁PSUV
▁Bros
▁VTC
▁Heck
▁Toner
▁Tung
▁DDR
<1035>
fly
sy
▁mắt
ombie
awak
umab
oji
▁Gaziantep
▁Santana
aurus
rosema
<299>
▁Gaul
ird
▁Saxifrag
▁WTC
▁Cinema
▁Jenny
▁Sha
▁const
▁khuynh
▁Sinop
ilda
▁nhuệ
▁Falkland
▁Neckera
nh
▁cuspidata
active
▁just
ivo
<1274>
▁Hamilton
▁Côm
▁Peng
▁nôm
▁Biden
arba
▁Xáng
▁toà
▁Manstein
ese
▁Exeter
▁LONG
okh
▁Vừ
▁Đả
aban
▁KBNN
▁Saw
▁Valentine
▁Nar
▁cre
▁duỗi
yut
ocort
▁Microch
▁Elm
▁Ivie
jal
▁Phol
▁Blanc
▁bath
▁Burt
▁Ramadan
▁Gam
▁Window
▁Aet
▁TPL
hanol
▁Northampton
ẩm
...
▁Ezz
▁Fifth
alo
▁Trương
▁HDBank
▁Alep
elen
tory
▁Dicranum
▁Typhl
▁gả
▁BÀI
▁Vietnam
▁ERA
ikini
<557>
▁diều
ame
▁Ipomoea
ovka
▁Konrad
▁trổ
▁Kinabalu
<1150>
▁Dau
▁Tạng
▁Surv
▁Addis
ram
kov
amori
▁Bint
▁bào
▁đắm
abidae
▁Barth
▁Diều
asan
▁Verbesina
▁Helle
▁IFN
▁Borhidi
▁Trục
ters
▁Mươi
<extra_id_36>
▁Arabiya
▁Calcio
ewer
▁Heyman
▁land
▁Warcraft
ezia
<1337>
▁May
▁Seal
mingham
▁Madison
▁đạn
▁Ái
▁Broadcast
abine
▁CAN
▁Bìm
<320>
▁Lara
akum
ension
▁Roma
▁Jess
▁tv
olepta
▁MO
▁PTTH
▁Angel
▁Ren
ulture
ury
▁state
▁LCS
asta
udu
san
▁Gerard
▁thâm
<725>
▁Bae
ssel
▁Ross
▁Cont
▁Monthly
▁NC
ử
▁ANT
zer
▁phơ
▁MIRV
▁Marin
emer
▁Vald
▁Dạn
▁wifi
▁Zum
KTT
▁TÂN
▁Làm
▁Giữ
▁Eurozone
iris
<730>
▁Hebrides
▁Search
▁Lagarde
<extra_id_46>
▁Gonzalez
▁XVII
▁nhún
▁That
▁TMV
sel
enti
ticus
oscelis
▁Thời
▁Quer
yap
▁Miy
bra
▁Columbia
▁Lef
▁ộ
▁people
▁Camargo
▁Unter
▁Vùng
<223>
▁Dãy
▁cún
ili
▁Eindhoven
oux
▁tước
▁tango
werp
▁vẽ
▁Fleming
▁perf
▁Tưởng
Leak
▁RNA
tl
▁nhũn
▁Hout
umbria
▁Chiron
▁Dicran
▁Under
▁fan
▁Bip
▁Trạm
shaw
▁Luang
▁két
▁Kilo
▁Hờ
▁McCain
▁Mauritanie
▁Oettinger
elijk
▁Chân
▁ngươì
vist
▁họp
▁xài
▁Fus
▁học
▁Ane
▁chó
▁dựa
▁quỹ
nina
▁Thuidium
<579>
▁Chel
lora
▁bõ
▁Société
▁Tutsi
▁Xử
két
▁phản
▁hiện
▁Fasciol
ots
uyuki
▁Abdallah
▁chày
▁Edwards
▁Zel
▁Chò
▁Metrop
<480>
▁lênh
▁Herrera
▁Celt
▁Mithrid
▁nobilis
▁hành
aso
*
▁Riz
▁ò
linia
anh
con
als
6
▁găm
▁Vẻ
▁Grimes
▁Tirpitz
▁Tọa
▁Glasgow
olt
butamol
▁Sow
<712>
<885>
▁Phóng
raen
▁Xian
ensa
▁Jena
▁Brookings
▁thép
▁Visigoth
enii
▁coch
<extra_id_48>
ulli
▁kê
▁nhược
▁Synd
▁Sản
▁Tục
igua
▁VIDEO
▁NX
▁Sister
▁Russia
▁Afyon
▁Kelley
▁Asellidae
<935>
▁Bit
ogon
▁Lepidoziaceae
▁hỗn
▁Sabeco
▁Berkut
osema
kh
▁chân
▁Haider
▁Hyung
rambus
▁nickname
▁Daimler
rise
ally
▁papuana
▁Mora
▁linearis
▁hoan
▁visc
<733>
▁vạn
▁Janet
▁hầu
▁PVPower
ẹc
▁Raichur
▁dop
▁Paspal
▁Carlsen
<1263>
▁Sunset
iste
▁Ludwig
▁Hooker
lep
TQ
iếc
▁TTg
▁ATR
yck
▁Unicode
▁vict
▁dưỡng
entê
▁nghiện
ofi
<extra_id_60>
amine
▁lôm
lins
▁bro
arion
fone
▁radar
▁khay
aston
▁Valladolid
<1061>
▁Def
ilev
eden
omela
chn
▁XL
▁Kherson
<1197>
▁khan
<613>
▁Duowei
▁Kiến
▁Lian
▁Geolyc
▁Missouri
▁Popov
▁Macquart
▁mạch
▁part
▁Woo
▁dường
▁longip
▁yêu
▁Benth
▁Lub
▁Sama
▁Habsburg
▁Zepp
▁Nhẹ
▁Han
▁giác
▁Malatya
▁Dung
▁Samarkand
raman
▁ràng
ủi
▁Hume
air
▁Graham
ăl
▁Fuji
▁Gloss
▁frame
▁Hels
<244>
▁Giới
▁Lightning
▁Me
▁bất
ville
ora
▁Ind
▁Abdel
▁lội
▁Cunningham
<1849>
▁me
▁Pegas
<1842>
awati
▁Osm
▁Thế
▁phi
▁nấy
ory
▁oanh
▁TNT
sheim
▁glabra
▁Missile
<149>
▁Bup
▁Grouvelle
▁Premium
▁tò
▁Punjab
▁Wilkes
▁down
oona
▁Zika
▁Lonch
<655>
▁Turg
▁Bournemouth
▁Basque
ovin
<1329>
jón
▁chập
vn
rain
▁Paradise
ikawa
▁Malia
▁NTBD
▁Ầ
▁Androm
▁Dir
otus
▁oval
▁Vell
▁Fou
celia
▁Jung
▁Yury
▁Odessa
▁Đọng
▁Bagalkot
▁Bijapur
▁Quãng
▁Ouagad
▁dặt
▁Đỏ
▁Kass
▁Cụt
▁Dự
▁Kadyrov
▁Kota
▁Brotherh
▁gũi
▁Keynes
▁Mukher
▁Xương
▁Bow
▁Calgary
▁Lite
▁FHS
▁Tokyo
▁Thiên
▁Dav
▁XIX
▁Karachi
▁CX
▁BPCK
▁Control
<1312>
<1626>
▁Dempsey
▁US
▁Baden
▁Tra
▁Dracon
▁Animal
ner
▁Brass
▁Pride
vast
▁Itsun
▁Lecythidaceae
etro
shire
▁Rhodesia
▁Shi
▁CAQ
▁mờ
▁CTCP
▁Yoga
▁Dữu
▁Trúc
▁Bill
<296>
▁Paris
▁Lò
ropha
▁pres
ping
plus
af
▁bèo
▁Cerylonidae
▁thổng
a
▁Winchester
▁Pardub
<1020>
▁Kav
▁om
blatt
amaz
▁Habronattus
roc
▁der
▁tây
nen
▁javan
▁Nghèo
ethys
iculatus
uyện
roup
run
▁Acinodendron
▁Vallad
ovina
▁Phar
▁gỡ
▁Andrena
▁Đức
▁Lạp
▁Hamp
▁4
▁Jah
gamesh
▁Anim
▁Rip
▁Combat
last
istration
pak
▁Sp
▁Dirac
<1419>
▁Mp
<1758>
▁Kaul
nik
ich
▁Rhin
▁XNK
▁CNA
▁trích
▁Byelorussia
▁NTS
▁Bảng
Gen
omen
▁rôn
ellen
▁Thêu
▁Tem
▁AC
▁Amau
▁Erick
▁Ấu
▁sum
▁KV
▁WEF
ning
▁QUAN
otho
ychus
▁huệ
artia
▁Kahraman
▁Maguire
▁TNMT
▁TGĐ
▁Hwang
<1914>
▁Fukushima
▁khỏi
▁rộng
▁Tráng
▁TGPL
▁IDF
▁Catalina
▁Goh
ifascia
▁mix
▁Flag
view
ille
▁Nem
▁mình
▁để
iya
gers
▁Drake
artes
▁SIM
▁Eug
▁Rez
▁kịp
▁gun
▁Vanessa
▁Cog
ogu
▁Pallas
▁Wilbur
udes
▁xla
ư
▁Léon
otte
▁Tái
▁Where
aly
▁pay
▁Thuẫn
▁Chí
▁alb
▁Ichigo
▁Slam
▁Insider
▁Antio
▁buông
▁Hannibal
eha
▁BX
uage
▁khỏe
▁Miocen
Ợ
▁cụ
▁IL
▁Warb
▁War
iors
▁Neust
▁Maradona
▁Matelea
▁Béc
▁xỉa
itch
▁Kyoto
▁La
icaria
▁Glyn
▁Sek
▁voọc
ex
▁Wyd
▁Đạp
sui
▁Việc
▁Hyd
▁Elatostema
▁Acaly
HCM
▁uyên
▁dưa
▁Gaddafi
▁Chỉnh
odon
ista
▁Bách
▁Phàn
▁interrupta
▁vát
▁Sarajevo
▁Atkinson
oyama
riy
▁hót
▁Petro
ânia
ica
▁Cạnh
▁Huế
▁ngõ
▁ear
cik
▁Chom
▁TTO
▁Sheremetyevo
agma
<902>
▁Vac
▁Parry
▁Strelkov
▁Maks
▁All
▁Ángel
▁amb
▁Rowan
▁sậu
▁Hàm
jiro
▁page
lash
▁Corn
<1205>
▁Cuồng
▁dọa
▁Ich
fer
▁Ramón
▁Geor
▁a
▁Bes
▁Brat
osh
anz
▁xcơ
▁Umar
▁xéo
▁Kig
▁Lawson
ofera
▁Car
kee
▁vân
▁Lư
▁afric
▁CHÍ
▁Habib
▁KIA
▁Haifa
▁ngỏ
▁Shura
▁Hùa
▁Petrograd
ffe
▁Muq
▁FDI
siya
mar
▁Rishawi
▁Ur
uvelle
▁Kog
▁fly
▁Meyr
endens
▁Sakha
▁Nadal
▁Boat
ot
▁Nhai
▁pharaon
▁Brent
▁Gina
▁Davos
omaculata
<1280>
▁Cuối
ẠCH
▁Dế
▁monoxit
▁mắc
egia
▁Ỉm
▁Buồng
nova
▁Zidane
igena
▁Flor
teryx
allene
alongkorn
▁hydrox
▁Luy
▁Johan
▁Family
▁chẳng
▁Dias
▁Ào
▁Argyr
inaw
▁Mindanao
▁Đakrông
tura
▁Luc
▁Chập
▁Tuế
▁Khuếch
▁soát
▁Minerva
KV
zi
<1685>
▁Liga
▁Karel
CC
<1746>
rysum
▁silver
▁khố
▁gh
▁trở
▁Sig
▁Concord
ego
<1678>
aijan
▁Bực
urga
▁Rolldock
▁Kwa
▁Cohen
osta
▁Rhacophoridae
▁Mauricio
▁Liechtenstein
▁Rhip
▁Verkhovna
▁Lower
▁Gand
▁poa
▁Front
▁Bridg
▁Nott
▁Shiki
▁Sẵn
tec
▁bạ
▁Lacertidae
igator
▁Sasuke
▁họng
opil
<1917>
isky
▁AMC
▁blan
▁Libăng
▁as
▁hốt
▁nep
▁Nyc
▁lững
ianae
▁Ptolemy
▁Hưng
▁cytokine
rans
▁Chúa
amide
▁Free
▁Katie
▁Ochs
▁Sorbonne
quois
▁plasma
▁đây
ạo
chi
▁VIETNAMNET
▁Pret
<extra_id_73>
▁Mozambique
▁Đởm
oll
▁Botswana
▁muban
trong
alba
àn
▁Calle
▁Chặng
▁Răng
anha
▁vạy
amph
▁Sacram
▁basalis
▁Mồ
▁búa
▁key
scha
▁neutron
▁Mats
▁đạo
ous
▁Sét
▁yak
▁khối
▁Advan
▁Grimmiaceae
▁Superman
▁lợn
arii
▁Pisauridae
▁dột
▁Lif
itas
▁kr
▁inaequ
▁SiO
▁Nasr
▁HCV
eki
▁Chuẩn
▁CHDCND
aze
▁Giờ
▁Luhan
▁WHO
▁lès
▁barie
▁more
▁Byr
eddin
▁jpg
▁leh
▁Sting
▁Khéo
conn
Ẵ
▁Phần
▁Fries
yce
iensis
olophus
▁type
▁tang
ém
irut
▁Avakov
▁Umarov
▁BLHS
▁nghề
▁QGP
▁Fuller
▁Đe
▁bươn
▁SPA
dek
▁lưỡng
▁Polyp
▁ThS
▁hãm
▁hửng
▁dục
▁Och
ohama
onda
▁tuế
▁Produce
▁dilat
▁Repubblica
▁Schmid
ịch
▁cốc
▁VietnamPlus
▁Keck
▁Mục
▁Als
▁quán
nier
ingh
▁Dand
▁tê
▁XM
▁quét
▁Hannah
ationale
▁Guinée
▁BXH
▁Hov
▁Horn
▁sập
▁Lối
▁Khu
▁Kano
▁Manas
▁violon
▁siết
▁pv
▁khiếm
aig
etland
▁ME
▁Magh
GM
▁Ez
▁Pfalz
▁bore
bak
▁glomer
▁Lấy
▁Valley
▁VC
ìm
▁Ardisia
▁Heli
▁ver
▁Emin
ineum
<extra_id_89>
▁Trento
▁Aur
▁rùa
▁Kendall
▁Jensen
▁Đột
▁Khan
▁Synema
▁Hz
▁Dei
▁Seasons
araj
▁gắp
▁Idaea
ạn
<1589>
<extra_id_66>
erusalem
<562>
▁ud
▁Caracciolo
▁xót
▁Đéc
<847>
ouc
▁Chanel
▁obl
▁Ardennes
▁Bất
▁Carac
▁Lau
▁Harold
oloma
<1533>
▁Dw
▁Luiz
avian
▁Mk
▁Eugène
▁nylon
▁Enterprise
ionaceae
▁Lamar
adem
▁anti
▁Bukit
▁Flemish
Ụ
▁Thưởng
lend
▁crai
▁Havre
▁LO
▁Leonardo
acum
▁ôi
astre
ophylla
▁Vercelli
▁Kinh
▁Wild
▁Gros
▁chăm
oy
▁Montenegro
▁Pant
akis
amen
▁Lions
stad
▁Akadem
▁Cupressaceae
▁Pana
7
▁Lil
aughter
▁Peace
▁Lik
LD
▁khái
▁Information
▁Swift
▁cỏi
▁Polygala
<extra_id_34>
▁viếng
cellariidae
olfo
▁Chama
jos
▁Hoss
▁Saeng
▁Hugo
▁comune
aval
▁Michel
<1139>
ipur
▁Goku
▁Motorola
▁Shogak
▁Barns
▁Ulrich
▁Dort
▁Macromitrium
▁Gorky
▁Concorde
▁Norte
rb
▁ERT
▁trái
▁casp
▁Odont
▁Pholcidae
▁Kan
▁Reinmuth
▁Creole
▁logic
▁Daud
▁Spr
▁Avengers
<1355>
▁Pseudol
<1278>
▁mar
▁Nào
▁da
ẾT
▁Arbor
▁Armenia
▁AUD
rovsk
▁thung
▁dời
▁Pakhtunkhwa
oday
▁doanh
ono
▁Manteuffel
▁Zachary
ibert
enheim
<1290>
▁đặt
▁XK
▁Luisa
▁Portable
rib
▁Í
uchus
unkhwa
▁Exor
poides
▁Szlach
rosa
▁Suy
andom
itos
<956>
ground
▁gô
▁chọn
opep
yron
▁RADIO
ég
▁Mozamb
▁Crawfurd
▁khoa
▁Bamako
▁Giul
▁rựa
▁trót
tinh
▁Marx
▁Oran
aver
ciech
▁Fran
gie
▁gene
▁Hur
▁dàng
▁ghen
▁mắn
▁Invinc
▁Thốc
▁Meyer
odendrum
ium
▁Matthews
Ặ
▁Dex
▁loan
▁sán
▁ze
▁Alfonso
▁Cincinnat
argus
▁Ahmadinejad
▁Project
kas
▁Schwe
▁nhi
▁Rahim
▁Ardahan
▁Bots
▁Adventures
cing
eshiba
▁ngon
▁anc
▁Anthuridae
▁ủi
eiro
▁Kle
icius
<1669>
▁NÓNG
extin
ado
▁Mỗ
▁là
▁Lans
▁Jod
holt
▁Hew
▁FTA
▁zu
ox
rif
▁wall
hy
▁Emerson
▁Kannad
zewski
%
▁vệ
▁gìn
▁Pé
▁Nexus
▁Cấn
▁Konami
▁Pb
▁chài
▁Jol
▁Diện
▁thít
▁Tagawa
▁lảo
olla
▁Profess
▁Agni
oleum
▁center
▁Kach
GP
▁Melitt
▁Natuna
<551>
otea
▁Ed
▁gil
▁Berland
atine
▁Lạch
▁zh
ombo
▁Vicenza
▁Griffith
▁magn
▁Khổng
▁Thứ
▁bít
▁Hand
▁Ake
▁đo
▁Holz
<681>
▁Zoph
▁Diên
▁Tbilisi
▁Abbottabad
▁Rapp
▁hẹp
▁phiên
▁mes
▁Shinoda
▁Kalimantan
▁Tỉ
▁ring
▁Antoinette
<1765>
▁Pakixtan
▁tổn
▁Beauty
sim
ethyl
opetalum
ication
▁LHP
▁Jazz
▁Kush
▁hecta
▁arb
▁Zopheridae
▁Minut
▁Browne
<939>
▁Tupol
▁Thêm
▁Suv
gerald
kovsky
racteata
▁Trần
▁Ngầm
hra
▁norm
▁Uigh
▁Cri
wright
▁Saig
▁Tích
▁Gadhafi
▁Mù
▁Lasioglossum
▁Dominique
▁NG
emia
▁Nostra
▁Hutch
entrop
▁xa
▁Sakurai
▁Carpio
▁Cập
▁telenovela
imi
▁plum
▁Operation
▁Shirai
▁Gius
▁Radio
rii
itans
▁Dv
isy
▁Vienne
tke
▁Susan
▁Bogdan
▁Law
▁Townsend
▁cúng
▁Harz
▁Splend
▁Pag
<1658>
▁Pinto
▁CKC
▁Men
ifswald
ioch
▁Thuấn
▁Dận
▁Tekirda
<extra_id_15>
▁Commelinaceae
▁ster
▁Pose
ochrom
▁Defence
▁Bran
▁Sốp
urakshak
▁Vòi
▁Maarrat
▁Phetch
▁Alyss
▁Tennis
▁vì
unch
▁Naha
▁Ayutth
▁TDTT
▁Panetta
O
imir
▁dốc
▁diệp
▁Regensburg
▁glauca
▁fab
▁Elaeocarpus
estis
▁Ple
<851>
▁Kyodo
urv
▁Kensington
▁chải
uấn
▁Mọi
▁Deg
ức
▁Stern
<489>
zen
▁Grab
pat
▁Westfalen
▁Đồ
iy
▁Debehogne
▁Nhặt
myra
▁giầy
▁Base
▁Alli
▁Sảnh
▁Xylocopa
▁Apartheid
▁Caes
▁Elymus
▁Djib
<9>
▁Bl
▁at
▁KDE
▁MTV
▁MC
úy
exco
▁DP
thys
êc
▁Diet
▁Lip
▁bra
▁Miers
▁Sagitt
▁Unil
▁Rou
▁Khodork
▁INE
hel
▁Cogn
▁Cori
▁Manipur
ON
achia
▁Kishi
▁Bruce
▁Bratislava
▁Nico
▁Đủi
▁dubia
akaze
▁THX
▁Over
▁Abu
eckel
▁Ướ
▁Arish
▁Jacinto
▁Megal
▁Pizarro
page
ersch
▁Etern
▁bazan
fia
▁Ueda
▁Jammu
▁Thunderb
▁Akula
▁manti
<1057>
▁Trưởng
▁Mikh
▁nhảy
▁Credit
▁băm
▁chất
▁VPLS
▁gent
▁Khí
▁Didier
ueng
<1598>
▁Chèo
▁Roem
▁hột
me
▁dimid
▁Shanghai
▁Then
▁Poepp
<1854>
▁lỉnh
ace
▁cú
ùy
▁paradoxa
▁Dep
▁Trap
▁Horace
▁dùi
ốk
<989>
▁Hermione
▁Los
ovd
▁Las
▁Enterp
MEBOL
▁Rheinland
▁Tháo
erl
émon
▁Nusa
▁Hống
▁Caec
▁Lipp
irat
▁Lagrange
▁Ele
▁QP
▁IK
▁Mali
▁đơ
HD
▁Brahmaputra
▁Joh
▁Lot
▁gốm
év
▁Report
▁Cam
amarca
▁Liban
▁Laurent
▁her
▁ha
▁NYT
▁Corr
jom
itz
legra
▁hiên
iet
▁Circle
▁Antip
▁Như
▁Rosen
aldia
▁foot
abet
▁Phiến
▁Hookeriaceae
▁Herbert
▁Lorenzo
▁mòng
▁Yorkshire
part
▁Oriental
▁Montp
▁hoang
ents
ii
▁Baccharis
▁Dusseldorf
▁gốc
▁Burs
en
▁Cardiophorus
andi
▁Rajasthan
omerang
iam
▁Decne
Music
▁Garner
▁Lycaenidae
▁Holst
agiata
▁Chrysomelidae
▁Đáo
ikh
▁BQT
▁QLBVR
▁Cornell
▁Golf
▁dọn
▁BHYT
phne
▁Naypy
▁Cardamine
▁Pauli
▁ào
<132>
iatum
▁Somme
▁Help
▁Eb
▁Chernobyl
▁trớ
▁Canberra
ool
▁Choe
udon
▁Nans
<1215>
▁Saostar
▁Màu
▁Duật
óng
▁Melan
oung
▁Arth
▁Spe
▁Karp
▁tậu
▁Stokes
▁Belmokhtar
<1172>
▁Valentino
▁Bích
Đ
▁Taek
▁Molenbeek
strum
▁Tòng
▁nhũ
▁Shakespeare
▁Baptiste
▁spa
▁cong
▁Loc
▁Leskeaceae
▁Ericsson
▁Gelis
▁xướng
▁Tiberium
acht
▁Oracle
▁Kaga
gsuban
▁Vijay
▁Cuba
▁Surab
▁Jat
<1411>
▁choạng
ío
▁Glon
▁into
▁Carlo
ark
orensis
<764>
▁Macbr
▁Ải
▁Zl
▁sẽ
▁Scutell
▁bẹn
▁cas
▁đẹp
▁xú
▁Ngưng
▁Dahlst
▁Ryong
▁Bày
marat
von
▁Aral
▁Navás
▁Enicospilus
▁Balf
▁Spir
▁bủn
ork
▁Beach
▁Bombardier
uard
▁Bid
▁Wiel
▁prog
▁TNCD
▁Pheng
▁NCPO
▁Becc
▁lâm
nu
LP
▁Ĩ
ek
arn
▁Provinc
terson
▁heo
▁Gaius
▁Hongkong
▁xù
▁hẻm
▁bưởi
▁Cannab
essel
aster
FS
amount
alpindi
▁Arct
iken
▁AAP
▁Giồng
▁Geotrupidae
▁Mũ
▁STA
ễn
<1114>
▁tam
▁Bui
▁Zdr
▁Ostap
▁cửu
▁Đoản
▁Rocca
▁bị
iot
stre
▁Cylind
▁Feinstein
azole
▁Natsu
X
▁kiển
esse
▁Tow
▁Abrams
▁Gloch
▁Tai
▁Bàn
▁rít
▁Wolfgang
▁BMP
▁Khố
▁Flav
đôn
▁lõng
upo
▁chụm
▁Palic
▁includ
▁Muss
▁hỏa
<extra_id_43>
▁luộc
▁Ư
ush
▁membran
<161>
▁Of
aco
▁Akhenaten
ighty
▁Gamba
<1004>
▁Gaulle
▁Chinch
▁Poc
oce
▁Styl
▁Hing
lant
▁Khâm
▁Viên
▁tráng
▁Panicum
▁Digitaria
istr
▁band
▁Exc
▁Trượng
▁Delhi
▁Pat
▁fur
▁Eag
<393>
▁Khán
▁rating
▁Osmia
▁Deshch
▁aspart
▁Auth
▁Merkava
▁Brunei
<166>
▁Neolophonotus
▁Summer
▁Dauphin
▁Lấp
▁Arap
▁Swin
▁SEA
▁Súp
agong
▁Pax
▁Jalal
▁Diabrotica
▁DNTN
Asia
leng
▁Strong
▁rằm
▁Canaan
▁min
▁Rossiya
▁Gressitt
▁Exley
▁Mitch
▁Triton
<extra_id_67>
▁ảo
aris
isternus
▁Cabral
<246>
enne
udeau
▁đậu
▁Zaw
▁Kuros
▁subf
▁Date
▁Thua
▁Carb
▁thụt
ine
aeidae
▁Domingo
imét
ão
▁eBay
▁cốt
▁mòi
▁Kazakhstan
▁Oai
▁Abkh
▁Montre
▁ngáng
▁Trium
lev
▁Sagami
asha
▁Yankee
▁HF
rota
olepis
▁iphone
▁hẻo
▁vợ
ance
▁Yuc
cephalus
▁Galli
<941>
▁lanh
▁Dassault
▁Toch
▁hảo
▁West
▁Rupert
▁XIV
▁Giặc
arra
▁DNA
▁Bangarapet
▁Đống
▁Karzai
eran
▁Kurosawa
▁Mái
▁Hewitt
▁sed
▁JFK
▁Yang
▁vích
▁Găng
▁vông
RP
▁CĐV
▁Eustala
▁human
▁Ể
arning
incta
CII
nica
▁Cừu
▁UBTVQH
▁Monis
▁Komn
obin
▁Delphin
ley
▁HP
▁Cout
▁SW
jana
▁VN
▁Aus
▁hôi
▁MHB
<423>
uble
▁HĐQT
intosh
▁túy
▁Yas
▁Remy
▁philipp
▁Angola
▁Tria
▁lưu
ymn
▁Somyot
▁sộp
▁xập
▁boa
▁huyệt
hampton
▁Dhar
tas
cơ
▁Rwanda
▁muống
jevo
▁Hit
<1883>
▁Fell
▁ĐỖ
▁sound
▁SAT
▁Wrestling
ậm
jes
▁Cavite
▁Bydgos
▁Gnaphosidae
▁trệ
▁khía
▁Wander
<622>
▁Thiêu
ế
▁dãy
▁Fuch
▁Naga
▁Pri
▁Cồn
▁Aquitaine
▁đần
▁pul
▁Gamb
ụm
oise
eson
opet
hrad
tr
▁NASA
▁Micr
▁quả
▁Aura
▁Loan
iss
rage
▁wid
▁Plant
▁Dolly
▁Abbot
entin
▁girl
oline
▁Nasser
omera
▁Luís
▁liệm
▁khỉnh
▁cật
▁Screen
▁Ronnie
▁View
▁Chau
▁Mác
ỡ
▁Ợ
ite
▁ân
▁Reid
▁Oon
▁Enrico
▁Thoong
BV
▁Baath
▁Minogue
▁náo
uil
▁Bloom
ulla
▁pend
▁quadr
▁Tash
énez
▁Alur
▁dâu
▁lay
▁Liệt
▁Honda
▁Hein
▁Sag
▁khâm
▁rapper
ẳ
<1816>
<1313>
<842>
▁Kamen
te
▁Triaenodes
nai
▁Ánh
▁ankan
▁đứt
▁nề
▁County
▁Apoc
▁vụt
▁Ten
▁Pháp
▁Quắn
▁SAM
▁bang
▁disco
▁NTD
▁Ascala
▁Nê
▁Fat
roud
▁Bart
▁Sampson
▁Thùng
<590>
▁Styles
▁Platia
▁Dry
▁Kandahar
▁Air
▁Almaz
▁Schwarzen
▁Darlington
▁Acer
ragalus
▁tuyển
coides
▁vern
▁Salva
aranea
▁Kiền
▁Stad
▁Nos
▁Tát
shina
▁Aralia
▁ONE
▁TrustBank
▁HOÀ
▁acc
▁Dios
▁Jie
▁Paola
ropogon
▁Tạp
▁Xuđăng
▁Bla
IMO
▁Gloria
▁quầng
▁KHÁ
icensis
asu
▁VĐ
▁Kank
▁Wallachia
UN
town
onia
▁Schoen
▁HQ
▁nang
▁Smash
▁Vũng
illariidae
▁Cephal
<827>
▁thọc
op
ost
alu
▁photocopy
▁mụn
▁Simferopol
▁amin
▁khăn
▁Điệp
arian
cta
▁Cory
▁Karin
▁khuây
Azur
▁Peach
▁Fam
▁Phò
ayana
bio
<574>
▁Sverd
▁hy
iped
▁Reg
▁Grow
aud
▁cặm
▁Luxemburg
▁Bethesda
<672>
Ú
phidae
▁Niêm
▁ngùi
oslav
unze
manni
▁larvae
<1895>
▁Arizona
▁Acre
dahl
▁Rehder
velines
▁QH
akh
▁Valeriana
▁xấp
▁Tig
▁Hap
▁Accra
▁chảnh
▁Marie
▁Yadav
▁Hawk
▁Pinochet
<1044>
▁sồi
▁khalip
▁ROM
▁bạn
▁Reign
nefort
▁miền
▁xavan
cop
▁Borno
<808>
▁Brothers
▁HKTT
▁Bhut
▁Lindt
▁Brasilia
▁LĐLĐ
▁Nôm
▁thiên
▁Aless
miphora
ONASS
<13>
▁sui
▁hisp
▁Chapo
▁Andron
▁Madoff
▁Ember
iber
▁ngoặc
akt
▁Keys
▁nạo
▁Accipitridae
▁Asian
▁Măng
▁luat
▁ghê
amb
asco
▁Chloroc
▁khế
▁Aud
▁mis
▁Lada
▁Scream
iễn
▁Dừng
opy
▁Suez
▁Nặm
<1646>
jun
▁Kỹ
▁Lund
▁khuôn
▁Chanh
ilensis
olve
ì
▁na
▁típ
▁BID
▁nigric
▁compact
▁Cow
▁Swe
ós
▁site
bai
▁Rộ
▁VLXD
unensis
<1384>
▁dải
▁trà
▁bừng
▁Steiermark
▁ki
▁gai
▁html
▁Thunder
▁Naftogaz
▁Auguste
▁Sunshine
rio
ycha
▁viên
▁karst
len
▁cyt
<787>
▁dụ
ode
i
umat
otov
cus
▁Roscosmos
▁cel
itano
<extra_id_6>
▁Vn
rosia
abrus
matius
▁Grammy
▁RL
▁Ruk
▁tấu
▁VĐV
▁Gwangju
▁Hancock
▁Interfax
▁ghẹo
anal
▁Ngưu
▁Ortega
▁let
away
PL
▁Varshavyanka
▁Bàng
▁Shost
▁Guadel
▁Zah
eras
▁Sonn
▁Ngụy
▁Jose
▁Capita
▁tit
omia
apore
charis
▁rađa
▁Manus
peria
wai
▁Ferreira
▁Raphidioptera
▁Nato
▁Waters
mond
▁VNPT
▁Eucalyptus
▁phúng
▁Abyd
▁THCS
▁trụi
▁Sassanid
▁khải
▁Sew
uân
▁nigricans
▁Watertown
▁Xén
oea
▁Cherif
<704>
▁giáng
▁Kamov
▁Králové
▁muelleri
▁Pic
▁mò
▁NP
onde
▁Tin
▁Lodge
aer
▁Our
▁NTT
▁miêu
<111>
▁rẻ
yanua
TB
ierra
▁Sanchez
▁Côi
▁Legacy
▁NM
▁Gray
▁Geum
▁HLV
▁Isl
▁Clusia
▁Nghĩa
▁Iceland
ifl
▁Manor
▁ADIZ
▁aster
▁ả
▁vo
▁mex
UK
▁Walton
▁mành
▁Reynolds
▁PZ
<1427>
▁Quê
▁ú
▁Tiên
▁Toán
QH
▁Rabbani
<221>
▁Catalonia
▁Pank
▁sous
▁lương
▁hễ
▁Wang
▁FE
▁Ver
▁perc
<extra_id_44>
skn
▁Wielkopol
▁Rabbu
▁VH
▁Ho
▁bract
▁Blasio
▁Aeolus
▁Xem
▁Mây
▁light
han
▁Nord
▁Nouméa
abalu
adurga
orio
▁Hon
islav
▁Fresno
▁Watford
▁JASS
▁Mobifone
▁Enic
ensh
▁ren
▁cháy
▁Abdeslam
iphon
▁Moll
▁Chatham
▁Quả
<1194>
Tr
▁Cau
▁Gatilov
ásquez
<534>
▁Stoltenberg
ợi
icap
▁Bog
▁cafe
▁REUTERS
opsyche
▁Ngân
uso
▁truân
usta
nidae
▁Tah
▁Claudius
▁Peterson
<552>
czyn
▁Pu
▁chương
▁chúng
▁Sĩ
▁Collège
▁Blanche
▁Rais
▁Vincent
▁Slava
▁TPP
▁què
▁violin
▁Đu
▁Mens
▁Northumberland
NĐ
▁Fuku
▁Je
loa
▁Rosneft
▁chuốt
▁polyc
▁made
▁Pulitzer
▁Ca
ếp
▁bry
iq
▁triều
wn
entino
▁Ự
<308>
▁Nashville
dr
▁ngan
alie
▁Nhuệ
oza
om
▁Barry
▁Macaranga
▁Sadat
▁dạ
▁loạn
▁Will
▁Tarawa
<1647>
ata
▁lách
▁Pristim
▁giọt
▁AU
▁tur
▁ken
xtan
▁CHND
ischer
▁Theatre
▁Maksim
▁Panduranga
▁Boumeddiene
▁Andres
▁Kiêu
rina
aptera
▁Patton
ocaul
▁thiêu
<1243>
biz
▁Milk
burn
▁Langley
osit
▁Made
▁Round
▁Cuc
▁lắt
▁Karen
▁Boris
▁Peshawar
lexa
▁Turkestan
▁Gián
odic
▁Edmund
ỤC
▁Iwo
▁chướng
fua
cken
▁Kayla
<348>
▁nhúc
escent
aller
book
▁Stars
▁Zal
▁ỏi
▁đường
▁BT
úi
▁parad
▁Zamarada
dina
▁gục
▁Gyeongsang
▁nano
leb
mer
ellus
▁Anis
▁Arctosa
▁Cynanchum
angor
<647>
▁Xê
ellino
found
awara
▁Bệ
▁Kawasaki
ceae
▁Kish
▁Ishi
ffinis
▁Marginellidae
ỏe
aradei
ffin
▁Societ
▁rốckét
eme
▁Xôviết
▁Thuidiaceae
▁Month
▁Nestor
▁Dọc
ocarp
fire
▁Direct
▁Mindoro
▁Ộ
encio
▁Daejeon
▁Hradec
"
asat
▁ngừng
▁KM
▁Hajj
▁Dâu
ocoma
▁Pok
▁Barak
repeira
ences
▁Bremer
▁Dendrochilum
▁Java
▁gái
▁Bu
ithorax
▁Nài
▁Naft
ầy
▁Zimbabwe
▁Merk
▁Ney
▁Boone
▁Pach
recce
▁Trich
▁Vòm
▁Boeing
▁Copel
▁Bataan
<1507>
▁Neon
▁ráo
dafi
akk
▁pulch
erch
▁Cott
▁Myan
▁Sakai
▁Dì
wealth
▁Phys
▁Pet
▁Neop
▁Yudhoy
▁Alaw
▁carbohydrate
▁Kiv
esch
▁nguyên
ifol
▁PNA
▁gí
▁Banda
▁Gillett
▁ai
▁fr
▁Heights
▁Forssk
▁Illinois
ronia
▁Ramb
▁grav
▁Seiji
▁Đắk
ure
ippus
oprop
▁CÁ
opteridae
▁Caribê
▁chộp
▁Managua
▁Siberi
erge
▁Glass
▁Protocol
<803>
▁Lawrence
▁Tets
▁Model
ove
▁Jacob
▁Tortricidae
▁Đúc
gel
▁IPC
<1028>
▁TNO
▁Bryan
▁Weber
ff
▁Bộc
▁Dzhok
▁Nhữ
▁disp
▁ĐCSTQ
▁Đuống
▁Sihamoni
▁States
▁Jack
▁Calym
▁siêng
▁Ken
wig
▁thắn
▁Linux
▁Bakh
<642>
zav
▁nhăn
▁Associated
▁cl
▁milimét
▁Edgar
▁thái
▁Đò
▁Mits
▁Natalia
ND
▁Geranomyia
▁Cheirac
▁Kib
agaceae
ih
(
▁Pang
▁Sverdlovsk
IA
ality
▁Welle
ukovo
uckland
▁Axel
▁Horik
lum
elaphus
▁tạc
én
vir
▁Hận
▁Breivik
▁vảy
thes
ares
▁Baehr
▁Blade
▁hỉ
▁Vênê
▁thoái
▁li
<937>
<953>
▁Sebastian
▁Dolgoruky
▁Comoros
▁ghim
▁Hồn
▁Sever
▁niger
▁Taira
<871>
▁Hernandez
▁Hoắc
▁Benn
atem
▁Gris
▁Shwe
▁Rew
▁Hyll
▁ruồi
▁vạng
▁Thác
▁ay
▁Mụ
▁Cyatheaceae
▁Weinstein
NS
ew
▁vers
▁Rov
iagra
uter
amy
▁Loes
ylia
▁Vạc
▁Wahl
hai
▁lòi
▁QLBV
▁lud
<1395>
▁GTVT
▁Yêu
▁Scandinavia
▁Chú
▁Geh
▁ấu
▁mono
sonii
▁Lasianthus
<478>
▁punk
▁Books
▁thuôn
▁tar
▁Kongo
ike
▁Pius
▁Shou
<1827>
▁Orthotrichaceae
▁Terminal
▁yể
▁Ein
otaenia
lid
<1158>
▁Bohemia
▁Toản
undo
▁mont
▁Reh
▁ICRC
▁Nhấn
▁Aquila
▁Tel
▁Yuan
▁sưu
▁IR
▁Ỳ
▁Burg
<532>
isei
▁Sush
▁dỡ
▁Silesian
▁Mắt
▁Peskov
▁khắp
▁Komsomol
iệp
▁Moy
▁Carpath
▁Alligator
▁Sergei
▁Scharnhorst
▁daily
Hz
▁rupestris
▁Willie
▁Zygophyllaceae
▁Zaragoza
▁Morrison
▁Schultz
▁JD
▁Quát
▁Cừ
▁wil
▁Guayaquil
▁Bohol
▁Hydroch
▁Gioóc
ican
ấy
▁Massachusetts
▁VAFI
▁tội
▁khơi
▁Science
▁Yukos
▁alpha
▁Augustin
▁Gilg
▁Sikorsky
TO
SCT
▁yout
oram
▁tạng
▁Wester
ellig
▁HDMI
▁also
▁Trao
▁Husse
▁Left
ald
▁KJ
▁Defense
▁Firmino
▁Belgorod
▁styl
<1053>
▁Irving
ằn
▁Islands
▁khuyến
▁Dus
▁Breslau
ông
▁Trachel
▁cày
▁Afrika
▁anth
▁Abid
▁oh
▁Holc
▁Thân
▁ngưng
▁Ricci
▁Bố
<284>
ceus
thalm
▁Johor
▁Jang
▁Kommersant
▁Nhiếp
uric
▁nhấc
<586>
off
erc
omoea
alos
▁Lester
▁Acid
▁Arag
▁hon
okee
▁CJ
▁MKM
ầng
▁Pioneer
▁Central
▁Mahan
▁Champ
▁sam
▁Clark
▁Walk
▁Juventus
▁noãn
▁Ero
<531>
▁Falls
▁Sos
▁Rất
▁sợi
nchen
▁Kau
▁Occitanie
orno
▁city
▁Lán
ster
iba
▁Copt
▁Frey
▁nhấp
▁hục
▁HSBC
ocaulon
▁Martin
▁phe
amp
ŨNG
▁coronavirus
▁Kre
<1570>
anthium
▁Ix
▁n
▁cổ
▁mos
<921>
▁Sug
▁Bunge
▁sà
▁Barroso
▁bả
▁ngửa
▁FAT
▁Latakia
issan
<1038>
▁khoe
za
oppa
▁Hieracium
▁đót
▁Cổn
▁Eagles
▁Bảo
eta
▁nao
▁Coca
▁Wind
▁Ermisch
▁MT
▁Lithuania
▁gánh
<37>
stock
<309>
▁Goni
opoulos
▁đay
▁Hoa
▁Cốc
▁Bed
beh
▁Dracula
stan
ertown
▁nhánh
oạn
champ
▁MV
▁Champs
<854>
phyr
▁teo
▁VNN
▁mức
▁McLe
▁Lycosidae
▁Girl
egger
▁lởm
▁nớp
▁XNC
▁mến
▁Lilly
▁SF
▁Libell
▁MBDA
▁Bakr
gado
rim
eley
icki
▁Mohammad
▁Limousine
▁Thang
▁dế
▁tehsil
ehr
▁Intellig
▁bút
▁Huper
▁TOW
▁Greg
▁Tenness
▁cuỗm
unctata
▁Superjet
▁Musudan
▁Luca
SF
▁Blackpool
▁Abig
▁Jama
▁Jib
▁Steatoda
▁Metazygia
▁Sina
gheny
▁Gly
▁Bayern
Works
alg
▁doll
▁Coco
epoh
▁Dallas
▁ag
▁amoniac
▁Cribb
▁Pó
▁Psephenidae
▁Monitor
▁chưởng
uket
▁Thăng
▁Women
zani
▁Quầy
<548>
▁E
▁Rompuy
▁OV
▁Aum
▁Tach
▁IN
▁Alfred
▁Porte
ocampylus
▁Halim
▁Rize
ouin
ucky
▁cc
▁Civic
▁tóe
▁PF
▁Kri
▁copy
▁Berlus
▁ANSA
▁ARD
<1716>
▁Stre
▁Zuma
▁Comp
del
▁súc
▁Damacus
▁phễu
▁Khuất
▁Rowley
▁Levant
▁Tóc
ayan
▁Irv
▁Julie
▁Libération
▁Scandin
▁Bilbao
▁Condon
<914>
▁Dicranella
▁BCA
▁Tước
▁VW
▁emar
ành
▁Erebidae
▁laser
▁int
▁Rhynchitidae
▁Lộng
▁Thalass
▁Riccia
▁Roz
▁Eran
▁TNHS
▁smithii
▁Cyp
▁chây
▁Eust
▁Tk
ses
actor
▁Uragan
▁Fals
NAS
round
ential
▁Ketamine
▁Phối
▁kem
▁hơ
tei
▁Hin
▁Os
▁Zhukov
atia
▁Tennessee
▁rãnh
ancy
▁Detroit
identata
itude
▁Ăng
▁Venezuela
▁Charlton
▁Zulu
▁Sundance
▁Camden
▁Né
▁nháp
▁Khay
▁Iwata
hal
▁nhẹ
▁Goto
spic
▁Minneapolis
▁pen
▁Bundes
cester
▁Stand
▁Thìn
[
▁CER
▁tre
▁tựu
aek
▁Dob
▁Inđôn
▁Pellegr
ulidae
ayen
▁Polytrichaceae
▁Anthurium
angay
▁Mitra
▁Hymen
abl
▁Dục
▁TUY
▁cập
▁Getty
yi
aten
▁đá
▁How
▁Tet
▁Oax
▁nai
mler
▁ny
<1838>
▁ói
<817>
▁Mussa
▁Chàm
<1807>
▁vĩnh
eroides
<932>
<extra_id_56>
▁Machine
ắk
isu
richidae
▁Dirty
▁sần
▁Sót
áu
aspur
ô
▁Britann
▁đột
▁Wiedemann
▁Paolo
ostege
▁Was
astas
▁Sigmar
▁Hydra
▁Rath
▁Card
▁Reichs
▁Jul
wah
▁Valk
▁chếch
▁Trôi
▁Vind
voir
▁nẹt
▁generations
▁ama
▁robust
urella
▁Burgundy
▁North
▁Ướt
oke
elf
▁gì
▁Mé
▁Dne
▁Isopterygium
▁Yết
<306>
▁phil
▁UC
▁ECCC
▁hè
▁Pleurothallis
zhkov
beau
▁ADC
▁Joel
▁Chae
ạ
<1778>
▁Ab
▁manga
▁Pensacola
▁massage
▁masc
▁Córd
▁Đuổi
isoft
▁Nouv
▁Harmon
abyte
<1242>
▁Sloviansk
apia
namplus
▁Theodosius
▁Mikoyan
▁Jan
▁Satsuma
yan
har
▁Konya
<1600>
▁Tsuk
<809>
Mos
▁acet
▁khuỷu
▁Zard
▁Draba
mons
▁Yến
▁Adi
ychidae
odidae
▁đọa
▁Dut
▁lằn
enbergia
antia
▁Vivian
▁Ricky
▁Dioscoreaceae
▁thoắt
▁Mainichi
▁nụ
▁king
▁Kitt
▁cắm
▁Peshmerga
▁Name
▁lù
aneus
▁Ahram
▁Koizumi
▁Hs
▁Ec
▁quây
▁SCN
▁nơtron
▁Yokosuka
▁Gỗ
▁bao
▁Sáp
<1539>
▁Maker
<176>
▁Thep
▁Hikaru
omy
▁Digimon
arsk
act
<887>
▁visual
▁Blood
lovka
▁Ere
▁Jean
▁giế
naceae
▁Mohd
etz
▁gỏi
▁Ucraina
▁Blech
▁Email
▁Pueblo
▁Echin
enson
▁pung
▁chừng
▁Zod
▁đi
▁Bar
▁Nóng
▁Montev
▁Sens
▁Memorial
hiro
▁Megachile
▁Nawaz
▁VKHN
▁glab
alla
▁Nikeph
▁EP
▁Pênh
▁Liow
▁Activision
▁Isid
artney
▁micros
▁khư
igerum
bl
yre
▁Santo
▁Quảng
<1726>
▁Bars
▁Counties
tep
▁vù
▁rết
▁Purgin
ohan
▁Diana
▁Ura
ATE
wia
▁Saen
▁Nhưỡng
▁CIA
ocl
▁César
▁Accipit
uncta
urgan
▁Anand
ẦN
▁Kel
ulum
▁Sask
▁Apocyn
eph
▁Kharkov
▁Manning
▁Burton
▁Conne
▁Abramovich
ellow
▁Dab
astricht
▁Smol
▁Tuscany
consin
oidae
▁ML
▁Trichomanes
ived
▁Erzurum
▁Songkhla
embourg
▁bồn
▁e
▁Thỉnh
▁Argy
▁Indi
asima
▁gãi
▁Túc
▁Aer
▁Reilly
ps
▁Pharmaceut
aemon
▁longifolia
egg
▁kam
▁die
▁lắm
▁Maron
▁đỉnh
▁Paw
▁Gees
▁Erysimum
ữu
hire
▁mỏ
▁Ngoan
▁Miz
oda
▁USD
▁Andrzej
ota
▁nhen
▁Somogy
▁Jazeera
RK
aker
iella
▁din
▁Buffalo
ardier
▁Sabah
▁Nigel
▁Seren
▁trông
▁Chiện
▁Ninja
▁Euc
▁loài
▁sulfat
IJ
▁SVĐ
▁đấu
ori
▁Ân
▁Wilts
<1190>
▁Tsarnaev
▁Embraer
opteris
na
onica
▁Rhyac
aric
▁Wa
▁Strait
▁Dunford
▁Mitt
rama
rasong
▁Westmor
▁co
▁Mogad
▁trĩu
▁Pleist
▁CAP
▁Promachus
lam
▁Admiral
▁Dipter
▁Gleicheniaceae
ophyl
▁phùng
j
▁ngẩm
▁Moraw
etrum
▁Hydrob
▁Lag
▁BM
▁tụy
▁Wad
▁Sarthe
▁Fulton
▁plutonium
▁bịu
▁Arn
iola
▁Lượm
▁Invest
▁líp
▁Everg
▁green
ỉa
ioni
▁Naw
▁dây
▁dày
▁Chính
▁Sà
▁ethanol
▁Cube
Th
▁Davutoglu
<1138>
uroides
kek
▁đỗ
▁off
ller
▁Antey
▁short
▁dens
▁Albrecht
iol
▁Vahl
<731>
▁Tín
<253>
u
ignac
skov
opoda
fen
▁transistor
▁Parl
▁Lim
▁Phillip
<499>
▁download
▁Lah
▁Vitamin
▁Draconarius
▁luyn
eline
▁Gnoph
▁nb
furd
uus
▁APEC
▁Lới
▁ướp
▁parva
▁Popular
thu
▁XIII
schmi
alysis
▁cơn
hr
▁Kể
▁Tuyền
▁Basil
▁Ptil
▁trũng
rg
▁Đăm
ute
▁Kaczynski
▁self
▁Undert
Ỡ
▁Hibiscus
▁Hyak
▁Bair
eda
▁BHXH
▁González
▁ABS
▁west
▁Major
▁aethi
quis
▁liếm
▁nỏ
▁Far
▁ngóng
▁clark
ating
▁Hirsch
▁Krieg
▁dom
▁Rah
▁Nut
▁Dyt
ucks
▁Konstantinos
uanensis
▁Bre
▁Blephar
iph
ãy
▁Trớ
ismund
neth
▁Zub
▁Cecil
ớn
odactylidae
anensis
▁jap
▁nhõm
▁Chrysopa
▁sarin
▁Riềng
▁VCP
tsev
▁kWh
<1585>
▁Beatrix
▁of
▁Bi
gle
ble
lepte
▁Atlet
▁tẩu
▁Đoái
▁khử
▁Nhức
▁Trẻ
▁eurozone
▁Gulf
marag
▁Fischer
accio
▁Chiên
▁who
iantha
▁Nazarbayev
▁Torah
▁Quỳ
▁Pad
forman
▁Tone
lem
oi
ulenta
▁Ya
▁Sedum
cius
▁radio
▁dài
▁Leop
▁Alessandria
▁như
▁THADS
NC
MO
zano
lytus
▁Greenm
ause
▁Gale
▁Shelby
▁núng
riol
▁đít
▁trách
icator
ashin
▁Đèn
buk
▁Arturo
▁Kirk
▁Poker
▁hến
▁cortic
▁Cynthia
▁OS
▁Ner
▁Phân
▁hút
▁quá
▁Siêu
<1623>
</SEG>
▁Shane
▁Aristot
<1874>
▁Tar
▁thót
▁trúng
▁Bành
ilk
▁BEA
▁Xu
▁Lon
▁nhấm
▁Matv
chant
▁Cymothoidae
<522>
span
▁gas
▁Vocaloid
▁Ramírez
▁map
▁Rodham
ipal
▁Thịt
▁Unity
<1616>
linek
▁Rotterdam
▁Villeneuve
aram
▁Đề
<494>
▁Lox
▁Gustav
▁Vish
▁Pú
▁COV
▁Giết
▁Hab
lar
▁nút
▁Yul
▁Toyota
phon
▁RAND
▁kho
▁Jh
▁Subi
▁Hornet
maculata
▁Neustadt
▁Hyp
orp
▁Hoshi
estern
icher
mati
▁Smilax
she
▁Endate
▁ochr
alke
alb
▁Nhựa
ified
▁Cissus
▁CQĐT
▁Yps
▁MBT
▁vụ
▁Jeh
▁Innocent
▁Ganym
▁Hardy
▁HE
▁Màn
▁Qualcomm
▁os
▁Phà
▁BSA
▁bó
▁PNVN
▁Patagonia
▁Party
▁Fimbristylis
achys
▁Cyn
▁Bếp
▁Sự
▁Hohenz
▁san
mán
<717>
▁Pterobryaceae
▁Adam
▁trạc
▁Mustafa
vate
▁Rising
▁Podostemaceae
▁gigante
▁Ramin
▁kênh
▁Êm
▁Khoang
▁Clapton
ushin
▁pháo
<546>
kha
<1434>
<403>
▁Chai
▁pleur
▁Ỉ
▁cacbonat
iosa
▁Gard
▁Voice
▁Angelina
<1221>
▁chuyền
▁Lyss
▁Post
▁dioxit
▁Báu
▁Phymat
▁rủ
▁Westminster
ypha
▁Phrur
<1144>
<126>
▁Sean
▁Cr
▁lót
▁rõ
▁cán
HS
▁Vasily
vila
▁các
▁Khứ
▁el
▁Desert
▁vỗ
▁Mers
óe
lee
olulu
▁Nếnh
▁Udine
▁Luo
▁Saka
js
▁lở
▁Kashi
▁mass
▁mẫn
▁Nob
▁Palembang
emort
ogyna
▁Wy
▁Hercul
▁Source
▁cộng
▁Nakatani
▁thó
▁AMT
▁Vym
▁samurai
<813>
▁Cappadocia
▁range
▁Hubert
▁EL
je
▁Orthotrichum
▁win
ymb
▁lọc
▁Puea
▁Fortuna
▁Bravo
▁Ley
▁Orchidaceae
▁Gụ
▁điều
▁Leipzig
▁Emblyna
▁Brisb
▁Định
▁Patric
▁Gwang
▁Sia
<1040>
<982>
<934>
▁Bug
eban
▁giỗ
▁rán
▁BVHTT
▁Qal
▁Pyl
▁trib
▁Platini
▁mõm
▁val
▁Sann
▁nấm
▁dep
▁Mississippi
▁Hersilia
iegel
▁Vacc
▁Coldplay
▁Haj
▁Mae
ecut
ornsiri
<extra_id_33>
then
▁Copenhagen
▁Ripley
▁nghẹt
▁Ivanovich
▁Alpaida
pura
awat
▁PCMT
▁VNĐ
▁cộc
erts
▁Ples
▁chang
▁hiến
▁Lom
▁Ostrog
▁xiếc
▁Aryan
▁Thầy
ables
▁BS
▁phap
▁trif
▁Cotton
▁Toại
<1767>
▁Hong
▁Ramesses
CA
ulariaceae
<850>
pal
kur
ovia
▁Mitsu
▁Bio
▁Chol
▁Pete
▁Sint
▁Bag
hae
▁Zardari
▁Cặp
▁Aquil
▁Oman
▁Ô
igniew
▁mong
▁Kraków
▁Đùng
ossi
▁Giov
▁cốp
▁nạ
▁bẹ
enice
▁scandens
▁Ulyanovsk
▁Zambales
▁Reyn
▁THỊ
▁SJ
▁ii
▁tải
ER
viv
▁PE
▁Cus
▁Barents
tan
▁Wright
xin
▁Ov
▁Mạn
▁Lyndon
CNN
tex
▁UFC
mail
▁Huyn
úng
▁Op
▁Zag
▁Aman
urdack
pyeong
▁Isla
▁Encyclop
iaca
ÀN
▁Giza
▁Hedw
▁Gro
▁Muse
▁Cristó
▁BVĐK
▁Shark
▁cock
▁Dé
▁Shibuya
▁bề
▁Carm
erland
▁war
▁ngược
▁Cryphia
▁niệm
▁Khuy
▁PTNT
▁hun
▁Siam
▁Taki
▁petiol
▁Gryf
▁kai
<extra_id_42>
<1530>
▁DPP
▁Tor
die
▁lab
▁Amami
<1747>
▁nhượng
▁pros
▁Hat
▁TƯ
▁Hide
▁chol
▁org
▁Fon
thur
▁Beograd
▁nãy
òe
▁Kaesong
▁khi
▁nga
<113>
▁Những
▁Ichneumonidae
▁Giọt
▁Constance
▁Nt
▁Đồi
▁Xông
▁Nghênh
]
<1179>
▁Siết
<1387>
▁Emp
▁Ges
▁chiu
etric
endi
▁Ẵ
▁Press
▁Lebanon
fo
▁Jab
▁Bernad
▁Gene
▁Machado
▁Theridiidae
<1330>
▁Cobra
▁pusilla
▁LED
▁Nadu
▁ngải
▁Têhêran
<992>
odor
ởng
▁Esper
▁Kaun
▁rẩy
▁Ướp
▁At
▁Bethlehem
tii
▁Sicilia
▁CQ
▁đảo
▁Muscicap
ainen
▁dính
▁Ptinus
<909>
▁thánh
▁Uông
▁Vanity
ming
jeong
▁Dưỡng
IB
▁Gestapo
▁trăn
▁Bầu
▁Khổ
▁Romaja
▁WWE
▁Poly
<322>
▁Terra
▁Simon
▁Henri
▁Elisabeth
rolepis
ivaceae
▁Dũng
ades
▁Abraham
▁Orne
jalein
▁Pear
▁TIẾT
▁Abidjan
▁Vicia
▁Marina
▁Qin
▁chính
▁giặc
real
▁Prado
▁gigantea
▁Tanganyika
▁Pron
▁viol
▁bặm
hiv
litz
abus
<859>
▁Buông
▁Ằ
▁Da
<1357>
can
▁Đứt
▁Lamborgh
▁data
▁Sega
<807>
▁Valte
un
▁Gru
▁Virtual
▁memb
cata
<963>
ửng
▁nghiệm
ability
▁Cày
▁Archit
▁Omega
▁Hoffmann
▁Heineken
▁Sufi
er
nta
▁Kak
▁khuất
▁Eis
endan
▁contenteditable
CCI
bey
▁Sutherland
▁Zlín
▁Taras
▁Kye
icans
<1235>
▁Bull
▁Asturias
▁Matteo
▁Mol
▁căm
vard
▁Tarant
▁Voy
▁vắn
▁pom
▁Ariel
atula
▁Mans
▁Dí
<341>
▁Polo
▁Magn
▁Boeckeler
▁dãi
▁Aphon
▁quơ
▁chart
▁Less
▁track
▁Krishna
▁chí
endra
▁fraz
▁hịch
▁rưới
▁Venus
▁tel
▁soán
▁]
▁Pero
▁Tver
▁Trieste
achus
food
awal
ốt
▁đời
▁Tmes
tus
▁sủ
▁Anh
▁Afghan
▁Janeiro
▁Bale
elis
▁Turk
▁ens
ffeine
▁Óng
<1788>
▁Gentianella
▁Torr
▁ốt
uland
▁bồng
▁Crocid
▁ya
▁USAF
▁Maiden
▁Gn
▁Koichi
▁Swan
allah
▁tuấn
▁Păh
▁Deir
emberg
▁Sonic
<174>
▁Rac
▁Cryp
UV
▁Lights
▁Lock
▁Ny
▁mẹo
▁Yazaki
▁Chamb
▁đợt
▁Lính
itzer
▁Polypodiaceae
▁General
▁Iz
▁nhạy
ext
▁Leh
ecký
▁Mant
▁doping
▁Interview
▁lây
war
olu
▁LTS
▁Exocentrus
▁Jaff
▁lậu
▁Shok
▁Soo
▁Am
▁Kẹo
ocereus
▁Berth
▁scop
▁LTE
▁Tsut
▁Yalta
atio
▁Annona
.
<752>
ùi
▁Hassan
▁Adrian
<extra_id_63>
▁Lei
▁nhè
▁Lêô
▁Blue
raz
▁Soy
▁săm
<1226>
▁Dana
▁Phùng
omu
▁ưu
▁Nissan
kel
▁rượu
▁Sập
▁RAF
usan
▁Group
▁Đốn
▁Molise
▁thiếp
▁xế
▁obscura
<extra_id_0>
<1319>
<1848>
<273>
▁nghỉm
<868>
<201>
▁Mag
▁Primorsky
▁Tigran
ult
▁Angeles
du
▁tảo
▁Phục
cho
▁Mura
▁Cec
kir
GN
▁gắng
▁Nẵng
▁cookie
▁đẩu
awahiri
▁Prenn
▁Cardin
▁Preah
▁Borisov
▁Lophocoleaceae
▁Jiménez
tria
▁chữa
▁phosphat
estream
▁Klimov
aticus
▁dốt
▁Parkinson
▁Plect
▁xỉ
Sc
ardieu
▁Porter
ocentrus
▁McMahon
▁Jamm
gei
▁Farn
▁Hoh
▁Lana
jutsu
▁pand
▁chọc
<49>
▁say
▁name
▁Catalan
▁Springfield
▁Dễ
<41>
▁Corona
▁Point
▁Canal
▁Kathy
▁kí
TH
DV
▁Culture
▁phổ
▁Salman
▁TTTM
▁Buyan
▁background
▁Bay
▁Kachin
▁Lindsaea
arna
<463>
<1012>
ặng
▁toát
▁Ping
▁Onthophagus
▁Skor
▁Thới
▁Divisione
<388>
<602>
SP
ễm
▁Neill
▁lau
▁Mandela
▁Monti
<182>
▁Mú
<755>
▁my
dem
▁Sưởng
▁Hồng
▁bé
▁Pharma
ướn
▁Korea
▁Kolkata
▁Vót
▁AIR
<268>
▁Eccellenza
▁Phỉ
▁Vik
MEB
▁dihyd
▁nham
rous
▁Yorker
ubl
epe
▁Atlantiques
idius
oana
▁Auvergne
▁cọp
▁Gonzá
etl
▁Anthocerotaceae
▁Huệ
HCR
▁DN
<1087>
▁Nhuần
▁lựa
res
▁Nó
▁Tol
▁Shehbaz
ẹt
▁nhí
▁Cagayan
▁Sobyanin
▁òa
▁Epis
▁Jeong
▁CPC
tris
▁Train
▁Tashkent
▁ETA
▁Adiantaceae
anica
igg
zilla
furt
▁Husky
zhou
<1110>
▁Thiến
<1720>
▁Ansar
▁Lừa
▁ngất
▁Ment
▁Natanz
<122>
▁Days
▁Oxyt
urium
iche
<1820>
▁Gou
▁Marlborough
▁nhạc
pas
iyan
▁đùi
▁Carre
▁Justicia
▁Ronaldo
▁Sewol
kol
▁kép
▁RW
▁KAI
egna
▁GLONASS
▁Capcom
kaya
▁Syng
▁Andrews
▁Asan
▁lượng
▁yếu
onnais
▁Mov
▁Server
omm
▁lính
▁Philip
Card
▁Occ
▁Stor
▁Đĩa
▁Nieu
▁Nhan
▁orientalis
▁Tezuka
inone
▁Marks
▁Ảrập
essy
▁Bourgogne
▁Bangalore
▁Disneyland
▁CSA
▁Guadal
bilis
▁Vinashinlines
▁nhện
erv
▁CACC
▁Holden
▁giãn
▁Jamal
▁Jacoby
▁Jú
▁Desktop
▁Osaka
ve
▁biên
▁Colum
▁Đờ
<1536>
ệt
kowski
▁Ford
▁Baroque
▁suc
calyc
<831>
▁lãng
▁Ghaz
▁Tàng
occo
▁Kimber
abat
onc
▁SPD
uct
▁Người
▁xước
▁Lệ
BM
▁Geiss
▁Jade
▁Skype
▁Miliband
rodon
▁DPA
isle
roch
sol
▁Hindustan
name
▁hồ
atensis
ravel
▁Capone
▁ứ
▁Ulob
▁San
▁Okinawa
▁Pershing
jeon
▁Cornelius
▁Mendel
idaria
▁Chlorophorus
<377>
▁Nén
▁mũ
▁số
▁càn
▁Prist
▁Pentaphyl
▁Incirlik
▁Sphecodes
▁Okayama
▁magnifica
▁lê
▁Sauer
<1198>
ecus
▁Kì
graph
tes
astopol
▁sev
▁Astoria
▁Bang
ycinetia
esz
▁Vách
<233>
▁XU
▁boat
▁nhọn
▁Like
▁Alina
▁thấm
▁Lonely
▁Fan
<685>
▁Nương
<695>
owiec
▁new
▁Duk
▁Chus
<429>
▁Toledo
▁ARN
va
▁UND
▁website
▁sang
sul
▁Ryab
▁Nach
▁Perg
▁Vanguard
▁Batrach
sor
▁Mossack
ras
efore
▁Di
▁Straits
▁Cyclosa
▁Oce
oor
▁VPĐK
▁đặc
▁similis
▁dổi
▁Eil
▁Forst
▁Papa
▁Bf
▁Ezekiel
<412>
▁Arras
▁DiCaprio
utes
ynia
flix
▁nườm
▁Eurovision
mug
▁Ini
<260>
▁Tup
▁arm
▁Parac
▁Bryansk
▁Mauritania
eza
▁Strauss
▁lí
▁Sunny
agere
▁hệt
▁TIẾN
▁Vicente
▁hăm
<426>
▁Ngự
osternus
▁Keng
ẹo
▁Ghani
▁Cabin
obyl
ạc
▁Salmonella
▁Phách
▁Hodges
▁Alexey
▁Rhaph
▁Bolivia
<1444>
▁Tree
▁Bast
oli
▁Khất
▁Kit
▁First
▁methamphetamine
▁Xá
▁Pip
▁Bir
ems
▁Found
▁hớ
azzi
▁Albac
▁Wonsan
▁And
▁VHS
▁Consad
▁bis
▁Hannover
aven
▁feet
▁Dec
▁Sudan
▁glob
▁PJ
▁nghiễm
▁Lepid
▁Leary
irol
▁Tit
▁UCL
▁Furnariidae
▁Herz
alidae
ọn
▁ôxy
▁Polit
▁Suff
▁number
osan
▁niệu
▁Gioan
▁Jakob
▁Moore
▁Haaretz
▁Fab
▁bon
idai
usc
▁Orin
antsev
▁Gad
▁Diệu
▁nhảu
▁sunfua
<893>
▁Pig
ild
life
▁Hes
▁Inn
▁teaser
▁Program
▁rệu
▁Lâu
▁mài
rm
▁Late
▁Lôi
▁Flow
xc
▁Nod
row
aner
neft
▁Rangers
▁Stadio
atai
▁Path
namp
BĐ
▁Eduardo
▁Hass
▁Chong
gs
ăh
▁Story
▁Thaksin
▁Cl
▁Tươi
etr
▁Yoshih
▁càphê
▁bei
▁Sch
uyoshi
elland
rong
▁jean
ware
▁may
NV
ków
▁Heath
▁over
hawk
▁Lear
<1602>
▁Suvorov
▁Hamid
str
▁Pao
xter
▁Rosa
▁Gryfice
agonzavod
rit
ives
schi
▁Space
▁Sist
▁nền
erjee
eye
▁Petrob
▁Yakhont
▁Schwein
▁Franz
▁Britton
▁Franche
▁Pottiaceae
akhshan
▁Gallia
▁Điêu
<1429>
▁Bez
▁tương
▁Pseudop
▁Kac
itha
▁Casas
▁Sloan
▁GIỚI
▁bời
ilax
▁serie
▁abyssin
<1527>
▁PI
ít
▁Nhằm
▁Dickson
<454>
▁Intern
▁gièm
▁Them
ervis
▁Sanfrecce
▁McKinley
▁giấy
▁Artemisia
▁Alopecosa
▁Dionys
▁Volume
▁thiệt
ual
▁Nassau
▁Victor
▁Uất
▁ferrug
▁thầm
▁Florence
▁Zemplén
▁KTV
yd
▁Stelis
▁lựu
▁humilis
<1630>
▁Tỳ
ydrus
icus
▁Dayton
imedia
van
▁diesel
▁z
▁Rodr
▁Rovers
▁Wellington
ippe
▁YẾN
▁Đồng
▁nết
▁Nint
▁Cascade
<1422>
▁Giàng
kyl
opec
<1162>
▁Thịnh
▁Dane
▁Bord
▁Thiếp
▁Xứ
▁mệt
▁Gear
ganj
▁Campob
▁Brus
▁mời
▁iTunes
▁Maersk
▁thếp
ara
<1660>
▁Nhiễm
▁Tống
▁nắn
▁Khuynh
▁marginata
▁JCS
▁eug
▁Montgomery
nect
▁ống
eller
<1735>
▁tấn
▁Mach
nexpress
ár
ella
▁Lond
▁eth
court
▁IRS
ecio
<293>
oneura
aeus
▁liêng
▁TE
▁Scincidae
▁rể
▁mếu
▁Heaven
▁ĐKKD
▁giục
▁Barack
▁Feder
▁Alf
▁minor
ical
▁Glory
ellatum
▁Tiều
ken
▁Landes
vel
▁Mendes
▁Labs
▁Australasia
▁Jacksonville
▁Original
▁Juliana
tz
tori
▁Sedan
▁IBT
sky
▁pol
<385>
um
▁Lend
▁gậy
▁Đác
▁pixel
▁NGA
Ơ
ragade
irex
▁spect
iant
▁Gow
<1607>
ocamp
caster
▁Army
inoides
▁Quí
▁sắp
▁Băng
▁Typhoon
▁JMSDF
▁ôtô
▁ngầm
ax
fell
▁Tungus
▁Xer
▁Artvin
▁very
▁dựng
▁Mond
▁cơi
neb
▁Thebes
▁Phế
▁thoi
▁Diệt
card
ola
attus
▁Whitt
▁Pos
▁gáy
EN
odactylus
▁VG
▁RT
<1256>
▁Modena
▁Butter
agin
▁Buri
▁Doom
obil
▁Bath
▁Line
▁Siding
ếu
▁Chase
tres
▁Kimi
▁Thessaloniki
▁Stal
▁Linkin
▁Garib
ulinum
▁chém
edusa
hrer
▁Sophie
▁Monkey
onga
▁scler
▁Xing
▁xong
<442>
▁Souza
▁action
▁Baz
▁Kuma
▁Mississ
▁Moq
▁quân
▁Chạy
▁ser
▁Cole
▁Theodore
▁Bondarev
▁Mul
▁Indust
▁Que
ington
ln
omonas
▁Magnet
<1698>
▁Peak
▁Dừa
chez
▁Fors
adaceae
▁Memory
ẠNH
▁GB
▁Tou
▁Mohamad
▁Sent
ariae
<1772>
othrix
▁Nhãn
<1543>
<1001>
▁ngụy
▁william
▁polyp
oglossa
▁Kharkiv
▁Merton
aks
ower
iri
manuel
▁Gửi
▁mảy
enke
▁Quanh
▁pec
▁Tứ
▁Lump
▁tuyệt
▁sới
▁Sắt
▁GRU
ipa
▁Gm
▁UNIC
▁Derb
usand
▁KwaZulu
acán
▁RSA
redit
▁link
▁Trade
▁Prague
▁CSTT
▁ĐTC
▁Armad
izi
▁Hindi
buri
▁Holy
▁rich
▁Shing
▁Christophe
▁Tort
▁Samaras
▁truồng
▁mỗi
▁Murray
▁JDAM
▁Bory
▁Caen
<607>
iysk
▁Cầy
▁Eastern
▁Princeton
▁Báo
▁orb
▁Amenh
unin
▁Tố
▁Chim
omena
<1062>
▁ghế
icul
endor
▁nầy
▁Uhmann
▁miligam
atsu
apul
▁Delève
▁Nộn
▁Hitachi
▁Plag
▁striata
▁Sihanoukville
ester
▁Scop
▁Demir
<878>
<1088>
▁Borod
itsky
▁Ivan
▁voi
▁confusa
▁Walther
▁Hisham
oe
▁Stennis
▁hớt
▁Đẫy
kawi
▁mòn
▁Bánh
▁Khinh
▁CBN
alaya
etii
▁đàng
▁hẫng
▁vulgaris
▁garage
▁Rond
▁Pleistocen
<518>
<1896>
▁Philippos
<810>
▁segmentid
▁Chef
eces
▁Surabaya
▁Corv
▁tet
▁Ernesto
▁nuối
▁Moul
▁XVIII
▁Craig
dick
▁bắn
oniaceae
▁Vanh
<1493>
suwan
olet
<95>
▁CSGT
▁ko
▁Psil
▁Hawking
▁Fedtsch
ringen
▁Electronics
<1127>
▁Francia
▁Pomorskie
▁Ré
▁Tito
▁Bourn
▁Gel
▁Seine
estr
▁gò
▁muối
▁Tottenham
▁Río
ezi
▁Synth
▁Ernst
▁helium
<1231>
othamnus
▁Osborne
▁Manag
▁mào
zco
▁Papua
▁Coun
▁khích
▁XP
▁Đuợc
▁kiếng
▁Schumann
▁USGS
▁Caltech
▁Breda
ilum
▁Cresson
ezzo
▁Wein
▁Provence
▁littor
▁Please
stadt
▁Fabricius
▁Tosc
ushima
ĂNG
Ả
▁Bau
▁vỏn
wick
ảnh
▁VINA
▁Bangs
▁Ily
▁Liège
▁Lab
elmis
▁Mekong
▁cren
▁Tế
▁virut
▁prev
▁Diyarbak
amea
▁Kanon
▁Suga
▁Yekaterina
<1547>
eger
▁Hwanghae
▁bụng
▁phôi
▁cx
lemma
▁Deport
▁tác
ộ
garh
▁khiển
▁Paraí
amba
▁Nicolás
rice
▁Hindu
▁MIN
▁Lombok
▁Bulg
▁Houthi
icill
▁Tùy
▁Nhỹ
▁mùi
vy
▁Dransf
▁infl
▁Mu
▁nhỏ
▁Xung
▁Savannah
LB
▁Tyrannidae
▁kiêu
▁Seattle
▁Toulon
idy
lanc
▁Murak
▁Nikki
▁Granada
▁Observer
▁xệch
▁thiều
<1869>
▁chan
▁Ngủ
▁Amadou
<785>
▁Guinness
▁Khê
nev
▁Sherman
▁British
▁Orlando
▁huyên
ủy
<extra_id_2>
▁Gord
▁hàm
▁CE
uge
pe
▁mandal
▁Tora
assin
▁Crescent
ươc
▁este
▁rele
▁Howe
▁lạc
▁sel
▁Đế
▁séc
▁chớp
▁bày
▁been
cock
▁Tale
ammar
ÂN
▁Thì
▁Đạ
<1461>
pt
▁Chavez
omat
wald
▁Azur
▁DFB
▁Karlsruhe
▁TCTD
▁pơ
▁Vespas
▁thô
arov
▁Stark
▁Ranh
▁whose
▁Punk
▁Để
▁Nắm
▁Democ
▁Fons
▁rè
▁Ôtô
▁Seok
▁Đồn
ahawk
eolata
▁Neu
▁Sri
icer
▁Diyala
entris
▁Quạ
▁Blanco
▁Marit
▁Vỏ
ucia
lit
<1375>
oods
▁Broadcasting
▁ghẻ
ESS
podong
omos
▁Super
uanus
▁Turin
▁Hình
Ì
▁Kl
▁Blair
fuss
▁Ches
ibarb
ebook
▁Sukar
▁Câu
ĩu
<1432>
▁back
▁Baikal
▁Mà
▁kang
▁Lũ
▁rẫy
roy
opol
▁Ultra
▁Fontaine
uste
ces
ayuki
▁Đợi
iginosa
▁Maz
▁Como
lovsk
▁Works
▁Adha
▁Bac
▁Bọ
▁UNCLOS
▁Aguilera
▁Wulff
▁squ
▁Bernardino
▁Forrest
▁Chem
▁Cúc
▁Svetlana
▁Cappad
▁QNg
▁nghi
▁Guantan
bao
ISM
▁Iljin
▁vietnam
▁Góc
▁Stiph
uttatus
▁Khèn
▁mứt
▁QUANG
▁Bren
▁chiếc
dard
▁UA
▁qua
▁cắp
▁Ja
▁Mantispidae
<108>
▁Strabo
▁Luyện
oru
▁Lincoln
▁Impatiens
▁Barbula
▁Vinam
▁Ozu
▁Hằng
▁Malcol
eros
▁Turkish
▁keyboard
▁Yasuk
▁Phoenic
▁Úa
▁display
<94>
▁yểu
▁Nabil
▁Hydri
<997>
ój
epard
▁múi
▁Colob
▁Pseph
▁Smith
▁đơn
▁Church
▁Zac
▁Xysticus
oncé
HQS
ental
<1853>
▁duệ
llo
▁McLaren
▁Carl
rak
▁pyr
▁Theodoric
▁Hung
▁Rommel
▁Goebbels
▁Sunni
<1238>
DA
▁NTNN
▁Anc
▁Nhũ
▁thừa
amer
egawa
sworth
▁Alves
▁Quercus
▁Todd
▁BNN
<1224>
uno
▁Lexington
urum
arsis
▁Rodrigu
▁mêtan
▁Utrecht
abas
▁Bụt
▁ngồi
nae
▁Yank
▁Wing
warts
▁Phanxicô
▁DongA
▁Lindenb
▁Dover
▁ft
▁Rene
▁Rammasun
▁nóng
▁Medvedev
▁Quint
fork
epus
▁Gerstae
onidae
▁Lois
▁Joachim
▁European
▁Ulyukayev
▁LV
▁Cut
<1450>
▁Asti
<366>
ore
oniella
▁Munic
adio
▁Earth
▁Loz
<1540>
▁Mac
▁Gla
▁nỗi
<313>
▁Pushilin
▁Morozov
ues
▁Mortal
▁Transnistria
▁compl
▁Lat
ARS
▁Latrid
ule
íu
▁Mish
ches
ar
▁Bao
▁Hol
▁Nicolas
▁Uran
▁Lythraceae
▁Faso
<1724>
fred
▁Serdy
▁Alexander
▁Lesne
pin
wani
▁Khe
▁vittata
▁ơi
▁Burtt
ện
▁Hepburn
ukur
▁Barr
▁DX
ng
▁ỉ
▁Ennah
▁Bantu
▁Trochosa
▁Hasakah
▁logo
▁June
onyx
▁giám
▁Holub
▁ninh
▁Điểm
▁ngắm
▁lộn
▁lept
▁bát
▁Nùng
▁Choszcz
▁Lass
▁Múa
▁MTM
allia
▁Pon
▁baht
▁Vyazma
▁Betty
<1742>
▁Spreng
▁Chrysomel
iết
▁Dẫu
▁VK
▁nằm
▁TRẦN
▁cholesterol
▁Somers
▁Dioscorea
▁Mona
éric
▁Stroh
▁Elisa
▁is
▁Brandt
▁vai
▁er
islaw
sterreich
▁Gareth
evka
rich
wad
▁Border
▁xuyến
<1897>
▁mầm
▁Khỏe
▁Gaon
jet
▁Magdalena
▁Algeria
ômét
tra
oclad
▁Compao
▁bài
mena
<873>
uối
opogon
pidae
ale
▁Keo
▁Huồi
▁Temple
▁Aquifoliaceae
▁dei
▁Sâm
ocy
ophonotus
lynn
het
▁Jam
▁bô
▁Zem
▁Mullen
▁Stef
post
Namara
geri
▁Klitschko
▁Dnepr
iptera
uloides
Me
▁Johannes
▁Liber
<115>
▁Rutherford
<1557>
ogn
▁Zeph
▁quặn
chester
▁Gagarin
▁huyền
Y
itsa
▁Nec
▁triện
▁Maroc
▁Rolfe
lice
▁Bora
▁Triền
▁tên
itung
▁Cự
▁gland
▁Chic
▁cạm
▁bện
etho
▁thú
▁tuộc
▁đuốc
rine
allo
cano
▁Thính
KCTT
▁Ub
▁vón
▁Goth
<1730>
▁LB
▁Maas
▁YPG
▁Kirib
oshi
▁Hashemi
▁Francisco
▁dở
owski
phin
▁Bert
owitz
▁xịn
▁Gujar
▁buổi
▁P
<398>
▁mạt
▁Đứa
▁Ank
▁lũ
opa
▁nêm
▁khảo
▁Gusta
▁tý
▁Nuôl
▁dark
▁Pyong
phia
SM
rium
▁scab
atz
▁Groeneveld
▁Faraday
▁Taty
▁Poecil
▁Toyama
▁Xóa
▁Olsztyn
▁Khoảng
▁kha
▁tằm
▁lễ
▁ở
▁Hawaii
▁Tồn
<1321>
▁Aloe
▁up
▁Nửa
▁â
▁com
igam
▁vờn
▁Vos
▁Mining
▁VIETNAM
▁BẢO
▁Trữ
▁cuống
▁Bẫy
▁Motor
acer
▁plat
▁Hài
▁RH
▁l
▁Abraxas
ội
utt
▁VHTT
▁photphat
▁ell
▁acuminata
DS
iyah
▁IEA
▁Rall
▁cur
▁Thất
▁Real
▁Rot
▁Namhong
▁Ashraf
▁CHQS
▁Cosm
▁Adon
▁cuộc
▁Cos
▁Sacombank
▁cược
cker
▁Sons
▁Ngọa
ung
▁Har
▁Billy
arh
▁Deux
▁rộn
▁Rzhev
ropetrovsk
ilan
▁khuyên
iềng
▁Irwin
▁Contin
▁Shiv
▁Demonax
▁Grampus
▁Justinian
▁Gregg
<1690>
▁Hep
▁nhôm
▁lì
▁Platon
girl
erae
▁Kẹt
ipiens
▁fil
▁Prim
▁imbric
▁Croizat
ƯỜ
ashio
ERT
▁Hara
▁Lynx
▁quặc
▁Cả
<1487>
▁ly
▁Rel
evic
<995>
▁tung
▁thẻ
▁Take
▁Planch
zad
▁Rằm
▁Jad
▁Wieh
▁Troglohyphantes
baatar
▁VnExpress
▁positron
▁nitrat
ặt
▁xra
<90>
<1241>
▁tuý
des
▁IU
<1159>
▁pedunc
▁Chocol
xcơva
▁Rest
ashvili
▁Ồ
▁Deniz
eoch
▁Aé
vana
▁Crat
ensis
▁Wann
▁crick
▁búi
▁Poch
<42>
▁Tarragona
<1839>
▁nghĩnh
▁ngày
▁Thám
ye
▁Kèm
▁hiếp
▁crin
▁Mimudea
▁Cyrus
leben
▁Sphagnaceae
▁Frost
urt
▁Hoffm
▁Phức
▁piston
ũm
▁Rit
ars
rh
▁Kedah
▁Something
▁Thừa
▁phỉnh
mod
▁Chamarajanagar
▁mù
ĐB
▁OSC
▁Levada
eliu
▁Byst
▁rởm
▁granit
▁Nago
▁Brahms
▁Linnaeus
▁Deep
rah
▁thăn
▁vect
ahl
▁xỉn
▁div
▁mợ
▁Gynopl
▁PCCCR
▁Madagascar
<60>
▁Krasn
emus
▁Cò
▁Drôme
amar
▁Ohio
▁Android
▁Nev
▁Afganistan
▁đền
▁Movies
▁Bệnh
▁Megach
▁Ery
▁EPC
atch
▁Warsaw
▁Chiba
▁Sá
▁Pelle
▁marathon
▁Judo
▁Dulles
▁cyst
<524>
▁Grigor
▁spec
▁Lãm
▁Ché
eltis
works
▁DE
▁tình
rez
edra
▁Rolld
▁Fairmaire
▁Pha
▁Stanton
ratum
▁Carolyn
▁JAS
▁SM
▁Mahmud
▁Ớt
▁Station
▁Khống
▁Yug
varo
▁Coqu
▁Makh
▁Garb
zep
byon
<extra_id_58>
<368>
▁Đặc
quin
▁Gos
▁chat
▁chết
▁Homer
▁Trừ
▁bữa
▁Gallery
▁Steg
aldi
▁Colon
▁Navi
▁tắc
▁Rakh
▁rồ
▁VR
ésie
▁Magd
<1448>
ATO
▁THE
▁Bùi
▁Cuộc
▁nâng
<208>
ococcus
▁Frit
▁Step
▁TNXP
▁Gregory
yreus
▁Chikkab
omoto
▁Koszalin
ioides
▁Hieron
▁Kalibr
ple
▁RFC
▁Kov
▁Pharaon
elope
▁lụp
▁Úp
pp
alines
▁Eilat
▁Mông
▁BVTV
▁Thaek
ugin
▁Ass
▁hán
istan
▁Căn
nhap
▁kị
▁Mugh
▁núp
eles
▁cơm
▁Canh
▁SĐT
iophora
▁ngân
▁his
▁Rolex
okai
▁lúa
▁Bod
▁khoái
▁nit
▁Hầu
mans
▁Coi
▁ngột
▁Prain
▁Stall
▁Sleumer
rir
▁Cucur
▁THẢO
new
<257>
▁Shepherd
▁TCT
▁Cert
CS
▁ip
▁Shum
▁Carib
▁u
eong
▁Gore
▁Gal
▁Coleoph
ằm
ckena
<411>
▁Hr
quest
▁tivi
▁Macqu
▁Marus
▁JSC
▁Haruka
utu
inax
<1095>
▁Foss
▁lán
orycter
▁điếu
▁OAS
▁Ponte
▁Urals
▁Hirtz
▁Synodontis
<555>
▁Communications
▁Regin
▁Tern
▁sạo
▁BCT
▁AF
▁Tyler
ipo
▁bấn
▁Giles
▁Lublin
▁set
qi
▁TR
▁Allen
▁NĐ
▁Geoffrey
▁Challenger
▁Grammitis
▁Surrey
▁Mei
▁Xiaomi
▁Blo
▁Hossein
▁Flat
▁KTNN
▁ghita
▁Treas
▁cristata
<1850>
<1345>
asser
▁thưởng
▁Rouss
▁Advance
▁Tut
▁Odysseus
:
▁Dion
▁Mõm
▁soft
▁Guitar
▁Badakhshan
▁MH
▁turbin
<278>
▁coban
▁mít
▁dan
itra
<1640>
chis
phium
ele
▁chuyển
▁Gyeongju
ophyll
▁DI
iidae
▁Salamiyah
▁gác
▁nhòa
▁Tàm
▁Cib
sephus
▁et
▁Domino
<896>
▁XF
▁Nga
▁mollis
ushi
▁hacker
▁canadensis
▁xuân
dorff
▁colomb
ennes
▁triệt
indo
▁Pittsburgh
▁RADI
▁RCA
▁Hitch
<443>
▁rác
eps
▁Anas
onii
▁Pơ
oxa
▁dê
▁atra
quia
<467>
<1223>
▁chầu
▁Tụng
▁khảm
▁Reggio
ende
▁kiếm
odol
▁Nabi
▁mớ
odes
anthera
▁Gulbarga
▁GmbH
▁Mylabris
▁Stephani
▁kiến
▁Mal
ford
▁Naim
▁Boko
<1366>
▁Iphone
<841>
▁AQIM
ei
▁Aux
upa
<660>
<30>
<1674>
▁Pl
▁nhẵn
ovico
asaki
▁Quới
▁Littor
▁mường
▁Merrill
▁ngông
igon
<512>
▁Maps
▁Tim
▁Oldroyd
▁McDonald
▁Reyk
▁Totti
<1014>
▁Balikatan
▁Mít
chwitz
▁Silla
▁Brahimi
▁grise
▁Assad
▁Klug
wati
▁HĐBA
met
▁photon
NT
▁Philippine
▁Nỗ
▁lòng
▁Eckl
▁Duncan
▁Albu
▁chàng
▁Labill
▁chiến
ệnh
▁Clare
▁Võng
▁Razak
▁Alive
▁Qeada
▁củi
▁Jill
▁Amphoe
▁chuy
▁Armata
▁Êban
▁Mìn
▁Viết
cke
bridge
susan
▁Yasser
▁PHÚC
▁trop
▁thiêng
▁duy
orbia
ĂN
▁Kéo
▁Mancha
▁Dartmouth
▁Ẽ
▁Drepan
▁ib
<749>
▁Vật
▁Wai
▁Mike
<1475>
▁Pry
▁hở
▁Gri
times
▁lặn
▁Ay
▁MW
ezer
<150>
▁Facebooker
▁Inquirer
pot
▁Pesh
ophis
amoun
▁HEVC
▁Dee
▁Tien
ski
▁dôi
jara
▁cordata
▁Caball
▁Aachen
▁Giàu
▁fact
úa
▁Nikkei
▁sư
▁Cody
▁Arihant
ashiri
woo
▁gan
▁Sary
▁UDIC
mat
▁Sirac
▁Surviv
aglia
ial
andros
▁Oli
ianeira
▁Edmon
▁Karat
▁Angraecum
our
isol
yte
▁dễ
▁Quá
▁Chào
▁Napol
▁Island
▁Sái
▁Phiếu
▁Dest
▁Attila
inga
▁Melanotus
anao
▁Parisien
▁book
▁Biss
▁sop
aulis
▁Association
ji
▁Bata
ault
▁Egypt
ẻ
▁dỏm
osteg
CL
▁Patterson
▁Khản
▁Epicau
hips
▁Ao
▁Jenner
▁Zarqawi
ec
▁Mát
▁Xi
▁Pope
libórz
▁Mile
/
ona
▁he
▁Mission
▁Paraguay
▁đòn
▁FOR
▁Saxon
▁Douma
▁ATS
▁FED
▁serrat
adar
▁Gov
▁gov
<1250>
ilep
▁Thamnophilidae
▁Lừ
date
▁Shu
▁Koran
<528>
▁Chém
▁Megapod
<247>
▁nhằm
yche
▁Sofia
▁phốt
ska
▁móc
▁Arc
▁Kháng
▁country
▁Analy
▁Rafael
vinas
▁Altipl
▁Soc
▁Bromwich
▁Airy
▁XH
▁Giỏi
union
▁Ichneumon
▁ATM
ndai
ipes
▁India
▁Lithocarpus
▁Lejeuneaceae
▁nhọt
▁By
▁Chin
▁Berezovsky
▁thiến
▁bott
<1792>
▁perrieri
▁Beverly
▁banh
▁Gala
agbo
▁silica
▁Bá
onuc
▁Nick
▁Inoue
La
▁Hina
+
<39>
▁Phiên
▁Itsunori
▁Vanu
▁Toà
▁Anypha
rav
▁Alexa
▁Havel
▁muric
▁Payne
ikatsuura
▁gói
oscel
▁Chintamani
▁kính
iana
▁Stephan
▁Billboard
▁Vamp
▁Oasinhtơn
▁vi
iatus
▁xì
▁Tôm
▁Mamm
▁lấp
▁Creta
atrach
▁tào
▁Elec
▁Copp
<954>
<815>
anagere
▁bạo
▁Quez
arang
▁Rose
▁Hộc
▁Levine
▁Gérard
▁Holland
▁turbine
▁Stage
▁Linyphia
unaga
eopsis
▁ì
▁Antigua
▁Phiêng
▁Clad
▁Eurocopter
▁Metaz
▁Ngực
eys
beck
▁Aleksander
ài
▁xào
▁Neol
▁Đỗ
▁lóng
▁Piece
▁Được
▁hub
▁đồn
▁nhãn
rst
▁Takeshi
▁Kp
etidae
▁kẻo
yptila
oceros
▁Guillaumin
▁Theaceae
▁Everything
▁ev
▁Ỗ
▁lung
▁lại
▁Ship
khăm
▁ed
<1185>
▁Tord
etok
ensch
LC
▁nhặt
▁Budde
▁japonicus
▁vứt
▁nheo
▁Becker
elt
▁Vitex
▁BQLDA
uly
▁sức
▁lệnh
kiewicz
▁Micropter
▁Prodidomidae
overy
▁feed
hi
▁rúm
▁Polystichum
▁Naf
▁Hư
<1104>
êran
<1191>
ecik
▁Cot
▁CMT
▁Plông
▁CPI
▁Methadone
▁Karelia
uton
avyanka
▁Ích
▁Ced
▁Wolverhampton
▁Poinc
▁halogen
▁sỉ
atum
▁Guido
etyevo
▁Waco
iff
<795>
▁Afridi
▁Canadian
▁Hô
eleine
ustan
ytus
▁Sejm
▁Sof
▁KO
▁hoi
▁Suharto
idens
▁hotgirl
▁Russo
▁Ngũ
asp
▁Wigan
▁Belmok
▁Samm
▁Hogwarts
gil
▁chỉ
▁Cú
so
▁Oxy
▁Cro
▁Charlie
▁oằn
vit
<1295>
▁cỗ
▁Alaa
▁Nes
▁mối
▁phết
ingan
azaki
▁Phàng
aby
▁McN
▁franc
▁Reu
▁Kiel
▁app
▁Cés
▁hợt
▁Badie
▁Smil
▁LCD
▁Britney
▁trig
sb
▁Perizoma
riss
▁Molophilus
<630>
▁miện
▁Hyo
▁Gunma
ling
▁xương
ôk
▁Ostr
ocer
▁Ponom
▁Dera
▁Frankfurt
▁Pluto
▁jamaic
▁Caribbe
ople
<1511>
▁Sullivan
ensk
▁Gould
ogonum
▁Hui
▁Sharm
▁Józef
▁Sử
▁Jindo
▁phenyl
▁Oklahoma
▁Darm
▁GABA
▁Toyotomi
▁Buổi
<1392>
etat
ophyta
▁Graph
▁trượt
▁Genova
▁Inđônê
ốn
▁Bỗng
▁rệt
▁Tần
▁Van
ỏm
▁Ruth
▁Sanders
▁cross
▁Nagoya
manii
uny
▁Hawkeye
▁Danang
▁kommun
▁Eurost
▁GiadinhNet
▁thi
urat
yle
▁cưu
<1065>
▁Pacific
▁Ú
orth
▁mend
agram
▁hống
undin
▁Gái
▁Idiopidae
▁cad
helm
▁Bonpl
▁Boot
▁bèn
<54>
▁Louisiana
▁Fleet
▁cr
▁Berkeley
▁Ith
▁Frontex
▁box
▁cham
▁Thuần
▁Miu
▁Hanja
▁Escape
▁Rotten
THA
▁Polyn
▁Rặng
atit
▁Platy
▁thí
▁Hiro
Gi
umble
eb
▁mah
▁Kienthuc
▁Guignot
▁Amway
▁Silvio
▁mênh
▁đư
▁Sasebo
êù
obus
yssin
▁Chè
<509>
▁Els
iv
▁Television
▁dấp
▁Bhad
▁Chok
▁bỗng
▁Sales
▁Erie
▁Bergen
▁Thiết
▁phương
▁Địa
▁Qa
▁Uyghur
▁Flowers
▁Harpoon
▁UMNO
▁Brux
▁Domb
▁CON
ernel
asius
▁Sumner
▁Suwon
▁Gallo
▁Veszprém
▁YO
▁Lop
▁đăng
▁Thờ
▁Huân
▁Amphip
▁hash
▁lig
▁support
<732>
▁Plato
▁BGM
<extra_id_81>
<975>
▁Portsmouth
▁mú
▁Tikrit
▁thỉ
▁Calypt
▁Buồm
ray
anae
jord
inum
▁Sahel
inas
▁Tiêm
▁oxit
▁sánh
▁Vaz
orussia
▁,
▁PAD
▁Hoà
tics
idol
onym
▁Pen
▁Yucatán
▁Life
▁Đắn
▁Pitcairnia
▁Eurogroup
▁Miền
▁loạng
erena
▁Ming
ấu
▁Moscow
oka
▁Dre
▁list
▁herb
▁F
▁Taylor
▁Goss
▁lào
▁Khaled
▁Gauss
▁Maghreb
▁Chaudh
▁Gian
▁lủng
▁Kuni
▁vó
▁Đầm
essa
<1299>
▁Spets
▁Emile
▁Turchyn
▁Dior
ayi
▁Rocky
▁pygm
OP
▁cóng
▁Phot
▁tánh
Arthur
▁Gig
▁Calymper
inius
▁Begum
▁Soros
▁Ultr
▁ồn
▁Ngát
▁víp
▁dẻ
▁xuyên
▁Meteoriaceae
▁spruce
ka
▁Fields
▁quật
▁Kathryn
▁ine
ongo
▁Hub
▁Govern
▁Production
▁Rồng
▁Khorasan
ửu
akere
▁Sparta
▁Nghiên
▁Hof
▁Dud
▁Huấn
▁dương
ril
vihla
inawa
▁Agri
▁đao
▁thoạt
▁chấu
EV
▁Hohenzollern
▁Tinnhanh
▁tem
▁nhúng
▁Dj
▁Mundo
▁blues
▁beat
▁Grolle
▁Pops
▁Mị
▁thon
▁Herzeg
▁Sitt
▁Tanzania
▁Joon
▁Gamma
▁Agaric
▁Hunger
▁Warrior
▁Shen
▁xổng
▁khánh
▁sải
kawa
rino
▁Mub
▁Cơ
MA
▁Push
▁Abe
erman
▁Tý
▁Elton
▁cinerea
▁Imm
▁Jenkins
▁Boc
▁Ngô
ềm
zce
▁lim
inton
ns
▁costaric
<1068>
▁Sidd
▁quí
▁beng
▁chlor
▁bod
▁Arctiinae
ief
nich
ased
<791>
augh
<1309>
▁Yushchenko
▁Bởi
▁sen
▁Nun
▁Luận
▁Karate
lea
▁Sohae
imart
▁Southern
▁Vympel
apis
ellae
▁Schlesien
▁PW
▁Dist
▁Yars
▁Klotzsch
▁Tz
▁Crowley
▁chiêm
▁Chải
▁Moi
▁rắm
▁Majid
▁ASEM
▁Parma
▁sangu
XP
▁cù
▁Whitney
▁Kash
ochenko
▁curv
▁Mí
<527>
▁Mysore
▁khoắn
▁clorua
ibir
▁Rainbow
▁Pauline
ogne
▁Tru
<1525>
▁SL
▁dẹp
▁Eswatini
<535>
▁Adv
▁lô
▁yong
▁FAA
spicua
▁mâu
▁Hey
▁Eriocaul
▁Đìa
▁Leont
▁Maq
▁Trentepohlia
ean
ếnh
▁ngạnh
Ch
▁Dhaka
▁Guzman
bay
uden
andro
▁Port
▁oi
gau
▁OJ
▁Vedomosti
▁Alexandr
▁phấn
▁ju
▁Chav
▁dẫm
▁Plze
<1733>
▁Barneby
▁dang
ope
ent
▁Ruiz
alonia
odius
▁sàng
▁CSND
▁rợ
▁James
chu
▁vrốp
▁mor
egee
▁Marg
▁live
aher
▁discolor
▁tuyên
▁Long
rập
né
▁Chely
▁Nast
ommern
▁cáo
▁Tui
lav
▁Mũi
▁Too
▁Mahm
▁Shintar
▁bể
ineph
yaman
<1255>
▁Berd
TTP
▁trì
oros
jar
▁Both
elling
▁ĐI
trom
av
▁Gây
▁Bic
▁Soleimani
▁Tô
hin
HR
▁Ngung
tag
▁yo
▁đệm
OF
▁LTTE
uld
▁ỉm
▁Minnes
bank
▁phồng
illidae
▁SBU
▁Mi
<428>
<258>
<1497>
▁Paralympic
arias
low
▁Flet
ucci
▁rữa
arthy
▁trám
incan
▁Without
▁deo
asellus
▁Mã
▁ra
▁Temp
<1161>
▁GR
max
▁Tokushima
▁Lucia
▁Camellia
▁Monarch
▁KDL
<1688>
▁Isis
lands
▁Eduard
HH
▁Môi
▁Palawan
▁geo
▁mexicanus
▁Đấu
▁tấy
epi
▁ibn
icha
▁Đái
▁Pomor
▁toái
<8>
arajanagar
▁Oxyopidae
▁Robben
▁Lucien
▁Khói
<617>
lon
▁Hiến
▁Sak
nab
▁tiệp
▁Evil
▁vinh
▁câu
▁Ỏi
▁Byrrh
▁Br
ylidae
▁Pann
▁tôn
mouth
▁extr
▁Buenos
▁CEST
▁GCN
rague
▁CAX
▁Mert
▁Prayut
▁Time
▁Therid
▁EV
▁Tyrann
▁Ask
alty
▁Studios
▁Chand
<968>
▁Thong
▁KHCN
ation
▁súp
tin
ts
▁ngòi
▁HĐBT
▁Monfer
▁salbutamol
<7>
▁Bruns
islava
▁Chuyển
▁Thompson
auridae
▁KHÁNH
ocn
▁Cond
▁Mai
ukhov
utnik
▁ElB
▁Đối
▁McCoy
riesea
▁hiđrô
▁Pirata
▁Boiss
▁gracilis
▁Thước
▁hed
ophyllus
▁chạc
▁Work
▁Vài
▁Rojas
▁Oa
▁Brad
▁nhím
▁Swall
▁Derm
▁Schwab
nga
▁Rikvip
▁Suvarnabhumi
▁cing
▁Scytodidae
▁Canavese
▁Somalia
rde
▁Microsoft
▁Đoa
▁Sapotaceae
ovalov
▁Nagy
onso
▁DF
ized
▁Radi
▁Poul
▁MDMA
▁Cosmos
▁Philstar
<307>
▁Serg
▁Viss
▁Berberis
olob
ekt
▁Đamát
▁Tạm
<1297>
acia
▁Silva
▁Southampton
▁Bydgoszcz
roz
▁Rhythm
▁Trel
▁vãi
<extra_id_57>
▁vun
eck
▁Sera
▁Lao
▁TPCN
▁Stereo
▁gõ
▁trạm
▁Fill
▁America
▁Sporting
rien
▁Knock
▁Crem
▁đóng
arine
<1055>
irh
▁Mahmoud
óp
▁Forster
▁hụi
▁chặt
▁Đũa
▁loại
▁Atari
▁Archim
▁Mour
▁Reuter
▁Tanta
▁Lambert
▁Kathmandu
▁Blak
▁Westwood
▁Google
▁gram
▁Biểu
▁Trâu
▁Miriam
!
▁buff
ashima
<748>
<304>
▁Blume
yphyllum
▁Snyder
<99>
ocryptus
▁nhản
▁Suu
evich
ibana
jah
▁xử
óm
▁Ngo
▁toạ
alai
▁thành
▁Phận
rido
▁SG
gard
▁VTVcab
ada
idend
▁Reef
▁VĂN
<103>
▁Ard
▁TED
elina
▁Rác
▁Part
▁hải
▁mod
▁Alopec
▁Active
▁Ném
▁Lucy
ophanes
▁Some
eok
▁Ahm
▁Zi
ochi
ã
▁Benjamin
▁subs
▁Súa
▁pl
▁internet
▁Bitcoin
▁Mường
▁Kannada
▁magnet
▁Sema
osella
▁McCorm
▁Scan
▁californ
▁Nis
▁Jerzy
<127>
<extra_id_20>
▁nhìn
▁Pandora
▁vắc
▁Nic
esel
<683>
▁Đệm
win
▁Marvel
rog
▁pre
▁sống
fal
▁lamb
▁PHAN
▁De
ong
▁dụm
▁Rec
▁Móng
▁Methamphetamine
▁Hesse
ports
▁phẩy
▁Noong
▁Rom
▁Suzanne
ariidae
▁Otta
▁ciliata
▁Winston
uer
▁Spect
<1629>
▁term
▁Agrypnus
<1910>
▁Ubisoft
▁Reykjav
▁tại
▁Networks
▁Zam
anc
▁Kaneda
▁Pisa
▁Sonora
▁Cromwell
ie
▁Diêm
▁Geotrup
▁Jeffrey
▁Lith
engen
▁Prokh
▁Terebridae
▁lineata
▁phán
lc
ipodidae
bek
▁Sche
ament
▁Bạc
laena
▁sơ
que
iation
▁Disc
▁Knuth
▁Blink
▁Coll
▁cry
▁Tảng
▁Cara
<1132>
▁Arecaceae
▁Nhổn
▁Malala
▁Trân
<1702>
▁Astron
▁quyến
▁Cai
▁Nước
ertz
<1597>
▁chẵn
▁Papandr
▁Toàn
atra
ffl
▁striat
▁nho
▁mê
▁Barych
ở
▁atric
livka
▁Broth
▁Guan
sin
▁đáng
▁tí
▁Vej
▁Sukarno
ợn
hii
▁Fishes
asek
▁chu
▁Alstroem
▁Ophior
▁đoan
mag
<1568>
omer
ẩng
▁NET
lamyd
▁Mang
<350>
▁Novak
▁Kỳ
▁Rahman
▁SMS
▁Indo
<153>
uyu
▁Fansipan
unde
▁CSKT
opsidaceae
<472>
▁bôn
▁liềm
▁Moammar
ifica
▁Flash
▁dạy
▁Triv
▁Pis
▁Copelatus
▁Tomé
Bank
▁star
▁Friuli
▁Hano
▁Philonotis
<521>
▁Komb
▁Kỷ
▁Lĩnh
▁sắn
hiza
▁Sabha
▁Sikkim
▁Sami
<1634>
▁tin
▁Vinson
ét
▁Foreign
▁lá
aecum
▁Shinawatra
▁Carnevali
▁Hercegovina
<762>
▁dà
▁Ing
▁Gupta
▁neutrino
▁KD
▁Hẻm
▁Munnopsidae
▁Vinaconex
▁Oceanbank
ụy
▁Cuphea
▁Phàm
▁Helix
▁Zodarion
▁Tẩy
▁BHĐC
▁Bell
otrach
<1814>
▁Kand
<1349>
▁càng
▁Seag
▁Liguria
<1435>
otion
<1229>
▁Euch
▁Ri
▁Tein
▁Duy
▁năng
▁vướng
▁Vermont
▁TTHC
▁ớ
▁aw
▁Píc
▁Gova
▁Prima
▁sulf
▁Eupithecia
▁incl
▁tốn
▁Mạnh
▁Wu
▁Chum
<254>
▁Bắc
alia
▁Int
▁Joy
<545>
▁ôxi
▁NCA
▁Chuông
elson
ying
▁ANZ
▁Dian
<1328>
▁Trop
▁Ngà
▁ET
▁Kích
▁Lombardia
▁VF
▁Chag
alip
▁Kud
ianthus
iram
ách
ith
▁Aneuraceae
▁sitcom
▁ghe
▁Frunze
▁Gen
▁rảnh
rodes
▁Pará
▁Phìn
▁Telegraph
▁wa
▁Rắc
▁Bính
▁Đun
▁Goa
▁Quin
▁Tuz
▁calyc
▁Ulm
▁Gamas
<605>
bon
aloa
Phone
▁Aw
adan
▁Annan
ád
lech
▁Akkad
▁mất
▁Song
▁Gylle
▁Thể
▁Wich
▁Own
▁Halictus
<1016>
<1638>
rett
▁Kaw
▁Allende
▁mộng
▁Trùng
▁Helsinki
▁Kodansha
ovy
▁Nie
LF
▁LT
▁vâng
▁Vietnamplus
▁Tomahawk
▁Pseudicius
▁RX
utus
▁Gub
▁Góm
▁Hast
▁hát
gra
▁rặng
▁Grap
<220>
atta
▁Germania
▁trê
▁Sao
<1289>
▁pháp
uyền
▁sa
▁Láng
▁rìa
▁Thê
RO
▁Turbo
Go
▁Sport
ulo
▁Index
enensis
▁IAU
ylepis
illet
▁Early
▁Gabon
▁Four
▁thoải
iformes
lei
▁formos
▁Richard
▁r
akhand
▁Murder
▁Koch
▁The
▁Baikonur
▁Geneva
▁Price
▁elegant
▁hybrid
▁Vachal
▁Ngột
ren
▁Kiểu
▁Szczecinek
end
▁grisea
▁Mehmanpar
▁Sukhothai
▁Ulysses
▁hô
▁CoV
▁Attel
▁Tị
▁Apl
▁nguôi
▁cer
▁Alme
▁Ầm
▁Pelé
ket
▁France
▁Thuỷ
XH
▁Chết
onic
▁bell
▁Attack
▁Spin
<1587>
▁Beatty
ight
▁lade
oxia
idum
lia
▁insulin
<321>
▁ỹ
▁Ehud
<361>
▁Scol
▁ICC
▁Lid
▁Usagi
ranthes
▁Palme
▁Ampel
▁Đoạn
▁Bil
▁Bundesl
enzo
rt
<802>
<1856>
▁Hen
▁Tsushima
▁Eum
perma
ozy
ube
yla
<1740>
▁nhúm
▁Kiribati
▁xả
▁tambon
▁chuộng
▁Strela
▁Trông
▁Mira
<1445>
algo
▁LoC
GE
you
▁rối
▁Mell
▁Bob
▁JR
▁lãi
▁EE
ny
▁Đít
▁Riyad
illaris
▁PCC
por
▁Congo
▁Đủ
▁Castianeira
▁che
▁Ram
▁mus
▁Dass
▁Gennady
▁Publishing
▁Fres
▁Bây
evin
ers
anes
▁Leptodactylidae
▁vơi
ect
▁Libya
▁Harvard
▁chuốc
▁giòi
▁Jis
▁Vistula
▁giản
ogomphus
ực
▁Salvatore
▁Parc
▁từ
▁tổng
▁Với
▁Trận
▁Hell
▁Ặ
▁Arab
pis
rush
ced
▁Chey
▁Clar
foot
<418>
▁khó
ss
▁Douglas
▁sít
▁Eragrostis
uralis
▁Stafford
▁Chamaec
▁vét
lew
▁đềm
<987>
iness
▁hoàn
▁Đanh
▁Tulagi
ips
▁cạp
▁nhuyễn
▁PSV
▁Many
<extra_id_27>
▁DD
▁Ameg
▁Jun
▁rậm
▁Sub
▁thun
▁Toulouse
▁Hatt
▁CSU
▁Carla
isen
▁Cty
agalur
▁PS
▁WA
▁Francesco
▁VƯƠNG
▁Cock
▁mộc
ịu
▁cống
▁Lindsey
▁Lẽ
▁Lầu
bh
efl
▁Heavy
▁QLD
▁Yuk
igno
<1627>
▁dân
▁Hercules
▁Chịu
▁Corbett
ocarpus
▁tiềm
▁chục
▁Padilla
▁Munro
▁xoăn
<1588>
▁Benson
<1069>
aido
▁Tryon
▁vời
▁orn
▁Cối
▁bếp
▁Spear
▁Drill
oped
▁Sci
<1430>
▁CHXHCN
▁Acroc
▁Alston
▁Harv
▁Ậ
oudi
▁khiết
▁Càng
▁neut
▁Khăm
▁TT
▁Hadi
▁CK
▁Đặt
▁novel
▁season
▁Schre
EG
▁Tản
ermis
▁Õ
▁đát
▁Byă
▁Mughal
▁Yak
▁Yo
ảy
▁Chimarra
▁PCA
▁University
uced
▁Salerno
▁Diosc
▁Đánh
▁HAGL
▁Hohen
▁pinnat
▁PVT
astrum
ugo
▁Kirsch
inata
▁dâng
▁Astrakhan
▁CBBank
▁Sheikh
▁ĐNa
▁bờm
▁Ula
ophyllum
▁sm
▁vag
<1048>
▁Jasper
▁má
▁Phì
▁Treb
acis
▁arct
enna
▁lang
ea
▁Thỏa
▁dấy
gio
▁Doub
iston
▁TVN
▁Paralym
kovi
ờ
<52>
inda
▁ngạc
▁Edin
▁gặng
▁Uv
ouchi
▁độn
▁Rech
▁Miao
▁Techn
▁Sav
▁Korot
▁CT
▁chầm
▁Countdown
▁Floyd
▁Hấp
arkin
▁Jordan
ier
echn
▁tụ
▁SP
▁Navarre
▁cocc
▁Fav
▁Lahore
▁Cồ
ần
▁Noctuidae
B
▁ông
▁Tal
ega
▁guồng
▁Litvinenko
▁Trốn
nov
▁Ước
▁Rag
CHR
▁Dilma
varman
opterus
rophyllum
▁Ulyanov
▁Lars
▁Lane
org
▁OM
▁Aven
▁TTIP
▁Pond
▁SPY
▁giảm
▁Eva
▁Antón
arsec
▁Cuban
vers
iewski
▁bệnh
▁gắm
▁IX
ansa
▁tạ
▁Sải
▁Quản
▁kỉ
▁Fried
▁Pomeranian
other
▁Miturgidae
▁Kamakura
▁Variety
▁cạy
▁Gust
▁chúi
▁kit
epohlia
ostegia
▁Navrat
▁Fork
zinger
▁Aja
▁Cleo
▁Transport
avirus
▁luyến
▁Nai
ibia
▁Poltor
▁Athlet
enter
▁UB
▁Calabria
icles
▁suy
▁tuốc
▁florid
▁Pich
▁Dufour
▁Ravi
▁Trochilidae
▁Nguyệt
ouri
▁Lenin
▁vôi
elles
▁Shel
<1118>
<1388>
ellia
imm
▁RTL
UY
▁chổi
▁Euroc
▁Truật
▁Flanders
ayd
▁Spiel
▁Vietsov
▁Zeyh
▁Seville
▁ngán
▁trầm
▁bố
Fan
▁Thao
▁Zeman
▁Mổ
▁Romney
▁Johann
thi
change
avia
▁kết
▁Christian
ocactus
▁Juana
oviev
ytes
▁en
▁Danh
<1502>
▁Link
▁Achilles
▁Senkaku
▁Camille
▁Mode
▁Everest
▁Martinez
▁Aylan
▁SWAT
▁Tập
▁Nikolai
▁Lucanidae
▁FO
osc
▁Clerodendrum
▁Cấu
oper
rera
▁tern
▁Tav
▁màu
▁Rhododendron
▁MXH
over
▁Yển
▁Kore
▁vụng
▁rau
idental
<1196>
▁Ter
▁Neog
▁Heter
▁Vàm
▁share
innen
▁nanh
▁occidentalis
▁Giấu
▁Voiv
oshop
etto
GTS
▁Áp
<389>
▁cir
▁CAT
▁Friends
▁gay
▁Zumwalt
▁Zhong
upe
▁subd
▁Phố
▁ANTT
ández
▁Đười
lp
▁Miner
▁Lorenz
▁KT
▁Sony
▁Cortés
▁Cuống
▁CF
▁thả
ừ
ice
▁ch
▁ớt
▁Blas
▁Gabri
▁AD
▁Mương
▁Ph
imov
▁Perc
▁Grê
▁Kord
▁Athous
▁Fu
▁Nobunaga
▁sành
▁vất
▁Hurric
bright
▁xúc
▁Heywood
▁Xứng
▁probab
▁Đư
<26>
▁Ascorhynchus
▁Brack
▁velutina
▁bấu
▁giêng
▁Lloyd
▁Vỹ
ahon
ific
▁Mesa
▁purpur
▁Lơ
▁Pier
▁Perkins
▁Boys
rist
▁Áng
ythia
▁Hề
▁Juan
teau
▁Sisters
▁bập
▁Hild
▁Newark
▁Uruguay
oti
Ằ
▁VHTTDL
▁Holmberg
▁Erzincan
▁ôm
Ổ
▁Tajik
▁TTXVN
▁Columb
▁Đơ
▁cass
▁Tommy
ragon
Mail
trand
enaica
▁SIPRI
▁Pưh
▁Mêh
▁DES
mites
▁Neos
▁Hydropsychidae
▁Author
▁Đội
▁Chuck
▁ste
▁Parthen
itation
▁Thel
▁Nậm
▁Dennis
▁SGGP
▁Kanak
the
▁vái
▁Gomez
▁Sider
▁IOM
opia
alt
<extra_id_22>
<1359>
▁Solen
▁Hale
▁mèo
▁truất
rat
▁xoài
XHCN
<1835>
▁Moraceae
▁Marc
▁pub
▁uý
▁SD
iferum
▁Vịt
▁Jans
▁Chốt
▁Mom
ENCO
<692>
▁Uyển
▁BTR
▁NCT
▁mạo
▁Đố
▁Georgy
▁Trịnh
▁giọng
entz
erd
▁Commun
▁Fiss
▁Hartford
▁jam
inocyma
<327>
▁nhũng
▁chửa
ecas
oom
éon
▁Cricetidae
eyh
▁Nizhny
▁Wiki
▁Torch
racle
<799>
▁Triều
▁Fai
▁Singh
aliensis
▁y
▁frut
▁Cáceres
ych
ago
alin
▁Hảo
▁Colombia
olon
▁Fissidens
▁Ngọc
hay
▁Lomon
▁Zambia
aos
▁stricta
▁SX
▁Pill
▁hặc
▁cit
▁đoán
ocala
▁Hak
▁Wend
urn
alus
▁đóa
iinae
▁Polemoniaceae
▁Pierre
ubeir
▁Kristen
▁Exell
phine
▁Hagupit
▁Detro
▁Olympiad
▁Pangkalan
▁DAT
▁phượng
▁Agel
raft
▁Tsar
▁Fighter
acin
▁school
<1541>
▁rắc
▁chén
▁dis
▁Miami
▁Bec
▁JF
ender
▁vitt
▁AW
▁benzodiazepine
▁Lew
▁Goodluck
▁Nothing
▁Slavyansk
▁Mallinella
shasa
▁Clooney
<437>
▁Salehi
▁LK
ỷu
▁Thố
▁TRI
▁nhảm
▁Kats
▁Chiếu
▁Bulgar
▁XS
▁Mic
▁Vatican
▁Westerwelle
▁Jind
▁Boarmia
hiye
idium
▁lảm
▁đon
▁Versailles
▁Roberts
▁AP
▁Thanatus
▁Texas
<1209>
▁giang
marus
oras
ỌC
ocent
▁model
▁ắp
odend
▁đên
▁núi
▁Stapf
▁Fajr
▁Rural
▁pallida
▁bịt
▁thấy
▁nhẹt
▁Karnataka
▁cám
▁giỡn
▁Arkh
show
▁Comic
▁Goldberg
ropol
▁Brother
eous
ising
<1551>
ends
▁bull
▁plut
▁pu
▁Thâm
achim
<1718>
▁clo
otka
▁Guillermo
▁tầng
▁dần
▁Luz
▁Gliese
▁thưa
▁Scott
ract
▁Khmer
▁Yala
▁loãng
<333>
eyn
Ng
▁Sesiidae
▁Danube
▁Mãng
onnell
pes
uginosa
▁Hết
▁Amun
▁port
<1072>
<1805>
aur
ural
▁Half
▁Mistral
alyptus
oxys
▁Quant
▁W
▁rả
▁Everett
aguni
▁Trog
▁Loki
▁SimCity
▁Safi
▁chì
▁Ser
▁Gh
thwaite
usic
evelt
▁Erin
▁Phillipines
▁Zeus
stal
omet
▁Furn
<682>
▁Latina
<1367>
▁Luhansk
▁Pearson
empor
yde
▁Ischn
ệ
▁Truyện
▁Phay
▁protein
▁Igl
▁Person
rador
▁Warren
are
alan
▁make
▁Rig
▁FPT
▁lồ
<1467>
▁Num
▁Dale
obiidae
zewo
get
cu
▁Gô
coe
▁sú
yanov
▁Tip
▁bái
lot
▁Zw
▁Phe
▁Pse
▁Arp
▁nôi
▁Ryder
▁Tư
geb
▁PLAN
ophus
▁Bôlykhămxay
▁Voivodeship
▁kẹo
▁Smithson
lis
ựng
▁Io
atella
▁Bật
loo
▁Đút
▁thoại
▁Watts
▁Scarb
▁Trinh
▁Hérault
neville
▁Hers
▁chực
▁Sinatra
▁Doku
▁Chiang
<814>
▁Sim
▁cal
▁TTX
▁tess
▁cello
pire
load
▁Turcz
▁Ushakov
▁Orm
▁nhài
tsche
▁Cain
▁Trăm
▁kHz
▁nihongo
▁Cyprus
▁dạng
▁caucas
<1323>
nikov
▁cản
ekh
▁Gaia
trus
▁Patt
▁Salem
▁bén
▁Pentacalia
KI
odontis
icle
▁Corner
▁Garonne
▁Roan
▁trò
▁megapixel
ossus
▁vừa
▁cõng
▁Châu
▁Yingluck
▁florib
aeli
assim
▁Margin
▁Witch
▁Hafiz
▁Prayuth
▁Monferrato
<1628>
<1705>
▁ĐTT
obe
▁Sarc
▁Macri
▁hủi
▁mồi
▁OD
<612>
▁Yamada
▁Coventry
▁mông
▁rib
▁Pepsi
<extra_id_35>
odrom
▁Aig
▁Hitt
▁Ricc
rises
▁riv
▁Đứng
▁chột
▁Smerch
▁Damon
▁ri
usse
▁server
▁mơ
▁Đẽ
RC
<540>
<966>
▁rớm
imo
▁Hỗn
▁Gua
▁Page
▁trọn
▁SCB
▁News
▁Ti
▁Jessie
▁power
▁sâm
▁Syd
▁DailyMail
agna
▁Wak
▁Mozart
▁Theft
▁Tháp
▁Jabhat
thus
▁Hance
▁VOV
▁Nau
friesland
▁HAIC
▁Marius
▁Sồng
eptide
alth
▁Cucurbitaceae
▁enzym
▁glauc
▁Donesk
▁Welt
▁tan
▁Calceolariaceae
▁Rostock
▁cửa
▁Reinhold
▁Niết
▁obli
▁Shon
▁Globo
iceus
men
aide
▁Amenhotep
▁ngót
▁Silveira
▁chồng
ián
▁Compost
<1128>
▁Zubr
<78>
▁VPCC
▁Baja
▁Kashmir
▁Saad
▁Un
otheca
<510>
▁Marta
ưa
▁Dĩ
▁Alfredo
▁tấp
▁Teruel
ithecus
▁XD
▁africanus
▁hệ
▁huỷ
▁Elect
▁dry
▁Graves
▁hưu
▁Chile
▁asper
▁Triệu
<782>
akat
▁cty
▁Giê
▁Palest
▁Lecco
usatsu
▁Đểu
▁đậy
▁Obamacare
▁kw
HQ
▁nghệ
▁Phường
<1092>
<931>
eschna
▁Xát
▁Cà
▁Harris
▁Hãn
▁CHK
olev
▁trộ
▁Đặng
▁Chocolate
agad
<255>
▁rạng
▁shin
▁Queens
▁CNRP
plo
▁Stefan
▁Scler
▁Megachilidae
iance
▁Oncidium
5
▁Bundesliga
▁Hatay
▁nhàm
▁Pepper
ring
▁shell
more
ezo
▁Olympus
▁lúng
▁Spark
▁Cheilanthes
▁Roche
▁Markin
cheslav
▁AVN
Ỳ
▁ĐHĐ
▁Paek
▁Lãng
<1401>
▁Burn
▁hap
▁trai
▁content
▁nub
▁HIV
▁Moong
▁Entodontaceae
▁Chạp
▁Cafe
kam
▁Boons
▁Truong
anl
▁Volg
▁Georgi
▁Alto
▁polym
▁Kosterm
▁Sioux
enay
▁Yenik
ilineata
anthaceae
EC
uyển
phos
apatnam
bi
▁Nakai
▁BB
▁Beckham
▁Seljuk
▁Maverick
<891>
▁peptide
▁Amphis
ợc
▁MD
pus
▁Micros
▁DŨNG
evi
▁firm
▁Angelo
▁Dash
▁Lữ
gate
▁Rượu
▁hấu
▁Tsun
▁John
▁SSBN
▁chông
▁Tăng
▁Flying
▁Taro
tainer
dal
▁Museum
▁Marek
▁Siddi
▁Tanya
ughton
▁Amal
ruv
▁Miyako
rag
▁Hot
<1107>
▁Villarreal
ant
▁CHDC
vert
akon
▁Raphidiidae
arto
ing
▁Cương
▁Stuart
anian
igi
▁RP
aut
gow
▁Rumani
▁Gertsch
▁laze
▁chakra
▁mần
<234>
ủng
rita
▁Nuon
ắn
acy
▁Sam
▁Nahi
▁Cope
auc
ellata
▁Huê
bs
▁Stry
▁AIDS
▁With
▁Giai
▁Lejeunea
▁rỗi
▁BizLIVE
▁Wey
▁nghêu
▁HMCS
▁Vary
▁trói
maria
▁Bouch
▁Fool
▁Putranj
<232>
▁Seibert
▁HRW
acar
oides
along
▁kỳ
▁cocain
▁nguyệt
▁Espir
ember
▁ghẹ
illii
▁Zur
▁Gerald
▁phớt
▁Dniepr
▁Giám
▁switch
▁Lạt
monic
▁Trad
▁Zh
▁EB
▁phim
▁Seth
usz
OC
▁Dahl
▁Council
▁Catalunya
▁Cratae
▁Marco
<484>
▁char
'
▁Chick
▁Xe
ohar
▁Ging
▁trỏ
▁Christenson
_
▁Mistura
Ph
akov
▁Correa
▁Woods
▁Xylot
CLOS
▁pulcher
▁Fogh
▁subp
▁Trượt
▁Tiệm
▁dinh
▁Nouri
▁Aris
▁Trichoniscidae
▁Guern
owicz
▁QQ
<1865>
▁Dom
par
ution
▁HSDT
ginatus
▁Allophylus
▁Bahn
▁Hsu
▁Học
▁Maximilian
▁kiloton
▁nhèm
▁Pham
▁Roland
ozi
▁Xyl
▁Từng
▁AR
▁Nac
▁Này
▁NES
arg
▁trù
▁Kyle
▁mãng
▁Veg
ilov
col
gne
▁Mexico
<extra_id_76>
▁UEFA
▁OPEC
▁pp
illas
▁Nuôi
rae
▁collagen
nach
▁Ngựa
▁Enter
▁Orthosia
▁Flora
▁Verona
▁Georgetown
▁Shirley
▁Selys
▁Lance
▁Meng
▁Cist
opotamidae
neria
anche
▁Riccardia
iflor
▁Guadalajara
Leaks
eridae
▁TNHH
yp
▁Tu
▁Ramon
▁CAD
atica
▁Thia
▁Hoan
▁Rodney
▁Nizh
▁Ganymede
▁Interst
<542>
▁Ticonderoga
tit
▁Gbagbo
▁Emperor
▁Ogil
</s>
ectes
▁Suýt
▁Pal
audh
<44>
▁Media
▁Exochus
▁Morris
▁Organization
▁Gazprom
▁file
unce
▁Liveshow
▁Jatuporn
▁Leader
▁Newfoundland
<extra_id_68>
▁đan
▁mây
▁Inga
▁nhạn
▁cóp
▁capit
▁Hi
▁chăng
▁Metro
▁Pheo
▁Guar
aterinburg
▁đạc
orhina
▁Poltorak
<409>
▁Hyuga
▁elong
▁môt
▁Together
▁Hyundai
▁đày
▁TASS
▁hê
alem
ogard
▁Kane
▁crisp
ave
▁Tật
sv
ỂN
VPHC
kim
ady
st
▁Tiêu
▁Pog
▁nob
arag
▁chằm
▁Et
▁Bermuda
▁magi
ticola
▁CV
ứng
ẵn
▁Cọp
▁Mitridae
▁Brendan
acha
▁Siti
▁Lu
▁ul
ber
▁pumila
▁entrop
▁Amenemhat
▁khổ
▁côn
▁ISIS
iero
▁Typh
▁aren
▁BRICS
▁tỳ
phaea
▁Asch
its
▁Henrik
dit
unting
▁thu
▁ụ
amensis
<extra_id_82>
▁Sotloff
xas
▁Búk
▁bún
aryov
▁hoạ
▁Amphisba
▁nhịn
▁Eng
▁Phobos
▁Turku
▁vá
▁fem
PRI
▁Sharjah
▁sax
▁hố
bol
▁MST
ima
▁Mis
▁Wilhelm
▁RQ
▁Delaware
▁Plectranthus
iffel
▁Anag
▁EW
▁insignis
▁xo
▁tot
▁Mart
▁Sham
▁Québ
▁Dorothy
▁rê
▁Benin
▁CGI
ral
baz
lamys
▁Dàn
▁AS
imilis
▁Sương
▁Taj
▁bar
ieu
iglione
édon
▁Ruslan
▁cụi
▁khang
CP
▁Tachinidae
▁lị
tahya
▁JL
farin
▁tiến
▁chồn
▁Spa
▁Jake
▁kỹ
▁Aude
ingrad
eba
<736>
▁Đẩu
▁Vé
▁Mè
▁Rosenst
▁Thoại
▁Euphyia
▁Thou
▁hécta
ipuncta
▁purpurascens
▁ARF
<32>
▁Bài
etey
▁PR
▁kén
▁sốt
▁Noble
<652>
▁Thủy
▁Winter
idar
olaena
▁rơmo
▁Rauh
▁Gneis
▁Morm
▁Bryum
▁Night
▁Pythagoras
▁then
▁kẻng
atimes
<1668>
▁Maver
▁Ormosia
▁Villa
▁ung
▁ngứa
▁UBKT
▁Thuê
▁Dahlgren
▁pe
▁Nicholas
pira
rden
▁đùm
▁row
▁FNC
▁Mercosur
▁Flagstaff
yrs
át
▁Grad
▁Nhờ
▁biếm
ukos
▁gall
▁ừ
do
▁Letta
<extra_id_55>
▁Messersch
adenia
▁lupus
▁Wiss
lass
▁thạo
lio
▁soul
▁NK
▁Lion
<1652>
lai
vee
▁Crazy
▁Terminator
▁ngữ
▁Ban
▁Tand
▁Diss
▁King
▁ngóc
olis
▁oc
▁Flint
▁Ráy
▁Johanna
▁thính
omis
athy
▁pri
▁Cestrum
<1112>
zu
▁Megan
▁Pterophoridae
▁IPEADATA
▁Amm
atig
▁kịt
asia
▁thủng
vergne
▁Suleiman
▁Đán
▁Bever
▁cocaine
▁sul
▁Arseny
<1174>
<133>
ƯT
▁obov
▁Thục
▁Corm
▁Geun
▁VY
▁Hay
▁Bashk
<845>
▁Marmara
▁Savage
<1036>
idon
oslezský
▁Eras
▁Ély
▁ngùng
▁Amegilla
▁per
inis
oclada
▁TPO
<1455>
▁niên
▁Tis
RF
▁Xưởng
orns
▁Verkh
▁Muhl
▁Claude
▁UBTV
<1202>
▁Mujica
▁Slovakia
iew
▁cưng
▁thảy
▁nilon
▁Ubuntu
▁SIG
▁xẩm
▁khâu
uc
▁hằn
<1163>
▁sensu
▁Jiho
▁Brock
▁Martens
▁Hors
▁Phanom
▁Shear
▁Fletcher
▁Yal
▁Alad
▁Massachus
▁Asma
▁Tuk
▁bog
eop
▁Cac
▁geisha
<1060>
▁Clubionidae
▁Him
▁Dụ
▁Dạng
reen
▁Rafah
▁Wade
▁serotonin
<extra_id_25>
▁Miêu
▁Cherokee
▁analog
<292>
▁Tristan
▁rượt
▁Haneda
▁Glas
▁Bada
▁Tesla
▁Margarita
▁Mượn
icke
▁Nghiệp
▁Gymn
▁Ellen
▁Cag
▁eri
▁Walt
▁tap
erti
▁uổng
▁gội
<541>
oleia
▁chuyên
▁Ariad
▁Pashtun
<1462>
ga
wal
hant
▁on
▁testosterone
▁Nesom
▁Gynoplistia
<967>
▁Anne
▁Ving
lies
press
õ
▁Suriname
itus
▁cook
▁nâu
xes
▁Chừng
amangala
imer
▁Cancellariidae
<3>
ear
osov
▁bóng
▁Dù
▁teen
▁ong
▁Ề
▁vectơ
leo
eshima
▁thẹn
▁Phê
rahi
▁Geoff
yuk
▁Tau
<1305>
▁Silesia
▁quad
yov
▁Mickel
▁huống
út
▁Genève
▁săn
▁Wulf
▁Carri
▁Visc
▁Voron
▁Lind
▁Nile
▁Rajas
▁Conrad
▁Gehr
▁card
▁Katsu
▁Lốc
▁dậy
▁trên
▁cùng
▁HNMO
▁Mariana
▁Cann
hound
mundo
<120>
▁Haru
▁mỏng
▁Tán
álov
▁vanh
eche
▁brach
uyết
▁Tag
▁Ia
chon
▁Cen
▁Koblenz
▁Hemsl
▁Arkhangelsk
▁CHI
▁Wichita
▁Ngang
▁Gaj
▁cựa
ÀI
▁Pennsylvania
▁Hearts
▁Giếng
▁quằn
▁ty
▁Laz
▁Araneus
▁HỘI
▁Citizen
<1592>
▁rufescens
▁maculata
▁PDF
<1152>
▁LR
▁MTTQ
▁Beli
▁TTATGT
▁Chán
ttingen
eca
▁Polon
▁Mess
▁nghẹn
▁Feu
urrens
▁Độc
▁cot
▁Kansai
▁Schenkel
▁Bab
▁Wies
▁Stones
▁Kornet
▁Windows
▁Ignacio
inus
▁đốm
<1833>
<1156>
▁rưng
eocharis
▁Mikhe
▁Pud
▁Alpes
▁Liễu
▁Delta
Ỏ
atr
▁Cuông
▁Kick
▁Satan
ingu
▁gừ
▁Bhutan
▁laev
▁Marqu
▁MobiFone
▁Mud
▁Chloe
▁Urug
▁Thracia
lear
▁Hướng
▁Neumann
etsu
quoc
▁Chittagong
▁đật
royd
▁Sanam
las
ơi
emb
▁nê
▁Yarmouk
▁tiễu
▁Benoy
▁Fung
eburg
▁gông
▁loạt
obal
▁bão
▁Strept
▁Nikol
▁Secret
▁Nhương
ures
▁bộc
▁Sisyr
ích
elyn
▁Brunswick
▁Ciidae
▁Standl
ettinger
▁Là
▁soo
▁Wait
▁Phaolô
qchi
ẫy
▁Bry
▁Dơi
eyer
<152>
▁Rambo
ksos
▁Quà
▁túc
▁Maduro
<1436>
ix
▁điên
▁trọng
▁gmina
▁phì
<775>
staedt
▁Cros
▁Svoboda
▁park
▁Izh
▁Better
▁Serena
▁CBC
▁Sinabung
▁ngáo
▁cuc
▁Bash
▁Dewey
jani
▁Oleth
▁sac
ingham
▁Xuyến
hausen
abit
▁Iro
opappus
▁Gentiana
▁sên
to
▁Triết
▁Stephane
enos
ăk
▁Hơn
▁Tong
▁district
▁Myrcia
ashq
▁Borei
▁Schott
▁Lampard
roma
<263>
▁băn
▁EU
▁WrestleMania
▁vic
▁Quang
▁MB
▁KB
atory
▁Truj
▁Cagliari
▁Trầm
▁Piper
▁Cin
cope
<643>
▁Hamza
<1877>
▁Demps
▁Hokkaid
<extra_id_69>
▁Uch
inese
▁Achyr
▁Corleone
▁Kas
▁Cheumatopsyche
▁Ruz
▁Pleur
▁Ragusa
▁pê
▁Bav
▁Zimmer
▁Mogher
▁miệng
▁Zab
▁Corse
▁Aso
▁Maxillaria
▁bở
point
▁Gekkonidae
▁Martín
▁Gull
▁Jagi
▁Khlong
▁Ơi
eppe
▁Nok
▁Alt
▁Nguyên
▁Rịa
<188>
▁vượng
rison
▁Alexi
▁Sagan
▁Calathea
ilton
▁Eo
ECO
elopment
ides
▁Ó
ut
▁Rubiaceae
wat
▁si
▁viet
<extra_id_31>
▁Howard
▁Sâu
▁Tek
▁ry
▁Calamus
▁Aomori
▁audio
▁Vella
<extra_id_70>
ễ
▁Wal
▁Vil
▁Thảnh
<1894>
tay
▁Yush
▁rụt
▁ráp
▁Out
lec
▁phút
▁Linyphiidae
▁Palermo
▁Hyon
▁HG
ubishi
acca
▁hổ
▁bớt
ynch
attle
▁sing
imet
▁Nations
▁Hyde
▁Yarm
<1228>
lich
liner
stream
▁Lugansk
<1876>
▁HTML
ộng
<extra_id_49>
▁le
▁bối
▁ngũ
▁muộn
▁Cargo
▁chuyến
▁Teh
▁aurantiaca
ac
▁Alexandros
▁Bitlis
▁Hủ
▁Amad
▁Baluch
▁Blanca
▁Lejeune
▁Hish
▁Ingrid
▁đinh
▁Champasak
▁Canada
▁Arec
ourne
▁Quyện
▁Corydalis
icester
ru
▁Hillary
▁sch
▁Wii
▁Eurog
ehl
▁Ortiz
▁Kafr
▁Mung
▁phiến
▁Nằm
▁Hou
▁Solanum
▁Fel
gy
OCK
▁II
▁nhạt
▁Lạnh
<938>
▁CoA
▁lithi
▁Mẫn
▁Nụ
tershire
▁ĐHQ
▁Rạch
▁sar
▁Tộ
▁Afro
▁Vel
▁víu
▁Thunderbolt
▁Ý
xen
ines
▁Land
▁Tj
▁Komsomolskaya
<1064>
▁arist
OB
▁Munn
▁tenxơ
▁Tú
▁Gb
omel
▁Urdu
ne
▁Batavia
aines
▁Saunders
▁Neri
▁Megaloptera
▁sửa
oderma
▁Bhar
ck
BL
omorphus
▁Mordellistena
▁ĐÀ
▁giũa
▁Phill
▁muồi
▁Paddock
xon
▁Change
▁Ted
ầ
rotica
<942>
▁El
xpress
▁Just
▁Fer
▁Infographic
▁sulfuric
▁Tsang
eft
▁Shinji
▁tỉ
▁Ngan
arbon
▁Sachs
▁Mầu
▁Coch
▁Snow
acalia
▁Dobr
▁xẹp
▁Dominica
▁Fashion
A
▁Olimp
<1679>
<1416>
lao
▁Observatory
<331>
▁Hok
▁vươn
▁Abdelhamid
▁asc
▁Boruto
yu
▁Norfolk
▁Yếu
ainville
▁liếc
icoid
oble
▁rum
▁Storey
▁lanceolata
▁tuýp
▁i
▁Mayenne
▁Lines
Ạ
<1397>
▁Petit
▁rụi
▁Khuổi
cidia
▁Infonet
▁leaves
▁Nhiêu
Ã
▁Athletic
▁Alej
▁Harpactea
▁sá
▁HH
▁Ling
▁Dh
</POS>
▁estradiol
▁Murphy
▁Pseudoc
▁gala
▁Actin
▁drum
▁Carex
<707>
▁mịn
adeen
ICO
▁dread
▁Scient
▁Things
ăt
izumab
cy
▁dollar
▁hoàng
▁bắc
EEE
▁Psychotria
▁Castilla
▁Er
▁Sib
▁Herald
▁vật
anag
▁trội
▁Nha
odina
▁Đễ
▁tiễn
zew
▁Jalil
▁Clin
▁Vip
▁Homal
▁Marshal
▁univers
▁Festuca
ỗng
ophry
▁Lamb
jit
▁trống
▁Brasil
urae
▁Uỷ
▁JS
▁cở
▁variabilis
jang
▁LSD
esa
jid
iceph
▁rin
▁Lys
▁trưởng
▁Reese
▁Nikita
▁khấm
▁Dy
▁Moro
▁Mại
▁Ebola
▁hẳn
▁Chandler
▁rugosa
▁Lử
▁Khủng
▁Zu
▁Makarov
▁EOS
<24>
▁Mod
▁hào
▁Gna
onymus
õi
▁Indre
▁Parui
SDĐ
▁Tuần
▁Vinat
▁Apat
TD
▁Skin
▁Desm
▁Dickinson
▁Rapunzel
▁Calcutta
▁Greuter
▁Maud
▁tr
rodium
mir
ória
▁AMM
▁Nhái
ugi
▁Lo
ten
▁Giọng
▁Orth
uncil
▁Thông
▁dậm
VA
▁Guang
▁Oy
▁Gothic
itu
emaker
<386>
▁nhưỡng
▁gáo
▁Khô
▁đồng
omb
<1563>
▁Ủy
▁Lleida
▁húy
eberg
omima
▁Ennahda
iman
<636>
▁định
▁Batman
▁gian
▁chuộc
▁Flick
▁Brenda
▁dối
▁Thiệt
▁Lohan
▁Spermacoce
sei
ây
▁Muallem
▁trắm
menia
▁Ngàn
tta
tt
zur
ics
▁Phu
▁auric
▁il
▁Praw
▁Mumb
▁These
▁Algiers
oh
▁xích
▁Dmit
▁Cánh
▁Dig
ional
▁Mars
▁Đới
▁gara
▁táp
▁Pedley
▁Cyber
êng
▁Philodrom
▁Gottsche
▁Lindau
urav
▁Milit
ebsk
▁Veracruz
arious
▁Gra
▁Henning
▁Selim
uan
▁Kamchatka
▁Hệ
▁rupee
▁khép
iyenko
▁Yves
▁Ryazan
elotes
▁Đáp
▁Xiang
▁thơ
▁béo
▁Humvee
▁Livings
▁thớt
▁Sonny
▁Agelen
ussy
▁thúc
▁Fujimura
<318>
▁Times
▁Boeh
▁vin
tide
▁hal
▁Ded
unda
lik
▁rơm
ittle
▁ast
phane
▁Wiltshire
▁Cornelis
lund
▁Saxifraga
tila
tern
ewo
▁chi
oo
▁silic
dev
▁cao
istus
aray
▁BLTTHS
▁Ạt
iers
▁Đẵng
▁Te
▁xức
▁Lạn
▁Lavrov
asch
▁ngợi
bergii
▁đáy
▁Festival
▁bitcoin
▁Hát
▁ellip
rieg
▁ẻ
▁Transform
iple
▁DT
▁vế
▁Chay
▁vong
▁other
ibil
▁giắt
▁Dây
▁Viễn
▁Galicia
SD
▁liên
▁PL
▁Ae
▁Dusén
▁tưới
▁dầm
▁Jet
sal
▁Macar
▁Oshima
▁Andropov
chim
ifrons
▁ỷ
▁trường
esis
▁carton
uman
Kh
▁Haryana
ượng
ilab
▁Afghanistan
▁sung
ậy
▁Ler
▁ringgit
RPH
opo
roxim
▁Every
▁Elle
▁Zhang
▁Kitchen
▁Atsushi
<1374>
▁diệc
maz
▁GF
iline
▁linh
▁Trụ
▁Ngọn
▁DB
▁Oedem
eon
▁Cực
▁xúm
▁Đai
▁Cắn
▁bốt
▁Chul
▁sept
HA
▁ciner
▁giũ
▁Tula
<191>
▁Coryth
▁Narathiwat
▁tiểu
▁Antony
▁so
▁ISBN
▁obtus
<1871>
tenburg
Armor
▁Azerb
▁Elmidae
▁Huns
▁Canaria
▁Chiềng
▁Ow
<1908>
▁Manhattan
▁Poh
tre
otia
▁Mẫu
▁Kaplan
▁Alawites
▁Mold
oft
thal
▁Shev
rôin
▁nilông
▁ka
▁les
▁Beblawi
▁After
▁cucull
viet
hall
▁kẽm
<610>
▁Chiloscyphus
▁Licania
▁central
onzo
▁Svay
▁del
▁UV
▁LHPN
▁multic
▁Tren
<1572>
▁rịch
▁Vincenzo
▁đúp
▁Ập
▁Lad
rani
▁Hellfire
eophila
ostan
▁Prog
▁quại
▁Watt
▁Wish
▁Orect
▁Molen
▁ILO
▁Ansari
azine
eini
▁Serge
▁Lucky
▁Annon
▁excels
▁nhám
▁Greenwood
ayu
▁Arkhangel
<1385>
phal
ranth
▁IAAF
▁Florida
▁MHz
▁Simmons
wi
▁hĩnh
▁CĐ
▁Chấm
ies
anthum
▁Đến
▁Wallonie
▁Madras
▁Rolling
▁Mép
▁free
ặc
▁Gott
iyal
▁obsc
▁văn
<957>
<1859>
▁Gonzal
▁ECM
umo
▁quadrip
<281>
▁Sale
▁Colle
teria
▁Cousinia
▁Cass
▁Bains
▁Resident
<387>
▁Rebecca
arch
▁Colorado
▁Gek
▁Stew
▁Tray
▁hel
oyan
adone
asca
▁Counter
ade
▁RIA
▁Off
▁Warn
▁ngấn
sohn
▁Úy
▁Soph
ileaks
inois
▁Tiệp
GT
▁Bơm
▁Palma
▁Saab
▁Brown
▁roll
▁lib
▁Stell
▁Pam
eidae
▁Medical
▁Bett
▁nhiên
▁Khuyển
agnaceae
ững
ersk
▁RIAA
iment
▁pounds
uary
▁nhầm
▁Nguỵ
▁Yours
▁Seg
▁dam
▁bùi
gre
▁Tri
▁games
mor
Taxi
cz
▁Ceylon
▁zon
ignan
▁lên
▁Amin
▁Emwazi
▁Tsub
▁Clem
▁Gour
▁Avig
▁nồng
▁Virgin
▁Santa
emont
isme
▁Ủ
ept
▁Gyeonggi
▁KHĐT
▁Rhaphid
▁Priest
oser
▁Grum
▁Diệm
▁Im
▁Bailey
▁Stigmella
ẤT
▁Desf
<1677>
▁ngụm
ptus
▁Iron
▁Azad
▁thày
▁WikiLeaks
uchia
▁Xếp
▁Beaufort
▁Bỏng
<1701>
▁Ôx
ryp
▁Roads
asium
▁Key
▁Kaz
▁hanviet
▁Trichoptera
idaceae
▁Jewel
<665>
▁Are
▁TVX
▁Kring
▁Peckham
<1389>
▁Guil
▁Costellariidae
<1491>
▁Stargard
▁bính
asse
▁Barrion
▁điệp
▁Ligue
▁Father
▁ds
▁mía
▁Vodka
▁Nữ
▁Giải
▁Nary
▁Final
cô
<extra_id_7>
▁Zakharova
▁Dolgoruk
▁Campobasso
quez
▁Campyl
iforn
▁Khóa
▁Yazidi
▁xộn
▁Kwong
▁BCĐ
▁sò
este
▁Erik
▁sẹo
<1885>
omatic
▁Evan
▁Wallace
ahalli
▁trúc
▁Nieders
▁suôn
notes
▁trữ
▁NBA
▁oC
▁Narc
ege
opot
reat
▁chăn
▁alata
▁Úng
▁Spor
<373>
▁Litvin
▁Aztec
ọa
ato
▁DSL
thona
▁Cốt
▁Dein
▁Pelecopsis
▁prin
▁Asteraceae
▁Takumi
amaru
▁Rolf
▁Drypetes
▁Mass
▁Spilosoma
▁macroc
▁AND
▁mắm
▁Quad
▁Baud
eless
ipe
phê
<447>
▁Chemical
▁Lep
▁Rời
<213>
▁ECB
yun
▁Dysdera
ophila
▁elect
<1729>
MP
ency
▁Care
▁Irkutsk
▁nàng
▁NĐT
ONG
TAS
▁kan
<1806>
▁virg
▁Bulb
▁Dordogne
ape
▁Beij
▁Yuki
onald
ign
omin
▁Bartram
ginata
▁Ranunculus
▁UBKTTƯ
▁Cover
<1109>
<758>
▁Ansan
acher
<670>
▁Szczec
▁Izvestia
▁Byron
▁chối
▁khuy
▁chinh
yme
▁ôliu
ensi
▁Maranhão
▁út
uthi
▁Macrost
▁ICA
▁Anime
tum
ópolis
<1538>
▁VCS
<745>
▁Tuổi
▁mậu
▁Điển
▁phơi
▁Tám
▁Ngã
lzel
▁Poi
▁Klaus
▁App
▁Tarn
▁Health
▁Hyposm
<139>
ological
▁Wales
▁Mendoza
▁tak
s
▁Casp
▁bây
▁Saudi
êu
▁bom
▁quầy
▁carin
▁spectabilis
▁HS
▁Idlib
ate
▁éo
▁Zamiaceae
▁Ryd
▁nhộng
icatum
jovice
<1002>
▁bai
▁hyper
<774>
▁Trống
▁Hwa
ision
▁lùi
▁corona
▁diếm
▁ru
▁đè
▁Pictures
▁FG
▁Shabaab
▁Thí
▁mọc
FA
▁xém
pod
PA
▁Erigone
▁Fong
elsbach
ăm
▁Hạo
upol
Sh
▁ọ
▁Đét
▁Chất
▁fest
▁Schne
▁Đục
▁Bartramiaceae
▁Dominic
arte
hynch
▁Arabi
<101>
▁nầm
▁seri
▁Grosso
▁bự
▁rat
▁Military
ay
▁Gardens
<extra_id_12>
▁Calais
▁area
OW
▁lạm
aplu
▁kin
▁Prost
atidae
▁Dew
▁elliptica
▁elec
▁phũ
▁Aleksey
▁ngôi
▁Sóng
▁var
▁Ble
▁nguời
▁Read
▁Sinjar
ugu
▁gmail
▁hyp
▁lũi
▁Tsukasa
▁Street
ariensis
▁fum
<1294>
ód
▁Tart
▁Blakely
▁Zeppelin
▁PAS
loss
▁VNA
▁Yoh
▁Martinique
▁Memor
▁Ahmad
rier
▁Kalin
▁Giovanni
▁SDF
ostegium
▁Hyptis
ose
▁thâu
▁Aleur
▁Chint
▁Đừng
abut
▁Philadelphia
G
ev
▁Tacloban
▁Ichi
<1744>
adus
▁hum
<227>
<215>
▁Yap
▁Brisbane
▁DJ
▁Galer
ogi
▁rose
▁Coleman
▁Laem
ati
▁Rchb
▁Vội
idea
▁Girls
▁Fairy
blr
▁Zen
▁ngoạn
▁Arak
utter
▁Bahrain
▁cứa
▁Gul
▁Rise
▁mooc
▁Marj
▁Fuchs
▁Nicol
▁Thom
iah
anyahu
td
▁Fl
▁Cong
▁mail
oki
aid
▁viết
▁nhẫn
▁bos
▁Beil
▁héc
jav
ahr
▁LĐTBXH
▁tp
▁Cyg
▁Đa
▁Safia
▁kinh
ard
EB
▁Dai
palanthus
▁Ril
▁KCB
▁Avigdor
▁Ngáo
▁suýt
▁Bond
<644>
▁Bờ
▁Muối
▁Chía
▁VAM
▁rập
▁Chuân
▁Templ
▁Trichos
▁thủi
▁Mil
▁Nights
▁giá
awe
▁Grudia
▁Ill
▁Trek
owa
<1603>
▁dịu
<1311>
▁vọc
▁yard
▁Levi
ashi
▁Nostradamus
▁Sant
▁Karaoke
oài
▁xin
<1756>
▁Gấu
▁Magic
▁khỏa
▁Pow
mere
▁Hydrobiosidae
▁break
emor
eren
▁Eur
▁There
▁KĐT
▁TTCP
▁Idaho
▁sẫm
▁Tama
▁Prok
▁Cheyenne
lob
▁Cheng
▁container
▁chạp
eské
▁tropical
▁lùm
▁gracile
▁Xbox
▁Gesner
▁Heart
▁polonium
▁Colletes
apol
▁bống
▁Cote
▁Empire
ák
▁Norm
▁body
▁mao
▁VCCI
▁Skyl
eret
▁RAW
▁quạnh
▁Scotia
▁Sit
▁koo
ấng
thenes
▁tuân
alyx
uata
onn
▁Ports
▁diên
▁PHƯƠNG
▁uốn
▁Hae
▁Phryn
ack
▁Linz
▁Iso
▁khùng
▁PET
▁triển
▁Wendl
▁Kojima
neh
<1642>
▁Jones
▁VietNam
▁Porphyr
▁Alone
▁Garissa
▁ngổ
▁Gramm
islaus
▁minut
▁Fortune
▁Irina
ezza
▁Kamal
▁trợ
igao
quil
▁polyg
lyph
▁Rég
ero
<1783>
acensis
▁USB
inha
▁Deng
▁philippinensis
<561>
▁Euro
▁Economic
▁Village
▁Collection
▁Quezon
ạm
ạnh
▁ANTĐ
▁rét
▁Lesser
▁Josef
▁alternative
▁McCartney
CCC
▁Busters
▁Busan
▁Khẩu
▁ầ
▁Jerm
▁Jetstar
yphops
▁Morse
▁Selangor
▁aurea
▁Nath
▁Vanga
▁Sủng
fak
▁doạ
▁AH
▁dữ
eria
▁Ey
▁Vòng
ager
▁Johnston
▁Strateg
▁MLS
▁Tuyển
▁Chitradurga
▁Canon
▁novae
<121>
EO
olds
▁Gravel
▁solo
▁Đô
eopatra
▁Hoãn
▁đam
▁hồng
▁Ontario
▁Hop
▁Năm
▁khuếch
▁Ảnh
▁Flanker
▁Ngọ
▁Nordrhein
▁Nút
<641>
▁Giận
pur
▁danh
▁Lav
▁Geranium
<202>
oloph
<1073>
▁sur
▁Roc
▁Bent
▁Dani
▁Verfi
eromia
▁Mou
▁Jeolla
▁đắc
▁Baghdad
emididae
<1405>
ọ
▁Drian
▁Chày
▁Conference
▁Great
BD
antic
▁ballet
▁Nhưng
▁Ứng
ège
▁Rhy
▁Ramadi
ưu
▁Bồn
▁asen
▁Moldenke
▁né
▁CNO
▁Lept
▁vuốt
idalis
▁bad
rotia
▁Cecilia
▁Prunus
▁google
ophora
gens
▁Feel
▁Duméril
▁Chì
juana
ph
▁gi
atore
ream
▁cỡ
▁SSN
▁Rouge
kyi
▁Reno
enzi
▁tín
▁CẢ
▁xô
▁Sindhurakshak
▁benzo
▁Vad
<1509>
▁ĐTV
▁HTC
▁Trò
phyllum
▁TAND
sch
▁tày
olep
▁Milano
▁NAS
▁Symp
Ậ
▁Martí
▁nhơ
▁Egg
▁Ares
▁jack
▁pizza
▁Vez
▁LeConte
eka
▁lact
▁Hord
eldorf
ermo
▁pseud
▁hóc
▁Shog
ineata
▁Brit
▁Ret
▁chiếu
imate
four
▁Hydrops
▁Dixon
▁conv
ĩa
▁mạnh
▁Vriesea
▁Ty
▁Kars
▁chinensis
▁Salbutamol
<extra_id_51>
▁Thwait
▁montanus
<267>
▁fig
▁Merah
<1017>
▁Pune
<1505>
▁XÃ
▁Exxon
▁polyst
▁Tĩnh
<1457>
▁Sydney
▁ngăm
erre
▁Living
<797>
▁Gồm
▁hot
▁Mato
▁gầu
▁Đờm
▁Boom
▁Pistor
▁Calceolaria
▁tẩm
LO
▁lãnh
▁Montevideo
▁tâu
▁Phước
<extra_id_87>
▁Ria
▁Margar
▁nghé
ioid
▁Megapenthes
▁2
<1160>
ablanca
▁aco
▁Grunt
▁Collet
▁Thả
▁Yamato
▁Cunha
▁khán
com
▁Best
hone
▁vaccine
▁trờ
▁Entertainment
▁xà
Ư
▁Tunguska
▁brachyc
▁hier
jai
▁Past
▁Donald
▁Ôxy
agi
▁Five
atoma
▁Casimir
arr
▁Cambri
▁Cabello
▁Abdul
hood
▁Oec
▁Symph
▁Rid
▁phất
▁Willem
ní
▁th
▁Thomisidae
rar
adam
▁chồm
▁Thẳng
▁Bình
▁zombie
▁Necas
iopteris
▁NHÂN
▁Lle
▁ruy
▁Indoch
ANK
aleigh
antins
▁xít
oby
▁Saban
▁Tử
▁bói
▁Miles
▁)
▁phẫn
▁Habana
▁Czech
elas
▁Ozawa
achu
▁Antoni
nuovo
antz
▁Manc
<781>
▁McC
ái
<735>
antas
▁Russian
▁Micro
LN
▁Potsdam
▁media
▁Lamprosema
▁Sharon
▁pull
▁Hera
▁Mallorca
▁hưng
▁Tsu
▁IAEA
▁Prec
▁Crimea
ylic
▁Maha
▁Ruồi
hieu
▁Monolepta
▁Burdur
▁Canxi
▁Wikipedia
▁Toni
▁tối
iu
▁TH
▁Lviv
▁Protein
RAD
▁phenol
▁Siv
dragon
▁Fujiko
▁Châtel
▁Kingston
<1431>
▁nitric
▁Force
▁rổ
<530>
▁Nefer
cens
<79>
enodes
The
▁Hóa
▁Morbi
▁FAO
▁GCHQ
ystok
▁Eremophila
<1655>
ổn
▁vèo
▁Nyctemera
▁Cra
▁khấn
▁Act
KD
▁Rung
ston
▁đoái
▁Steven
▁Picasso
▁tay
▁Leptoneta
<1779>
▁Cz
Cube
▁Kyo
esii
▁Lombardi
▁Eucer
▁Dáng
▁forest
▁Cop
▁cách
AP
▁quỵ
▁Tae
▁Polyc
▁Gustave
▁Carroll
▁kiốt
▁thẩn
▁Rad
▁Madhya
etamine
idiaceae
▁sỹ
▁Planet
▁Ngoi
▁Rosoboronexport
unga
▁Tòa
▁Nich
irt
▁Anhalt
▁Mỡ
▁Phunutoday
NA
emeinde
▁khờ
▁Rosoboron
▁sưa
▁Xay
▁Nk
▁Trách
▁MAS
▁lả
▁TTK
ramm
▁Meteo
▁Bellmare
▁Đạn
▁vội
▁lập
▁cerv
▁far
▁Sardinia
▁sính
▁Winfrey
<738>
▁Acanth
osur
▁medi
▁ATTP
▁like
is
umen
CSĐT
▁ao
▁Lọc
Nam
▁Penh
▁Régimbart
▁LaB
▁Sod
▁lai
▁Khiển
▁vại
utz
▁Krish
▁Liệu
▁Sẽ
▁Arunachal
ils
▁sủa
▁tẻ
▁Livingstone
▁tia
▁kiểm
sine
▁Ổn
▁Romanov
▁giỏ
<719>
▁sand
▁JavaScript
▁nhiệt
odont
▁Rusby
▁Heather
▁Sem
▁quẩn
mel
▁Phản
▁Mordella
▁Netflix
▁Airport
▁Contest
▁Bohr
ÁI
▁nhoáng
DP
▁Europe
▁refer
▁Ros
▁Pavel
▁đàn
▁0
▁Myrmarachne
▁mẹ
▁Phả
▁Esp
ustus
net
▁cháu
▁kia
▁Bou
▁Cheon
▁Cs
▁Mikhael
estown
ue
▁Slovenia
tric
▁Guin
▁Tobias
<639>
<1901>
<625>
etam
dam
▁khăng
FF
arten
▁Fire
▁Education
▁mép
▁Paulo
<974>
▁Scar
▁Bowl
▁Lớn
▁pharaoh
▁Sheeran
▁Hulk
▁Vinaca
▁atten
▁cri
▁Nantes
<1488>
▁St
▁Góa
▁cob
▁Neil
errima
via
▁Eccell
▁Cten
▁Dim
▁FARC
▁Trì
omeria
▁Adelaide
band
▁vắng
▁marit
▁full
ívar
ères
▁đai
▁Haven
▁Gotti
▁Đụn
▁vò
▁đang
▁Giành
▁apartheid
<1030>
▁Đỉnh
uron
▁Ell
▁Diels
▁HÙNG
▁Meth
uria
▁Boud
▁Marianne
▁úp
▁Sharia
▁Chaplin
aj
estre
ANA
▁Department
▁Flickr
▁mol
bia
estri
▁ngỡ
▁leng
wa
dad
▁Hydropsyche
▁Hispania
▁:
▁ĐSCT
▁giảo
▁NCC
▁Isabelle
▁Alibaba
olobium
well
▁Commer
▁ít
▁Ấ
▁Matth
ettii
ordshire
inin
ù
▁Bernie
aise
<1258>
▁Ngần
▁ITU
<742>
▁reb
▁Thúy
▁chuồn
▁Engelm
▁Kenyatta
▁Súng
ilian
ization
ikan
▁Marattiaceae
▁Blechnum
▁Surat
▁ASR
▁ờ
eval
▁Crưm
amphetamine
▁Tấn
▁Ush
▁Elliot
▁mast
▁Thunb
▁Phalac
▁bella
▁hư
▁rạch
izh
▁Financial
▁ek
arap
▁gàng
▁Franck
min
▁Luồng
amm
vol
▁rubra
▁Ngón
▁FBI
▁Hens
<1520>
<164>
▁lụi
▁Tupolev
mo
icta
▁Chap
▁cod
ween
▁nhét
▁Ayd
▁Vosges
ỄN
atina
▁gre
▁cư
▁Gilgamesh
unna
▁Thinh
▁Xéc
▁Helena
▁Helen
▁Rừng
aper
etra
ừu
▁Phơi
<194>
▁h
▁Jalili
▁Stephanie
▁Drew
▁Stoke
gô
▁Buộc
▁đô
ida
▁Cartoon
adas
▁Kono
<900>
▁Wheeler
▁Đuôi
▁Homs
▁Cir
▁Chi
▁Hopper
▁Batac
▁Kilis
▁Zelaya
onella
▁Twice
atoria
▁Orton
▁khiêu
▁Lath
▁McDonnell
▁Pais
▁DeGeneres
▁Mit
inger
▁Duẩn
▁Yanukov
etia
▁Thoan
▁Rizz
▁Comm
▁Vladislav
ocom
▁ZSU
▁Trãi
▁đôla
▁facebooker
▁Makino
▁Kelly
<1246>
▁rot
▁Word
▁bêu
▁ping
▁Haar
▁Kann
▁Laus
kon
▁Trev
▁Xuồng
<1070>
▁Oskar
▁Weso
▁ts
▁Barbarossa
ici
▁Sax
▁Vir
▁María
▁prov
▁Cash
▁Senn
▁cựu
guez
▁mc
<892>
FTA
▁jae
▁kền
o
▁Oakland
▁Lượng
▁mạc
▁Kemal
▁Ceará
▁CELAC
▁Armstrong
▁Hotel
oie
▁Sphagnum
▁Vinashin
▁Joshua
▁IMD
<496>
T
olog
▁lẳng
oạt
▁Dmitry
<extra_id_26>
▁Bollywood
▁Vikram
▁Verkhov
▁Bostrichidae
▁úy
▁Baptist
▁KI
enko
▁Sợi
▁cro
▁Lạng
▁Raptor
mới
▁Mehdi
▁mai
▁bỏ
▁huynh
▁.
▁Elio
ius
onymous
phire
<1704>
▁River
▁Hor
▁Salam
RD
▁ré
<601>
▁Global
▁Rug
▁Phiêu
▁PY
▁bến
obot
▁Wel
▁Piau
▁Spit
▁ình
ùa
▁Kyrg
▁trim
▁Europa
▁Terrier
idactylus
▁Woodson
▁Pong
▁trình
▁sàm
▁Gekk
▁dã
evsky
▁Hampshire
hana
▁Xoay
▁giam
isher
▁macro
oris
▁Barne
▁Buffett
ău
▁Arenaria
▁Calvert
▁sòng
▁Moc
▁tuồng
▁Thấu
▁Wed
▁Jamaica
▁Jacques
<1117>
eting
▁Ta
▁Phút
▁sổng
▁ĐKTT
▁ESA
▁Động
▁Ỷ
▁Đao
akura
▁Grig
DĐ
▁Đậy
apuram
▁Mort
▁JA
HN
<1442>
▁nồi
▁Fib
▁hormone
▁Pem
▁môtô
▁uranium
▁VIII
▁Greek
▁point
oryu
leh
anium
▁nhốn
▁enz
▁Riêng
▁China
andy
▁ngoi
▁rốn
oire
▁Sekhem
Ớ
achal
ttum
▁Mercedes
▁Shoemaker
ader
QP
YC
mec
▁Cambridge
▁Hủa
▁vị
▁Lòng
ylum
▁Accord
▁Kara
▁Amadeus
<300>
<1071>
▁Antonius
▁Smithsonian
▁Tasmania
▁Av
amt
<1751>
<927>
▁Gron
▁Đính
rup
▁đuối
▁Have
TE
ristylis
▁liệng
▁Carc
fest
▁Khrushchev
▁known
▁Niph
▁some
▁Gren
gomery
▁Habenaria
▁Amano
▁Baron
▁main
▁Tales
▁Vĩnh
▁Uralv
ificus
▁Nikolaev
leri
▁Mariupol
aios
▁HJ
▁Erdogan
▁đấy
▁rem
verse
▁phèn
▁Musc
▁dò
▁Sứ
illi
▁Haw
▁Sky
▁Fern
idad
▁Bey
ryn
▁Drawsko
<1591>
▁Ờ
▁Hussein
▁Zamboanga
▁Legalov
▁Lomb
▁Renato
▁we
▁thình
▁Dexter
ứt
▁Đã
▁Kiết
izz
▁lình
▁Pyrausta
▁Zlínský
▁Trát
▁khôn
▁Alberto
▁Đê
▁Bas
▁On
▁Ranidae
▁Loranthaceae
▁rut
haj
▁Kraj
▁Cazeneuve
▁Christopher
▁Yudh
ẩu
racht
▁Weather
ulf
jing
▁IJ
▁múc
▁O
▁Gram
▁Sanct
mitt
alat
▁Heim
▁Malta
▁Code
<356>
▁Israel
▁Saratov
▁Mow
▁Tetragnatha
<1079>
▁Ses
▁Tachina
▁Thames
▁ánh
▁Sevilla
<1248>
gani
▁Falk
▁Pus
▁Eucera
▁Mec
▁Novorossiysk
▁Cyb
zôn
▁Tonight
▁Aleksandra
ED
▁ever
▁ngọn
lecta
aukee
▁trực
▁Sòng
▁Sorbus
idippus
▁sấp
mana
▁hời
▁Gre
▁phép
▁Gerstaecker
▁thiếu
etown
▁Legend
▁nud
ảng
ýt
▁Crai
▁vu
▁Linyph
▁Ảm
▁simplex
▁FP
▁Jubeir
▁Semit
▁Sousa
▁Tuẫn
▁Chub
<858>
▁bò
▁Crass
▁Petraeus
▁bikini
aetus
▁Pap
▁Ulan
inki
nther
sheng
▁ngây
▁Rôman
ussia
<455>
▁trộn
▁Cinc
▁Ipswich
▁pur
▁Laurie
▁Mig
▁Por
▁Cỏ
▁Vaughan
▁Giorgio
▁mill
▁Es
▁vườn
▁Yemen
▁Gyeong
▁Chirkov
order
▁Cynanch
<1091>
<1857>
▁Kahramanmara
il
illaria
▁Canth
▁Kwangmy
▁Giff
ialis
icz
▁Washi
▁Rodong
▁Ectrop
▁won
▁VSATTP
▁Louise
▁Mueller
▁TTLT
▁Zucker
unning
▁ZTE
▁Hyderabad
<1417>
ygia
<646>
elus
▁Linda
▁Monica
▁Ngọt
▁Thuyển
erul
▁Simpson
▁gặp
eve
▁HĐLĐ
▁ngốc
ahoo
▁Harms
▁Live
andr
etes
▁chua
deen
▁mái
▁khiếu
▁fre
▁Latt
▁Target
▁niêm
▁quạ
itensis
▁Pour
▁Tù
lane
iel
▁Aduly
iter
<1134>
▁Kun
▁xốp
▁Ỏ
▁xấu
<167>
ge
▁xói
ovice
▁Ngõa
▁Radulaceae
▁lửng
ao
▁Faul
▁ITAR
▁luyện
▁lái
▁Anthicidae
ocephalum
ger
▁TBKTSG
ypus
▁FDP
▁Visual
íncipe
▁Blues
▁Heteroceridae
▁Kitts
▁nhiễu
eville
▁RIM
▁Columbellidae
inejad
chain
▁Minor
▁Savannakhet
▁Indiana
▁nuc
▁dehyd
▁Ins
▁un
▁nh
mran
▁Bani
Cap
Star
▁Acad
▁Takahiro
▁Patrice
<1506>
enco
▁rủi
ok
▁Olomoucký
▁Dutch
aries
▁Kuching
▁Fun
▁Tres
cht
▁Aneura
oxanthus
bas
odontidae
ophaga
▁VM
istor
▁Verne
▁Vert
▁đêm
▁miếu
▁Phái
GC
leyi
iêng
▁đống
ternat
▁Lồng
▁deg
▁nagar
▁Stir
chal
atl
DE
▁Rajaratnam
abh
struction
▁Ern
alay
▁Józ
▁mach
▁DƯƠNG
▁Decade
▁sắc
▁Rhine
▁verruc
▁Arane
▁Cua
▁Đàn
▁mich
▁rostr
<209>
ospor
▁Agar
di
▁Pohl
▁Janes
▁Bum
▁Leip
hari
▁EPA
▁Duter
▁Matviyenko
▁phê
ẳn
anus
▁Lầm
▁Thin
▁Markov
▁sz
▁chốn
▁Farley
chan
illera
ná
▁JMS
<1544>
<402>
▁Het
▁RF
▁rời
▁Ệ
▁Quắc
icy
▁Ped
▁ve
▁obovata
▁Điếm
▁hoán
▁Music
▁Ngư
▁lóc
▁Ẩm
▁Hanover
▁Mimosa
▁hèn
isse
attara
▁club
▁Hậu
yss
▁Vul
adona
▁Thói
▁Keane
chang
userre
▁Ah
<1386>
icht
▁Nakhon
▁Khor
▁progesterone
▁bif
▁Menendez
▁tomentosa
sey
ingidae
RNA
▁giã
▁Hoang
aml
▁kim
▁Xiêng
kinson
ưới
▁Dillon
éra
▁OSS
▁call
▁rụng
eog
▁Muhamm
▁Mg
▁GI
▁THAAD
▁Zone
▁ĐTNĐ
▁Platyc
▁Pleiku
vent
▁Euphrates
▁Hunts
▁Note
▁Chew
orpommern
▁Hana
▁vậy
▁Rush
▁Bé
▁word
olia
oxin
▁Sậy
kiyo
▁Hilliard
Ỗ
▁Cy
nic
▁ôzôn
▁Crow
▁Chúng
WA
<280>
▁Jagd
bius
▁?
▁Tướng
▁Francis
▁Mực
▁Andaman
▁Gazian
▁Pio
▁Monom
▁Samut
▁PRI
▁nhân
l
apat
▁lồi
▁quát
inidae
alts
▁Gior
iflorus
▁tể
▁Hymenophyllum
▁Subic
▁rứt
iyeh
▁Pard
▁Tatar
▁chành
▁AM
▁Smolensk
lag
im
▁sym
▁NPR
▁Sunda
toni
▁thước
▁CBCS
▁rung
ryi
▁René
▁nếm
▁Sokha
tai
▁Bort
▁mướp
énées
▁bảo
▁xoáy
▁anime
orf
OH
▁Phasianidae
asteron
ela
▁nhử
▁Agelenidae
▁Nel
▁Shimbun
▁Shue
erol
▁Kanwa
▁Piet
py
iculata
▁Bisc
▁Vers
▁Hối
▁Mett
▁Herman
▁Hạ
▁Yatsenyuk
ál
<1822>
▁livestream
▁Viêng
▁CNCH
▁hid
▁Navalny
▁LTT
▁marmor
stedt
▁Samphan
asty
▁Salvia
<29>
▁Middlesbrough
▁Rê
nor
▁Pois
▁Vải
▁rát
▁phường
BP
▁Uẩn
▁lui
▁Hatoyama
▁ICE
▁Fabius
▁Const
▁Elysee
▁Natalegawa
▁Pritz
<1558>
▁Hum
▁hui
▁sương
▁Vit
▁Salazar
▁Damm
rklar
<1523>
▁lý
▁McCl
istle
▁TPHCM
▁Sirleaf
▁Tam
<1595>
ze
▁Khuê
▁PKK
▁cúi
▁Maori
chyne
▁Trim
<907>
ler
▁Sab
<1795>
▁Blan
▁bôi
▁alen
▁cột
▁Jud
▁Bún
utsu
ocet
▁Chapman
▁nhão
▁Mlad
has
▁chỉa
▁pers
▁mm
▁Richie
▁Liệp
▁Nghề
▁Bengal
▁Viv
reb
▁Society
▁Vinalines
mei
OD
▁Darwin
NG
▁Dix
▁Zarif
▁Volkswagen
▁Vegas
▁Tas
▁Artemis
▁Lak
CO
▁Dit
▁gặt
▁Weise
▁Thúc
eof
aga
▁nần
▁Slovyansk
▁Reb
▁Dacia
▁ca
obod
amic
ites
rep
▁Focus
▁Xiển
▁PTI
▁ngơi
▁ill
▁phủi
▁macros
▁Armadill
<312>
itar
▁Spar
lô
▁hoạn
▁gran
▁Engel
▁ATV
▁Metropolitan
▁lạy
▁Shirak
leaf
▁hám
▁Eucl
▁Đài
▁nap
▁antenn
▁xiết
▁Phép
esk
▁đầm
▁Mecca
▁block
▁Henn
▁Wood
▁Tyr
▁av
▁Chronicle
▁Primula
▁Mir
▁Đơn
▁Mùa
perus
▁add
▁Heine
<1381>
eoc
▁Khua
▁hi
▁Guer
icô
▁Shar
▁Storm
▁chuối
▁Banks
QL
▁Fram
▁Hây
▁MINH
▁Tràn
▁Spec
▁collect
nez
aint
▁SGGPO
ayama
▁Clement
▁Europol
▁Monter
▁Wah
inov
▁Branc
▁Tech
▁Noctu
▁Reinh
▁divers
▁ráng
▁Extra
tê
▁bịp
ôl
▁Murdoch
▁Rail
dur
▁ải
▁Donna
orca
▁Moto
▁Transn
ilight
<1693>
▁Freeman
ảo
▁tạt
▁Hut
▁bugi
▁Gặm
▁Nih
thai
▁Romani
▁Campan
▁Ridge
uxoa
▁calc
▁Guad
▁xảy
▁carat
▁Pione
oscelides
▁lửa
▁Quốc
▁Uzbekistan
▁Gripen
▁Wanna
▁ky
▁Nomada
▁frigate
ic
▁Sung
▁Abdulla
<1433>
▁Lassen
▁Hâm
pos
<50>
lor
▁Pra
▁Nham
▁xẩy
▁NB
▁nhường
▁túi
cea
<57>
ikere
▁KP
▁Schenk
▁Blanchard
imac
hiy
▁giàu
▁salon
▁Đản
<1122>
▁ỡ
ẵng
▁Becamex
▁Em
▁Tac
▁Phnom
▁Harrison
▁Cộp
▁Cờ
aoui
ucida
▁Center
▁clav
epeira
▁Viagra
<734>
▁Atwood
ophallus
r
▁dia
▁Medina
▁õ
▁Ế
usia
▁champ
▁insign
▁CCTV
▁Hog
▁România
▁Conan
pent
▁CB
▁Apidae
▁nấp
tdl
▁Tencent
▁Gd
ũng
wana
tana
▁Torino
▁xơi
▁Phôn
stroemia
▁khoai
▁whit
bus
▁sưởi
▁Salping
<943>
▁phui
tron
▁Wight
▁Montpellier
▁Cypr
▁Sciences
▁DUY
gu
ione
▁pan
▁Đây
orum
▁Muell
▁PLA
▁Nở
▁Son
▁Elias
▁carbon
▁Khufu
▁nến
▁Harp
▁trồi
▁giông
▁Cantor
▁Lille
<1050>
aua
▁dởm
▁catwalk
LL
▁Vâng
▁Haut
▁rọ
▁mịt
osch
▁Moshe
formance
▁Cul
▁rườm
ito
atin
▁Gươm
▁Dres
▁Aba
iep
▁Doris
orin
▁Marac
rovich
▁ề
▁Alec
▁hước
▁Microp
▁Yv
adu
▁Pro
▁Tomasz
thy
▁Rhynchostegium
<631>
▁UF
<74>
▁_
▁Sell
icoides
▁Gonomyia
▁Ammoth
austa
▁tách
▁Ramirez
▁Gogh
abe
yang
▁Daesh
▁Bock
▁Đắng
▁Trachelipodidae
▁flav
<323>
SCA
acio
▁Myst
tonii
▁Qual
icosa
▁aeg
ogue
▁Ag
▁Cochin
<1802>
rec
▁mini
▁Dawn
▁Ghouta
eto
▁Clip
▁Schulz
▁Nải
▁Matt
új
▁điêu
oceras
▁Gemini
▁hủ
▁Rửa
▁Hole
▁Coppa
▁Omaha
▁thêu
▁NLĐO
▁Chữ
áy
▁Ole
▁Iskander
▁hách
ycidae
▁Shaw
▁Ghen
▁tủy
▁Cyrtandra
▁BRP
▁ITV
yrod
▁kor
▁Mùi
▁Season
quy
▁nêu
▁Gwadar
▁AO
moor
▁fri
▁Monc
▁Henryk
<1743>
<183>
▁Freddy
<513>
▁Michele
<536>
▁Sơ
▁Tango
▁Swiss
▁đẽo
▁Bering
▁Khiêu
▁Sình
▁Rằng
KN
▁Inuit
<1356>
iso
▁Thoạt
▁Nghĩ
▁vén
▁conj
▁Nike
▁Clau
nel
▁Kanagawa
▁fun
▁caudata
▁quẳng
▁Gorbachev
▁Bastion
▁Đằng
▁ICT
▁Kond
<1477>
▁Ton
▁ara
▁Olivia
▁bà
▁đạp
▁Robin
▁Baghdadi
▁Đoài
lorua
▁Bautista
jean
▁brachy
▁Fock
▁Yoshim
▁altern
▁phá
▁lẩm
<extra_id_52>
<1275>
xít
iaki
▁Constantinople
▁Đàng
<452>
▁Rút
usch
▁Tmarus
▁Olympics
▁bảng
ƯƠNG
<extra_id_93>
<1451>
▁Debalts
▁Wizard
kul
▁Nặc
▁mg
▁Rủ
▁Oxi
▁violacea
joz
▁Kôn
▁Trang
▁Gabriel
ập
abilis
agia
▁Cadn
▁Cololejeunea
<291>
▁Ts
▁mẻ
▁rủa
erve
▁muc
ỚI
▁Oóc
▁Duch
▁Lynch
▁Review
ịn
fiq
▁ctv
▁Morley
df
▁Onodera
eos
▁Journal
<87>
rons
oideae
<394>
▁Anadolu
▁Yvelines
▁ISA
▁Indomalaya
▁Hiếm
oly
ogh
<1382>
rul
▁was
▁Alba
▁Saf
▁BTP
▁jac
▁xở
▁Hawkins
▁Hamat
▁Ou
asil
▁miết
od
▁ISO
▁Eub
▁khoang
▁qui
▁tơn
▁Mobi
▁Lula
tun
▁thứ
wen
▁KTĐT
▁og
▁mac
▁Pter
▁oai
▁glucose
▁Polk
▁mir
▁Schult
arus
▁Phidippus
▁Veld
▁Asia
▁Uchiha
ật
▁Discolomatidae
▁Pavia
▁Miura
▁Khon
▁bằng
▁Faith
▁Championnat
<1468>
▁Presc
▁màn
▁tibialis
▁Marvin
▁dav
▁Jian
▁Admiralty
▁Andre
<1365>
▁Mabuchi
▁Ngừng
<extra_id_24>
<918>
▁Yasukuni
adej
▁Widodo
▁UK
unz
▁Lã
jong
▁Cort
▁art
▁Samurai
ris
ộp
▁giòn
▁be
▁imb
▁aet
▁Cách
▁Đát
▁dum
▁Connie
omac
▁Riverside
▁Khang
gren
<1363>
▁Hỏa
▁nộm
<204>
▁Agric
▁Stenopogon
▁Lyudmila
▁Fro
eoides
▁Belgrade
▁Wolff
▁second
▁KFC
ôxôm
ocnemis
sak
▁Net
ders
aps
▁Hanoinet
▁size
▁Cardiff
▁Verma
▁Tolstoy
▁Fier
osha
▁Cyril
▁your
▁Sửa
Ề
▁Ổng
▁Carnegie
▁Mehmet
▁Reunion
eben
ente
▁past
▁AT
▁CNTT
▁Osman
<1552>
ignata
▁gót
▁Baldwin
▁Gaara
aterin
▁Haiyan
dominalis
▁Ke
▁nhạnh
▁Bufonidae
▁moóc
▁Chenn
strong
▁GCC
czynski
unctatus
▁Ponomar
▁Lis
▁khoản
ryvnia
▁Heg
▁Metal
▁Montec
▁Amazonas
▁Bambang
▁quan
iệt
▁Chống
▁nạt
<577>
<59>
ello
▁chôm
koku
▁Cali
<1094>
US
<1400>
▁Ther
otan
▁nhọ
lades
▁XEM
▁Edwin
▁fasc
urensis
▁cà
▁Amer
▁Dasy
iales
egma
▁điếc
▁Carlyle
▁high
▁Nest
▁Barbie
▁cyp
ixel
▁Quan
▁Ixraen
▁Rodgers
▁Imag
▁toại
▁version
ges
quet
uther
▁Olig
set
▁Sadr
<317>
ries
itidae
▁segment
▁Kunduz
▁vẻo
▁Hosh
▁gương
▁UAE
▁Vist
▁Neosc
▁luống
▁Hôm
▁Shetland
racea
▁Phượng
▁BĐ
▁Cuneo
▁nhông
▁UW
▁Đong
▁Hangul
▁Ochyra
▁Elst
▁GMA
ostele
▁kéo
▁Circ
▁State
▁MQ
▁Glacier
up
▁Pelopon
▁Koen
<1737>
▁ADB
geh
▁RA
▁Travis
▁Khent
▁Nicaea
▁Bishop
▁Coni
borough
isada
▁Need
▁Appal
▁Stuxnet
▁hoảng
▁Tamb
▁eur
▁Apocynaceae
▁Ryoo
▁GAZ
▁Rhett
ed
jung
benz
▁occident
▁Chủng
oten
kins
▁Ajin
▁Bavaria
▁đại
<450>
<558>
▁Finistère
▁"
▁Talbot
▁Nang
<1707>
iophorus
▁PU
▁Xiph
▁Hypnaceae
▁chun
mine
▁Hitchc
odicus
apest
▁Cantabria
<1644>
erle
look
▁Tang
▁Jocqué
▁Tak
▁Giuộc
▁minus
▁Takao
▁lọi
▁CEC
▁League
ARC
▁Volodymyr
<485>
▁Maastricht
▁Sta
▁Gest
▁nháo
comm
▁Enc
▁VOA
▁nát
▁Yus
▁dỗ
▁kèn
▁LD
▁chỏng
▁Newtown
▁LRASM
ịnh
▁Zahid
▁Rã
ivity
▁đắp
canica
▁Cron
▁mốt
▁Spas
esus
yrin
▁Squad
▁Parall
▁Xâm
▁MP
VNCH
▁Telev
▁Laf
▁đem
▁Elbe
film
▁Verdun
<1731>
<559>
▁Keangnam
▁mập
down
▁Lieb
▁StarC
▁Dianne
▁sav
<1424>
▁nhì
igan
▁Fort
▁HSMT
▁Hello
inephrine
anas
▁Reading
▁Nkurunz
▁Carav
▁fat
<211>
▁Malay
odera
▁chay
▁Chà
unge
▁Polygonum
music
▁Hàng
▁Thằn
hand
▁Kef
▁VỤ
▁Kyong
fl
▁LC
▁nhổ
▁bơm
▁Bak
▁Sentai
illers
▁Awards
▁Cui
▁Trỗi
<763>
nata
▁Sound
▁Ged
▁Greene
▁suff
▁PM
▁cũi
ropia
▁Balochistan
<1510>
<1830>
idioides
▁Gaya
▁Cas
▁Dark
with
▁Fomin
ová
▁Brug
tzmann
<1489>
▁Isa
▁Charter
▁Dicranomyia
▁lit
▁Rubin
▁Gertr
<818>
rakhan
orsky
▁Shoten
psich
<1512>
imacula
▁Sierra
rok
▁Flem
▁Apost
▁Diego
▁Kentucky
▁Chos
<1671>
▁Holder
▁Award
orski
▁Kus
▁vui
▁bịch
utsch
<825>
▁Dryopter
oneta
▁Morg
▁Adana
▁Tomor
kes
▁ốm
ylen
<83>
▁Charles
àu
bach
▁quyệt
▁Yek
▁Éd
▁Tẩu
▁quyên
kido
▁Sonadezi
▁Glac
▁metyl
ên
cidae
▁Bromeliaceae
jen
▁Ozarba
penh
▁Cọ
EP
▁Tào
▁Đẹp
▁Tết
▁grac
▁Phl
▁tuẫn
imor
▁Ong
imes
iform
issimum
▁Emanuel
<1879>
▁kiệm
▁nghiền
▁tag
▁quất
▁family
▁Tegenaria
▁Amaryllidaceae
▁Petr
vas
tual
▁nhan
<578>
fah
▁Garden
<1320>
▁Juppe
<930>
▁Marquez
▁lẩu
▁Deutschland
▁thăm
▁im
opyr
▁gằm
ample
▁Lợi
▁not
▁Kogalym
▁hạc
▁Ciputra
▁o
▁No
▁Kant
▁Stich
▁Fot
▁Kirin
▁Pittospor
▁Alle
<355>
<391>
▁Tok
▁trèo
▁Vinafood
orhinus
▁canxi
<1412>
▁Oder
<1126>
▁Madeleine
▁Sanf
▁Gặp
▁rừng
▁Lopez
▁Máu
ardt
▁Xiêm
avin
▁tủ
▁MIT
▁Trồng
▁Pakistan
▁Khát
▁Ori
▁Dennstaedt
▁NCP
ill
▁sớm
▁Avon
▁Hymenoptera
▁ble
▁VKSNDTC
▁Tr
ashion
▁Darren
▁kamikaze
▁Tumblr
<1636>
<1789>
ết
ang
▁Dak
▁Tamerlan
▁IQ
sit
▁Doubs
▁Kurd
elman
▁đế
▁Epicauta
▁Marian
enthuc
▁Hidalgo
▁sóc
▁Hald
▁nghành
▁saxophone
▁dopamine
▁toác
▁Midnight
abel
▁Ian
▁thịnh
▁Jap
isp
▁Jar
▁bốn
▁Ding
▁Bruchidae
▁Tornado
▁Haus
ladbach
▁Crimean
▁chởm
sley
▁UNHCR
▁Curran
▁phụng
▁Dmitri
ifer
id
<248>
<extra_id_4>
apon
▁KGB
▁sem
ambo
▁Uruk
agon
▁Heinrich
▁Town
▁Cứu
▁Loch
▁formosana
▁Nhóm
▁rex
▁can
▁Glochidion
▁ferm
tone
▁Toh
▁nhãng
▁AFP
▁Caesar
▁Helicon
▁Stevenson
▁gừng
▁nứa
▁Mâu
▁Hacker
▁Cyrtopogon
<673>
▁Somali
▁Dem
▁SH
▁án
▁nhát
▁Libellulidae
▁Montreal
▁Total
▁xxx
stone
▁thôi
▁Burmeister
<715>
<1291>
ere
▁Đèo
▁Dolan
▁Furious
▁Chirita
▁Olymp
osoma
▁Dri
▁Jacobson
gun
▁ATP
▁Dragons
▁Rebel
annel
▁Bret
▁Nối
<190>
▁Idiops
azzo
▁xơ
▁Bianca
▁Rioja
orro
▁Webster
▁Alv
<1005>
ettia
▁Brotherhood
▁khai
▁Ka
zavod
▁Gubbi
<1145>
▁Trias
rash
urata
Ẫ
▁khá
eolatus
▁Kiềm
▁Agap
▁Gamble
ôr
CE
▁Hoffman
▁Pain
▁Via
omyr
▁Ades
PN
▁Xyr
rose
▁xyl
nius
▁Survivor
▁Spice
oha
icin
<1339>
▁Trong
zal
▁Dạy
▁Sốt
▁Atlantic
▁Nishi
▁Interpol
aland
▁def
inia
▁Rewrite
eris
ắ
▁Sis
antha
▁Vilaine
▁Tom
▁Boi
<701>
▁Túy
▁Velloziaceae
▁Bhag
atto
▁ích
ebra
▁Matsu
dep
▁Schel
người
▁Tẩn
▁Gasp
<4>
olk
▁Ramos
▁giữ
▁Campos
▁chùy
▁hero
▁hơp
upp
▁Kuj
▁iFan
<1244>
▁English
esar
avu
▁Hột
ÊN
ovo
▁bướng
▁khạc
▁Junc
▁Sora
▁Kirch
▁Silicon
ẽn
▁Restionaceae
aran
▁Helm
▁ESS
yrrh
▁THÀNH
ánamo
▁Historia
▁Hamd
▁Aires
▁PGD
▁Trichostomum
▁knock
▁ATGT
issa
▁sol
▁Tamaulipas
<1794>
▁cor
▁phiệt
▁Website
▁Neptu
riya
▁khoá
▁hững
elor
auge
▁hack
▁Rhode
▁nghịt
▁Nevsky
▁chãi
▁DVD
roides
olle
▁Mas
▁Kiêm
▁Natasha
▁nghìn
▁cop
árez
▁phỉ
ènes
▁xanh
▁Calliostoma
▁Maximianus
▁Let
▁bừa
▁Fear
▁Durban
▁Dome
▁Perr
▁diễn
ros
▁death
▁group
<1034>
▁Perfect
ỏn
lyn
▁Điều
▁mố
▁bưng
▁jazz
▁Harpact
▁Iskandar
▁Soelistyo
▁Salah
▁Burundi
acta
▁Ký
▁Khơi
▁trao
▁Movie
▁Thủ
ói
etin
▁Dread
▁Plants
▁Keith
▁sùng
rones
▁Phal
▁Most
▁Pakht
▁McD
ospila
▁Tới
▁sậy
▁indie
▁XSKT
▁sáp
iser
▁Tych
▁HY
▁thóc
▁Cal
▁International
yah
▁Run
▁Nineveh
▁VEC
▁AIIB
yllum
atari
amat
▁Suz
▁Shangri
▁Crete
Ảnh
▁Mahat
érica
▁Nava
▁Fanpage
▁thốn
▁sử
ival
▁TTXH
▁Aleyrodidae
▁SHB
▁ou
▁Glypta
▁Khabarov
identaceae
rius
▁Erek
▁Viktoria
sl
▁Abed
<1482>
▁Bằng
undi
▁Hig
▁Clo
▁OPC
▁GL
▁TF
▁Pravda
▁nô
▁Schub
▁Assyria
▁Trú
▁Tie
▁Mid
▁rufa
▁Khai
vatory
▁Takeda
▁Wendy
BH
M
▁Heian
▁Pê
▁Cận
▁Brook
etch
▁Wired
▁Prak
▁nực
▁QC
▁Quen
erus
▁Bulletin
acey
<400>
OA
▁Harrier
▁Syz
▁DARPA
▁Wilhelmsh
<401>
áo
▁thòi
▁Xồng
▁rft
▁Anatol
ensburg
▁thụy
▁Seung
▁Channel
▁võng
▁Pure
<55>
sen
▁Yanukovych
▁ngốn
<1764>
▁Saar
▁Zer
▁Doppler
ovic
▁Fitzgerald
▁Ga
▁Lem
▁Lego
▁Nd
▁Padova
<1075>
tham
▁ABC
▁Save
▁Pamp
▁Kohl
▁Touch
▁Rein
<1201>
<1342>
adze
zyn
<1410>
▁Porto
▁PVP
▁Dysderidae
▁national
▁Xóm
▁Jos
celi
hania
LXD
awar
▁Luôn
▁nhùng
▁Atlantique
▁nấng
ịa
▁Sevastopol
▁phận
▁play
▁Caracas
▁TBS
▁Rí
▁Fermat
▁Crasp
▁Avenue
▁năn
▁chiêng
▁Sarawak
▁Falcon
imation
<124>
▁Rich
igoth
▁gồng
▁Liver
▁Yar
▁Shig
▁Film
▁Lốp
▁Giáng
▁Gog
▁Decatur
▁Bên
▁Sường
▁Savile
▁Lisa
▁Parad
▁Bluetooth
▁Rostec
▁chao
▁Liều
▁xuể
▁lân
▁Birken
la
▁Pedic
▁Chulalongkorn
▁nam
▁kiêng
zin
▁Dianthus
▁khiêng
▁Cet
▁rợp
▁Domin
parta
▁đểu
robi
ise
▁Ghềnh
▁Tiết
b
▁ỵ
▁Shaf
▁Ep
uyễn
▁Grushko
n
<1101>
app
▁Tràm
anopsis
▁Rodríguez
▁cruc
NH
chor
▁Ingushetia
olov
▁Span
▁Job
▁mỹ
▁Luke
▁chôn
▁gro
▁flex
▁Magnolia
▁PlayStation
trata
<1260>
w
▁Horus
▁Hoff
▁Echev
▁Chấp
▁tầu
▁Sparassidae
▁Str
▁nhuần
▁RSS
▁Rup
ude
▁cons
▁Linds
alier
▁Chukotka
▁Butler
▁Agryp
▁nhót
▁Baotix
▁compos
▁Greyhound
▁Đực
▁Nhận
▁Đổng
▁Renzi
▁Otofun
▁Stanislav
▁Stephens
▁vịt
▁Ventforet
▁gris
yam
▁Fil
▁IP
ến
<812>
▁Internacional
▁Eun
▁FU
▁Kreis
▁Giá
▁Nu
óc
ướp
any
▁chánh
▁Columbidae
▁benzen
▁Stories
antan
▁Gira
hen
▁Franc
▁Lỳ
raine
▁Amen
▁Soryu
afe
<251>
▁ACL
▁Cor
▁Sur
▁Copern
▁transl
▁Hác
▁nhẩm
▁t
▁Hesper
ochrysa
▁Sok
<extra_id_32>
<1915>
▁Đẳng
▁Zanzibar
▁Bru
▁chưa
▁tài
nus
▁Maldives
òa
▁engine
▁Stewart
▁João
▁Ninev
▁date
▁sapiens
▁salad
▁end
▁Hajime
nagar
▁through
<1010>
▁Ful
▁chèo
▁Bor
eou
▁bẹp
▁Gói
▁Tortr
▁Thr
<1085>
▁quốc
ukh
obium
<1898>
▁Besch
▁Julius
▁Chh
ryidae
▁Landau
Ỉ
<783>
<1463>
▁macrophylla
ogloss
▁Cob
▁Kiển
ebec
▁lều
▁photoc
▁Kram
▁Sun
▁Molotov
▁gẫm
▁Kow
▁Minam
▁Apoll
▁Balear
▁PAN
<671>
▁TG
▁Adesmia
<1130>
kea
vi
otata
▁Shield
▁Bright
▁Bôly
<453>
▁north
▁sài
▁Academy
▁Lits
▁ben
▁Suthep
▁Yoshihiko
▁Heritage
▁chát
<554>
▁giận
olam
▁Jeju
▁Almaty
▁hardcore
enberg
day
▁tennis
▁Harper
▁AKP
jas
▁Clair
▁Lisboa
▁NST
▁urban
▁dâm
sdale
▁Cước
▁Lundell
▁Bỏ
▁Vince
bet
▁ngỗ
▁hớn
▁Allocosa
▁Ruhland
epala
iusa
▁Trip
▁Hắc
<1583>
▁ốc
▁Santalaceae
blade
rklareli
azu
▁Blanch
▁Heinz
▁viridis
▁Franch
▁soạng
▁Đày
osau
▁Titan
obo
abol
▁AFF
▁ĐTQG
▁Krak
ivsk
▁Se
▁lực
tsi
▁Mamluk
▁Ratch
▁cuspid
▁Chăm
▁Đắt
▁Benfica
oster
▁kol
<806>
▁văng
ba
▁Veron
▁khói
aceut
▁Eilema
▁Đôi
▁tua
▁OPCW
▁Kinn
<172>
▁áp
▁Zan
yn
▁phao
abo
▁sảy
▁Amazon
▁cay
▁ngặt
ische
▁Spielberg
▁obliqu
▁C
▁Chồng
▁limousine
▁Jag
▁Ôn
ostoma
▁Gass
▁CD
ISS
▁khóc
▁Serm
▁chằng
estra
entum
▁United
▁dắc
▁nạp
▁Rh
▁Bem
▁fib
<829>
▁Lybia
lex
▁MAN
non
▁thằn
DICO
▁sut
<1108>
▁ăn
▁Oxytropis
▁Kennedy
▁Clive
ụng
▁bu
▁
▁Ếch
▁Kirby
▁Ngoạn
▁Số
wh
▁Bof
seng
▁Theo
▁Vân
▁LĐBĐ
iyev
rom
▁iP
▁Raven
▁Narita
▁gấu
ako
▁KL
▁Togo
▁Chakri
▁THÊM
▁Novoazovsk
site
▁Pandur
itsyn
▁Maehara
▁arab
<1686>
▁Maar
▁Âu
▁Islamabad
▁lác
éal
▁Give
▁Ù
▁giây
▁hiềm
▁Get
radiol
▁Pek
▁gá
▁Bromley
icana
▁Barros
▁Este
▁Annie
▁MRI
▁thám
▁MN
▁Andriy
▁Debaltseve
ranthus
▁VI
IDA
▁chùa
▁Bú
egui
▁bám
▁chui
▁Sang
SAD
▁Turridae
berg
acab
▁Nearctic
itum
alyp
▁ik
▁Bọn
▁Laboissiere
mos
<747>
▁dic
▁EK
▁Acropora
▁Jaafari
elieu
▁Roy
uru
▁này
▁intermedius
oue
odonta
rapong
▁Mohamm
▁Gióng
osceles
icalis
street
▁Bachelet
▁ASD
EADATA
▁Podol
▁Villiers
▁chước
couver
▁nih
▁Rollins
indi
▁Không
▁sói
▁xoá
▁Pereira
▁phẫu
▁cycl
▁thải
▁Trắc
▁Brno
▁Cất
▁Erica
ê
▁Sele
▁Amelia
▁Antonov
ropsis
▁Castle
fax
onte
▁Burseraceae
▁Cirolanidae
▁vênh
▁bấc
ypt
▁xông
▁Rakhine
▁QPAN
▁Asa
asis
ochaeta
▁Gut
▁inter
▁Notodontidae
bit
gic
▁Luper
▁KIM
▁Đặn
dan
▁dìm
achne
▁Sàn
▁phòng
▁Savan
▁Hố
▁mut
▁Lậy
uring
<1031>
rik
nera
▁Olethreutinae
▁Lưỡi
▁quẹo
yama
▁Cardot
rua
dar
▁Local
▁BSD
▁cầy
▁vợt
▁remix
work
<718>
<1649>
ruk
▁đắng
▁Quên
▁Access
▁Tomas
▁Maki
▁Hiệp
▁Át
▁Adige
▁Masahi
▁Lia
▁ê
▁Lãnh
▁râm
▁Tuc
ensen
▁Tiberius
▁Đều
hian
yssa
<1423>
▁Eritrea
▁MDC
▁khổng
▁Ngoạt
othi
olver
▁SXH
ushko
▁Brandon
▁pulchra
▁hất
▁Nhim
oderus
staff
oko
ehir
Trung
▁Oryol
▁vẫn
▁Hall
▁giẫm
▁Lumia
▁pao
▁griff
<1086>
▁Day
raj
<886>
ped
▁Davallia
▁GĐVN
▁Trotsky
▁Domini
ẠM
▁Erythrox
▁psil
▁Bazar
azz
<1675>
▁doc
▁Tà
ochlor
▁Muts
▁kilôgam
rahim
▁QSDĐ
▁Nagano
tel
▁SET
▁hà
hio
▁pell
ingi
anoides
▁trán
▁Bremek
▁Fior
<1754>
<362>
▁Xuân
▁hoả
omura
▁Lèn
iras
alpa
ipedia
otti
▁bách
▁chuồng
▁Spang
<1331>
▁umb
osm
▁Dâng
▁gumi
▁Premier
▁Nees
▁Vinc
asonic
▁Chinn
▁trấn
▁Mến
▁mềm
▁rac
▁mốc
▁Laksh
▁Khomeini
▁BQL
▁Wink
▁Hezb
▁Palai
ụn
<143>
▁Turd
▁ẩn
▁ngát
<608>
ún
<extra_id_13>
▁Kur
▁Sana
▁Eleanor
jan
▁Ayun
kaf
▁Basra
▁Mệt
▁Feld
etooth
▁Angr
▁Sergey
▁los
▁Calm
aru
▁shi
▁trộm
▁xèo
ippines
▁Khrush
▁Sputniknews
ragona
▁Sart
izat
<117>
▁nệm
▁thym
▁oct
lerc
▁GBU
▁paul
▁mômen
ante
▁Strange
▁Amazing
▁Yuen
▁Podost
<1370>
▁Chrysler
▁Hemingway
▁game
▁platin
▁Tuy
▁Yeh
▁Soái
<1081>
▁Chụp
▁chọi
▁Anna
ritic
▁sk
<852>
▁hờn
▁náy
▁hyperbol
▁flu
archa
<1694>
▁Liverpool
▁Dok
somol
▁Nộp
▁Steen
cheron
mand
▁ji
▁Fury
▁Sagar
▁kiện
icl
▁Alert
pool
▁Bilecik
▁D
ìu
atop
yphylla
▁Semioth
var
▁Galium
jeune
▁Melanesia
▁Bich
hir
ornia
▁Uttar
aret
<1571>
▁Nab
▁sin
<2>
▁Carth
▁te
▁blogger
▁Lakhdar
eslam
tail
▁có
isk
ogaz
▁Xăng
<1828>
schaft
▁Hạt
ecklenburg
▁Bạo
▁Panda
otis
dt
▁Khuôn
▁Vẹt
▁Caucasus
erita
▁bẩy
▁Ngồi
▁Hotspur
▁CCB
▁Josip
▁concert
ặn
▁gợi
▁đìa
amura
▁đà
▁Aster
abra
▁virus
▁CAND
▁Oud
▁Slov
ayo
▁Raytheon
▁Toa
▁Dans
▁Schneid
▁vacc
▁tùm
▁Haf
▁Cest
▁hợp
lava
▁Lancer
▁rạn
▁Grewia
▁Gotham
▁Haupt
▁vir
▁trặc
▁Motschulsky
ivia
Ờ
orrent
<104>
▁Canađa
ane
shid
▁prod
▁Xanh
▁Belur
qing
<433>
▁cẩm
▁fimbria
hier
alka
▁Isk
▁Brussels
▁Herm
elea
▁simplic
▁Investment
▁nhăng
Que
▁Nãi
▁Ghi
▁Nihon
yric
▁sil
▁hạng
ọng
▁Pop
▁Xêút
▁sten
chtenstein
▁CSB
▁mẩn
araf
▁Lashkar
achos
lines
opomorskie
▁confert
▁Stipa
Â
<1441>
asso
▁Vat
<62>
▁Marant
▁dược
▁Kauai
▁Dn
▁sôi
▁Greenland
▁arsen
agus
▁Newsweek
▁Bạch
▁Sán
▁Calder
▁where
▁Vancouver
hur
uet
▁Dunc
▁én
▁Qom
▁Kamchat
▁NSA
▁Nghé
▁Borey
▁Thap
▁Hishammuddin
▁Trước
▁Demetri
▁mit
silon
▁dí
▁File
ods
ulaceae
▁gạt
ithec
▁Garcia
▁Sheb
▁Buy
estar
▁Camera
▁verticill
▁Aleuroclava
▁đói
osine
▁Ile
ian
▁Chấn
▁Vito
ippa
▁FF
▁thặng
▁khu
▁Aesh
▁đầy
▁Soa
ognition
▁SANA
▁Gak
ticum
▁vòng
▁mạp
▁Cândido
▁Therm
<276>
▁chà
▁Prey
▁tuỳ
▁Romano
▁if
▁Blitz
▁mồng
▁dĩ
▁Josh
▁Crit
<1728>
▁sọ
▁Nghiệm
▁mọng
ney
opod
nice
▁Valle
<1347>
▁Ozyptila
▁nhóc
▁Helicops
▁Phớc
▁Cologne
▁lẻo
uts
▁Anat
▁VD
▁ĐVO
▁thốt
fs
▁NLĐ
▁Tail
aeng
▁DMZ
▁Hw
▁Ishida
▁Đấm
▁oblong
▁sê
▁Chelon
▁Harding
▁mas
▁GĐ
▁Phất
▁lã
<656>
▁Ecnom
▁Humala
▁Eure
▁Seh
▁world
▁Gyr
▁Martins
▁Dev
kut
▁Discol
achlan
enet
▁NPA
endo
▁Ching
▁Burser
▁lụy
▁Kosovo
hoeff
▁non
Down
▁tim
▁xíu
▁Schol
yphantes
▁Bản
▁Mời
▁scope
▁Fros
▁lu
▁Omphal
▁Bess
▁hyun
▁Discovery
▁Raqq
▁Sechin
▁Khám
▁later
iformis
▁kyung
▁Pseudagrion
▁Arctic
sko
▁Atl
▁Evans
▁BD
▁Neck
▁ỳ
▁cứ
▁Horror
▁Debian
▁Mosc
▁nhụi
▁Friday
▁Vitebsk
▁HĐTP
▁kêu
▁vóc
▁Citrus
▁Ars
▁Connecticut
▁chrom
▁Barn
uxe
▁Chaet
▁Sv
teridae
▁som
Cloud
▁Safari
▁Rắn
awski
<1861>
<1560>
▁Parsons
▁Sisi
<1315>
▁Dos
IC
▁Brom
▁đắt
▁Shizuoka
amet
▁Swat
▁Krav
▁lỡ
▁ngăn
izu
▁Gilani
▁Ình
ison
Tôi
<834>
<1615>
ovski
▁Benoit
ig
▁Bôi
▁Moon
imum
▁Ổ
eman
▁tôi
▁Strai
▁Costell
▁nhã
▁Cle
▁lon
▁Strel
psala
▁Yoo
▁Arv
▁AMP
<156>
▁USA
WS
▁Cremona
<911>
▁chở
▁Haiyang
▁Leach
▁rob
<1763>
▁macOS
▁Jalisco
▁Gor
▁Tặng
▁Emilia
▁Excel
▁Stella
tic
UNG
▁kiếp
▁bo
arsus
▁thiu
▁Nippon
imbledon
IR
▁Denver
▁Tổn
▁Logic
luca
▁Sett
▁tiếng
ợp
▁McL
▁Mask
nhal
▁Vì
▁nhàng
▁Ih
▁Geras
▁trunc
<1096>
▁Can
▁Myung
▁Oph
<384>
▁Marathon
▁Garr
▁Rahul
▁Quyên
▁HR
▁Kashin
▁Hath
▁Mev
▁Sob
▁Benazir
▁Krasnoyarsk
enb
▁Chứng
▁Hyposmocoma
▁Bragg
▁Naut
▁chai
alm
hito
▁Montréal
▁Pari
▁CMC
ẹp
▁Heidelberg
▁Lopatin
▁Antonis
▁Trabzon
▁Họp
▁fulva
ampton
▁Kat
ưởi
▁Còn
▁Gry
▁ll
▁Gần
itis
▁Shiyou
▁Jen
▁Yoshin
▁Guide
ipennis
▁RD
▁Old
▁Jonathan
▁Palmer
Media
ST
▁gắn
▁mẫu
▁láng
▁nắm
▁bấm
▁leo
rov
ocen
lah
▁Vò
▁tía
▁Maher
▁Hadico
▁Đành
alius
▁Leone
▁fus
▁Nhiên
▁Pont
▁máu
ơng
▁tớ
ecom
▁Taiti
▁Cổng
▁ovata
<1641>
▁lưỡi
▁Abigail
▁Wan
▁VCB
▁tiệm
▁Cheumat
▁Eriogonum
▁stip
▁Strang
▁Pep
▁Javier
▁meridion
▁Colubridae
▁Quinc
esda
▁Firenze
<1494>
▁Kath
▁Soares
▁rub
vo
<585>
▁Burgess
▁Marinos
▁Ls
▁SCAF
▁pallens
gye
▁Hapl
▁Arrow
▁Noel
▁Cyprinidae
▁Grant
F
<679>
elb
amid
▁Hyal
▁Mầm
▁Ommatius
beek
▁Yer
▁Highland
▁VS
Viet
▁chùng
ults
▁Schneider
▁SITE
▁SNC
▁điềm
▁Thằng
▁Paz
yb
▁Celebr
▁Bresc
▁Leopoldo
yin
esty
▁USS
▁xê
ibirsk
▁Trevis
▁Malagasy
uka
rung
aden
▁Light
▁NVCC
ỳ
<1460>
<419>
<275>
eter
▁flava
▁Budapest
▁Kunth
▁mười
mb
▁mult
ancial
iton
riaceae
AF
▁yểm
able
▁anion
▁Mead
▁cha
▁goth
óa
▁dặm
▁S
▁barb
edlove
▁Yakovlev
▁rền
alon
▁Hydro
▁miss
oleptus
obac
▁Bold
▁Dịp
obi
ixis
▁ined
▁Glob
edev
yct
▁IIA
ricus
▁Shir
▁mống
▁Chei
▁Kil
▁Pit
▁Rum
▁Nine
▁Marm
<1265>
<1195>
▁tế
▁Cợt
▁Clematis
▁Orchestra
▁Lori
▁Inđônêxia
▁Srinagar
▁Gil
▁Eup
<274>
▁Theodor
▁lin
▁Brezh
omatidae
▁TẤN
▁NME
▁gộp
▁Hersh
▁Wab
▁two
▁chảo
▁Sakura
akhet
▁Vincom
▁Syst
elleri
▁Gué
ners
appus
▁rufus
▁Parker
▁microm
<1336>
▁Thales
▁Vern
▁ngôn
▁Prop
▁Holid
▁Lật
▁trụy
▁Hittite
▁Chivas
orld
▁Schist
▁Rhod
▁Bidens
▁Neph
▁Mc
▁Panorama
▁LSE
ophilidae
▁Tilland
▁Ned
▁Hơi
▁Churchill
▁Dad
▁cin
▁Nino
▁hee
vis
▁Jer
▁Dictyn
▁Gustaf
▁Alice
chin
ahan
▁Phengodidae
ulatum
was
phe
▁COM
iliata
▁Avia
▁tok
▁Wo
▁Chinanews
▁Kwang
▁sụp
▁UBCK
ophlebia
anthura
ép
▁Phyllonorycter
<925>
jay
▁bromua
▁Dật
▁Bek
anueva
ocin
ctus
▁mỉm
▁Kuchma
▁Akhen
ysc
▁cacbon
▁Nouvelle
<1825>
▁dơ
▁Cru
▁Muslim
alek
▁BRT
<85>
▁Inu
▁Abiko
▁Tutu
▁nung
▁sét
▁Dốc
▁ngước
▁Hágsater
▁rồi
▁Nigeria
▁Ă
▁xát
▁Klub
ithi
▁xay
▁Pleas
▁Đưa
▁Moeldoko
▁Donilon
▁methanol
amo
hang
▁Veszpr
▁ngưu
<1593>
▁Slaviansk
▁AAS
▁Guzmania
▁HK
Ù
▁Krym
▁Naj
▁erg
▁Eury
▁gián
▁Praha
▁Eminem
▁Argia
▁Tải
▁Dozy
▁Honor
▁Spike
▁Greenwald
▁pinyin
▁Klimkin
▁Chiều
▁biếng
▁Fet
▁Biện
▁Hội
▁Lap
▁Cherry
ige
▁Az
ors
<1666>
<1611>
▁hại
▁Căng
▁NORAD
▁Femen
▁Raf
▁Dodd
▁Steyerm
▁nhích
▁Heron
▁Tun
▁Iraq
▁Jerry
▁Osh
▁diễm
<984>
▁Tyne
▁chiếm
▁Jiang
▁sẵn
▁Nia
▁QS
▁Bard
▁Ui
aley
▁brunne
▁yunnanensis
▁Cyperus
▁Arist
▁Daisy
▁Thép
▁quýt
▁laptop
▁Send
▁Gr
▁Theraphosidae
▁Nưa
▁Bishkek
▁Vietinbank
port
▁Tàu
▁vững
▁pat
gat
▁Tờ
anin
<794>
▁México
▁Manche
olo
▁tiền
zia
▁Gin
▁Kumar
▁Lindberg
▁Mãn
▁BN
ting
<482>
▁Necker
▁Aulac
▁Keen
hiana
adir
▁Altiplano
<1734>
elidae
▁giày
▁ran
▁Yor
<1681>
▁Côn
icolor
▁and
▁Vientiane
mon
▁direct
▁Baotixita
<196>
▁ngh
▁Fow
emo
▁Kao
uensis
▁Sara
<extra_id_79>
<658>
▁nôn
▁Oliv
▁Ramzan
▁Stade
▁ICJ
osius
▁tuôn
▁Pau
▁quệ
ochun
▁Utt
▁bụi
▁Lyn
▁Lắm
▁Vênêxuêla
▁INN
▁calo
<1142>
uche
<870>
▁russ
▁Seb
roa
▁Marz
amex
uran
▁Leandri
<1654>
▁Scor
▁QU
ylis
▁Nemesiidae
mad
▁synth
▁dal
ascus
▁Mười
▁Kavkaz
▁Chrysopidae
▁An
ition
▁Páo
▁Bosphorus
▁Nhịp
▁MIG
▁Bungari
▁Johns
▁bùng
▁tranh
▁Stamford
▁Leptotarsus
ibank
▁Aul
audi
▁natri
eus
▁giễu
anos
▁Cantharidae
akana
odia
▁Vãn
▁Xiao
▁Guerr
enstein
▁NCB
em
▁chê
▁Kê
▁Jesus
omanes
▁Nghiêu
aeva
▁nghiệp
▁Bỉ
onti
ulator
▁Jard
<329>
▁Kem
<0>
▁Goy
▁Trudeau
mino
▁Lanza
▁Energy
<1517>
ước
<757>
▁HO
▁lụt
▁Atract
▁Myk
▁Arập
▁Chiến
▁Agrotis
▁Beck
▁Perry
▁Socorro
▁dị
▁Selez
▁Tany
▁IRGC
▁Yevgeny
▁dông
▁Herodotus
▁Uz
▁Sz
<915>
▁bã
▁UD
▁house
▁Buc
▁Lotus
<1154>
▁Thut
▁Bán
<310>
din
▁Amber
linka
▁Sweet
iband
▁Dụng
▁Richland
▁Lở
▁Luyến
▁Sêr
▁Hổ
▁Tuol
▁búp
ocki
allii
▁ngấm
▁Carey
onna
▁system
▁ref
▁barangay
▁Come
▁NS
▁KCN
▁pectin
▁Pietro
rict
▁Shimizu
▁Ucrai
▁QZ
emaster
KO
▁Legion
oku
shak
▁Garay
▁Julian
▁Lysenko
▁VIỆT
▁chiêu
zanne
▁Milne
▁Bùng
▁CATX
▁mé
▁trú
▁Reporter
ophobia
▁Woman
▁gòn
▁Johans
ardino
▁Khúc
▁Aaron
▁BAE
▁Cyrt
▁Oise
▁Khodorkovsky
▁è
▁Bernard
omus
▁Mok
▁Hasan
▁Ác
omes
▁Lionel
▁Prawut
▁OT
uch
▁Giant
▁Kihl
▁Vaux
▁Freedom
▁Emily
▁Soelist
rgen
▁Springs
kk
aty
▁Dug
▁Mưu
▁Vi
▁IA
petro
▁lén
▁Ửng
<1003>
abinsk
▁Grimm
▁Cupress
▁Cỗ
▁kiềm
▁Lou
▁Lạm
shu
▁cương
▁Rish
▁balô
▁Hex
▁Fact
▁tệ
▁fanpage
▁Face
▁Yasu
▁Briq
▁Cleveland
▁Dolgor
▁Thelypter
ecki
▁Plat
▁Kemerovo
▁trỗi
▁tươm
▁Klet
▁Cristiano
▁Ngôn
▁Baly
▁UNE
▁Rainer
▁Oxira
▁Pens
▁Edinburgh
ocar
▁roi
▁Gate
▁ISIL
▁Crypt
▁việc
▁Kal
▁Fang
▁Qe
▁Pernamb
ixtan
▁Pug
▁rìu
▁Kitty
▁Kitami
▁Uem
▁Nhảy
▁Sear
▁phách
▁Sach
<1656>
▁Bolívar
<832>
ference
ilinea
▁Yoon
▁fer
▁toáng
▁Wonder
▁EA
▁Poaceae
▁Der
▁Su
▁Barrett
▁Thornton
<1015>
▁Titanic
éa
tsch
▁Matsum
sfeld
▁Polygalaceae
<713>
oiduatin
▁Institute
ợm
▁ling
▁Eugenia
▁Bella
▁mướn
▁luân
▁Or
▁Fen
ishi
▁Maximus
▁Thulin
▁Orochimaru
▁Túi
▁Wins
▁Irắc
▁Services
▁Rì
▁Eid
<285>
▁Lý
▁Elizabeth
▁Silene
▁Jeff
▁Phoron
▁Shogakukan
nathidae
<571>
▁Pae
▁mủ
▁kỵ
▁Princ
rer
▁Jens
▁IGN
▁QĐND
▁Casa
▁nguyền
▁ĐẠI
sg
▁Cape
▁Tsai
▁Pyongan
▁HT
▁nhoi
▁Kany
▁oppos
▁Kaito
▁Ã
▁Argentina
hem
▁baz
▁dreadnought
noye
▁Takahashi
▁Tiff
▁Cullen
ulatus
▁Perd
▁Corb
kong
h
FP
▁thanh
oney
illo
▁Truyền
▁gradient
ava
▁Geometridae
atte
▁eleg
fin
▁Sankei
igia
▁BĐS
▁Pian
▁Middle
▁Centauri
▁ful
▁Laccophilus
<648>
▁UNASUR
▁Jackson
▁Mate
▁son
âng
▁pard
▁Loài
▁ind
▁nov
▁iot
▁Gaz
▁Ắp
▁hPa
▁Nikola
▁Smack
▁Bong
idos
▁Antiochos
▁vent
▁Erwin
▁ổ
▁kiều
alta
▁Đin
<1402>
▁Ai
▁nguy
eneuve
▁Dưới
▁UNESCO
▁Pres
▁Dynam
ạt
▁ghém
▁Giày
▁Rami
ira
▁hạn
ereus
▁Tx
▁AOL
<1793>
<1232>
▁Xanthorhoe
▁Stone
▁Ayl
ouz
▁nếp
<1695>
▁Newt
ambang
▁ester
▁Án
▁Petrov
aceum
▁Cordia
▁nơm
▁cạch
<1500>
idion
È
▁Boul
▁mác
boy
▁Randy
▁Haveri
anol
▁Org
if
oso
▁X
▁hai
▁Suth
▁Amph
▁anh
▁Đựng
▁Hoằng
▁Mog
▁QT
▁Donau
<135>
▁Coniopterygidae
▁Dực
▁Carol
orgh
opt
▁NSW
▁>
▁Vs
abwe
nia
▁Yulia
amanca
mugam
ukha
<950>
▁Cruiser
▁thaek
<1214>
ondo
tsin
▁CZ
▁Brign
▁Phantom
▁Chikmagalur
▁lap
reich
<extra_id_8>
▁gra
▁Fest
▁Agamidae
▁Schrottky
▁phùn
▁Jub
▁gy
iển
▁Cyrtop
▁phàng
eynman
▁year
▁Keita
▁Rat
otum
▁Cicurina
▁ASE
▁CVN
olus
▁bộn
▁Gallup
<1039>
ansh
▁Jump
▁Deutsche
▁Thạch
ianus
emis
▁amph
▁Beria
▁munic
▁Tixier
▁Bradford
enta
▁Tè
▁OIC
▁tris
▁tuột
▁Hosse
▁xó
▁KK
▁KH
▁gióng
by
▁Shanghaiist
▁Behring
<948>
▁Destiny
▁Bogdanov
<1812>
▁Trạch
NN
obry
▁Phrag
uya
▁GMT
ửi
▁AG
▁Qas
ẤN
igm
▁Grozny
ralia
▁Ắng
enre
▁chọe
▁Kate
▁otofun
Net
▁limb
<946>
▁Porsche
▁Usher
▁Saak
▁occ
▁Mumbai
▁Menz
▁Pesc
▁nigrescens
<1846>
▁DH
▁therm
▁nhá
▁Alejandro
▁thom
▁Fin
▁Koc
▁Vàl
<619>
ocladus
▁Lv
▁Pho
▁Dot
▁Scleria
▁ba
▁Tours
▁Diamond
▁Rosatom
▁Ella
▁Desh
▁gạc
wid
TCOM
ifi
wings
▁bong
nyi
acchar
▁Tự
unct
thia
ể
<882>
<extra_id_17>
▁Ru
▁Greenert
▁nghịch
▁Palace
EF
ari
▁aur
▁Choang
▁has
▁Nuri
▁Pickard
▁Stalingrad
▁Sihan
alaceae
▁Hudson
rard
vae
▁Grêgôriô
liptera
<180>
repid
rê
▁Way
EW
<147>
▁Bạn
▁Benev
▁Dialeur
ani
▁Tụi
▁CST
▁BLTTDS
▁Hobart
▁nạn
▁Bôn
ilus
▁mand
▁Nora
pl
omya
uồn
▁Kin
▁Nong
▁Middles
merga
amana
▁Gangwon
▁nữ
<853>
▁Aik
▁Phát
orov
enthal
▁Tallinn
▁Kamie
<1443>
anthus
▁Thir
▁Lopes
▁Ath
car
onis
In
isch
▁Chàng
▁Jamie
▁jp
mun
▁Repub
▁IND
▁liêm
▁CHO
▁Centromerus
<294>
▁ngà
▁TANDTC
▁rap
oria
weet
▁Kais
▁Koyama
▁Khởi
▁Ấp
<1351>
▁Sò
▁Juli
▁Gon
kheim
▁Từ
▁Steph
▁túa
▁hãnh
▁Rudd
elot
kae
itel
▁simon
▁IEC
▁Prag
▁Hủy
▁Komsomolsk
▁Pharmaceutical
▁Bù
EL
▁giấm
▁Laemophloe
▁Rà
▁Hlai
▁thesaban
▁Âm
▁taxi
▁Amata
ồn
▁*
▁Jes
▁iPad
▁Tolst
▁Cirsium
▁Rib
fect
▁Viktor
▁Khabarovsk
<1610>
chell
raph
▁amoni
▁Ulithi
ht
▁Xinhua
orr
▁Sul
▁Coupe
<1298>
▁Queen
ostylis
▁vót
▁Ngạn
▁Geb
▁gener
▁UCLA
RE
<102>
▁nàn
▁mưu
▁bênh
▁argy
Ủ
▁Visayas
▁Tua
▁Bram
<1316>
▁Miley
▁Rajapaksa
▁khui
uthis
▁Kris
▁Pup
▁béc
formis
▁pm
▁Chông
▁Hexatoma
▁Thơ
▁Voldemort
ctic
▁Marcel
ulata
▁VIB
▁Lesnar
▁Gelech
nette
<1868>
▁Vượng
▁thao
▁Vung
▁Msta
▁und
bani
▁Kn
▁Cơn
▁LINH
arkand
elva
▁ngoạm
<505>
▁PCT
▁Liparis
iventris
▁thậm
▁Odisha
<173>
▁Call
▁khe
anon
ocarya
avir
▁Araqchi
▁Dardan
▁Larijani
▁châu
▁Bali
▁Basurin
idenf
▁nhợt
▁Mild
ater
▁Thung
anense
▁wind
▁Cruis
▁Cóc
meri
amus
uv
▁mom
ective
▁Ưa
▁Khẩn
▁Speg
▁thắp
▁Lọ
▁Scopula
ygus
▁Leitão
▁Fabian
▁append
▁Jus
▁Đất
▁Thierry
<468>
<181>
othai
▁rêu
▁Bồ
idian
▁Zhukovsky
ints
▁Jedi
<1301>
▁Chơn
▁Sidney
nay
▁FSB
▁Tutank
▁Delgado
<839>
attis
▁Algérie
▁DWS
▁Yanukovich
chak
▁QĐ
<1254>
▁Nợ
▁Karol
▁Nepal
▁Marcos
rane
noides
▁Alexand
▁Gyn
▁KPK
▁Joey
▁năm
▁mucron
▁Gaston
▁Královéhradecký
▁Perl
▁debilis
<272>
▁trọc
▁tức
▁Savoy
sai
enz
agn
▁ngụt
▁Au
▁Rissoidae
riz
ometa
ulam
<756>
▁ĐSTB
alajara
<1376>
cer
▁BO
▁chỗ
▁contra
▁Luka
hart
▁Acalolepta
▁Mikheil
▁Cleopatra
<951>
▁iOS
▁Isère
<342>
▁Cameroon
hui
▁prol
ucta
▁Dioscore
▁Melaleuca
ction
▁Santander
ustic
▁Khobragade
arev
adin
▁Mother
icarpa
<1637>
▁Nik
▁XV
▁Britt
▁karaoke
kina
▁Wimm
▁pauciflora
oids
▁Eternal
▁Pe
▁Volga
▁Dậu
▁Buz
▁Shizuka
onax
▁Acontia
▁Zelenodol
▁Jour
ardo
▁Traf
▁bình
oz
▁Ptych
ashire
▁Pitt
▁Nhược
▁Jackpot
▁Cadillac
▁Tác
▁BTC
imus
▁đừng
▁Byzantine
▁KLM
▁Uttarakhand
▁Machimus
iver
▁chiết
alk
▁Naoto
các
▁papill
▁Bìa
iếng
▁Hành
▁Naoki
▁Micrath
apluat
Ta
▁Guetta
▁Alexis
▁histamine
▁Oswald
tech
▁VTV
▁Humboldt
▁Boumeddi
amun
▁Chop
▁Booth
▁Brooks
▁Kap
entan
ra
▁monticola
▁Cand
ophoridae
▁CSKV
▁Sấm
▁Cry
▁Anthony
▁Muscicapidae
▁Den
▁Today
tyon
▁kyu
stra
<964>
▁Liền
▁Jae
▁Yav
nch
▁Vet
isana
▁Barri
▁dán
▁Paper
ait
olae
ov
▁hydrat
▁Newbold
▁chĩa
▁đất
▁Xin
ươn
rinovsky
▁Kag
▁Sund
▁Angels
▁Ramallah
▁Grand
rata
èm
▁Said
▁tì
▁Fant
oge
▁Ingush
etiol
phys
▁Orn
▁tars
bot
▁Howden
▁HIS
▁Euryopis
oslez
▁Thomisus
▁den
▁phu
▁It
oman
▁Greatest
<345>
▁riết
mani
olophia
▁CMND
▁Dẫn
artment
guer
▁peso
▁Heliophanus
▁Tân
▁Richter
▁Hinh
▁Koi
▁Erig
▁WSJ
▁Piauí
▁Katz
▁Rocha
▁Pellenes
▁cái
▁phát
▁Longitarsus
▁Belle
gro
▁Augustus
▁Lời
CT
▁vector
▁Quinn
▁Phillips
aub
ủn
▁Margaret
▁Duyên
▁nhuốm
▁tập
ANG
▁Kro
▁CCDI
ilding
▁Salt
owan
▁ọp
fall
▁Seong
ved
▁Chernykh
kham
▁Castillo
▁Capital
▁Xạ
▁Pratyusha
▁Caloptilia
awno
▁pulchell
ophidae
▁giập
▁dép
▁Pác
▁oán
▁Latridiidae
▁ASEAN
▁rotund
▁Do
enty
<1447>
IO
▁Prosopocera
▁Plagiochila
untu
▁Camus
▁Antonia
▁EDM
▁Hòa
▁Yag
▁PK
▁longicornis
Ỹ
▁AIM
tal
▁Nêu
▁FX
▁ARIA
▁Pheu
▁Plec
▁trăng
<922>
▁Nicarag
▁Staten
▁Delphi
▁Lief
▁Consadole
▁Đớp
nhe
▁hanh
▁Carrefour
▁Kuznet
▁VJ
<716>
▁GT
ullia
▁Mazz
▁cung
▁MacArthur
▁tricolor
aces
▁rễ
▁http
▁sec
acent
▁Cocos
▁vệt
ống
▁Syriza
▁Cebrionidae
▁Giảm
▁Meur
ín
oded
▁Walker
▁Cruz
▁ti
▁Raph
▁Lead
orph
úc
▁kẹt
▁phải
▁bl
▁Baxter
<96>
<1635>
▁Rio
▁Nâm
▁seok
▁Cheryl
aign
<1771>
▁Jut
▁Crotal
ór
▁Picidae
KL
▁nữa
▁tạo
▁nghĩ
▁ash
▁xoay
arpum
▁Lóp
▁opmart
plen
▁Mắm
▁Ủng
ĐT
▁Pom
▁Nep
▁pal
ful
▁Berger
▁Rhynchospora
▁Rudolph
▁Malek
▁Castro
Berry
▁AE
▁FR
▁Schr
▁Malus
▁Rota
▁Phra
▁Spears
▁Hawai
king
▁Ket
umu
▁thuyền
▁or
board
▁Lorentz
▁MOS
ocampa
▁Rij
utonium
▁Heller
▁NHS
▁ư
▁Passer
otyph
▁Arcade
aldo
ỏi
▁Explorer
íp
ree
▁Svetl
▁Megh
▁palus
▁Adda
▁Wor
ewan
▁Zalo
▁Cắt
▁viêm
▁syn
▁Bullock
▁phăng
oxylon
▁quê
iaceae
<65>
▁Guadeloupe
▁Amar
▁Athetis
isar
▁Selen
▁Xảy
▁Siu
▁Ưu
▁Ll
▁Cassini
▁Brussel
▁Abaaoud
▁Frull
foret
▁tat
ateur
▁Brid
▁KDTM
▁Dendrob
<697>
ừa
▁vớt
uổi
ơ
▁Bornm
atoda
▁Broadwell
orn
▁Dart
oton
▁it
▁hex
▁Hipper
<1335>
ausen
▁Bk
▁Ưởng
▁Cym
▁cữ
▁Christmas
▁Tejas
eneg
▁Claudio
▁Common
▁CP
▁lư
▁Thein
elin
<1599>
▁Callas
porter
▁Koryo
▁ngoằn
▁NSC
▁Koy
▁Tripura
▁Prabowo
▁Aug
▁CL
▁quẩy
▁Clinton
▁NHẬT
▁Tẩm
▁Ond
athi
<1136>
<663>
▁Tại
▁Vong
▁thui
<765>
▁ặ
urin
iệng
▁Ramsay
▁SOHR
▁Guérin
▁Marketing
▁Russel
▁TOP
▁nượp
▁Coryd
▁Holiday
olls
<826>
▁trượng
▁Hoán
anderen
▁Muj
▁Pouteria
▁lute
▁Mới
▁Ev
osum
▁Cherk
▁rải
▁gen
▁Rhyacophila
oleaceae
oga
<1851>
<1890>
▁Thập
ampur
▁Sankt
▁Schmidt
▁Vios
▁Katsuura
hip
▁ATD
▁Fujimori
▁meta
▁Allah
▁Task
▁coll
ovar
▁nhẽ
<912>
se
eddi
▁HDTC
▁Switch
▁Cessna
▁Id
▁Reed
▁JCG
▁Haines
▁rubr
▁Nú
▁Qi
▁Rab
iona
▁XN
halli
▁Monde
▁esc
▁rơmoóc
▁giới
▁Sợ
tur
▁Và
▁orient
rike
<1719>
ocis
▁Thắt
▁Hypn
▁Dĩnh
▁Đùa
▁dil
▁sủi
▁Prosop
▁Mauric
▁đội
▁Kramator
▁Chơi
▁Kidd
ởi
▁Shakes
▁Merry
<1188>
ophorus
▁Sm
▁rọi
inervis
<1164>
▁võ
ilaceae
orpha
▁Thơi
▁Chinook
▁Micho
▁Malcolm
cticut
▁rang
▁Barton
▁GameSpot
▁Baengnyeong
▁Palo
<222>
▁Hanoi
▁Eublemma
▁nén
▁chung
▁Vyaz
ffield
▁Det
<1858>
▁gang
▁sexy
orrh
▁cart
▁Neves
ético
▁Schimmel
igliano
ezh
yeh
▁Mnet
▁Elat
▁Rubio
▁Yorktown
xu
▁Vadim
▁Bơ
▁trin
ank
▁Zelen
▁Frederik
Ầ
▁BKH
lya
▁Octavius
▁Skull
<1082>
▁Cảnh
▁xiên
▁Mộng
▁Sevmash
▁Trig
ustin
itin
phat
▁diox
inz
▁Tương
▁Leiden
▁Shell
▁Claus
▁nới
▁Pitch
<228>
▁Petrol
onne
▁vụn
▁Rev
<483>
ball
▁dặn
▁kil
▁Tường
▁Jor
▁Paspalum
▁tỏa
▁Melanie
▁Ying
mersant
▁nigro
IL
▁Lug
acho
bara
▁hội
enger
▁lốm
<380>
▁ngành
opius
erness
▁Anchor
<1873>
▁Tardieu
▁Abram
▁Aston
▁ngo
▁Zo
▁CEN
▁Grevillea
▁phẩn
sterdam
▁trĩ
▁Umm
▁Cấm
▁Hipp
<1608>
▁hirsuta
▁chủng
▁undulata
▁Japanese
abad
▁Yom
▁cus
<686>
ipula
▁Oleksandr
▁Núi
▁bida
▁Lần
▁Saber
▁Qusay
▁Cerat
▁Saenuri
<1621>
▁Corinna
▁GP
<690>
▁Plaza
òi
▁Lợn
▁Ohwi
▁Ko
▁trước
▁mở
▁Lost
▁BE
▁Lust
▁dắt
▁Leng
▁Trou
▁Raider
▁đa
▁Makhachkala
▁khăm
▁Bà
▁tỏ
▁Freycinetia
▁Vê
▁web
QSDĐ
▁Bus
▁Lover
ipl
▁Yamaguchi
▁Adobe
▁tum
▁rai
▁trang
III
▁Augsburg
▁Viola
▁tờ
▁Landmark
▁Wilkinson
▁ICAO
▁Nguyện
▁punct
▁Jing
▁Luật
▁Cerambycidae
ylvania
▁đét
radi
▁Stat
▁Holl
▁lờ
▁Erythroxylum
▁Swaraj
▁hóa
▁HA
<1059>
▁Hagen
ulose
chny
▁Nhung
▁Ivanov
▁Luyên
▁Magnoliaceae
▁Rak
▁Barcel
▁gó
▁Sphingidae
▁Cáng
▁ĐCSVN
ol
ly
▁Hob
▁Lồ
▁Gav
▁Poore
▁hard
▁Shelton
▁Archa
<80>
bin
▁Stev
▁span
▁Crawford
▁kilô
nau
eur
▁DAP
▁nảy
▁Eric
▁thạc
▁Vladimi
rolep
▁cune
▁Cardi
▁thảng
HC
▁Amb
▁Yaalon
rodin
▁Marino
▁Younga
racte
▁brevipes
<1166>
▁Alk
▁bia
▁Rock
▁Campbell
aci
▁Callip
▁ta
anch
▁Vision
ita
▁Ixora
<1302>
▁Champions
▁hộc
▁Kindb
▁Lothar
▁Bauer
▁Chamberl
▁Phn
▁Mycobacterium
▁Shimoga
ingia
alum
▁CƯỜNG
▁Arti
▁Adonis
▁Kabila
iễm
▁enter
▁Urag
▁Oleks
▁tỏi
ioph
▁chường
▁INT
▁lẻn
▁Nutt
▁Archib
uctus
aday
▁Corpor
▁Frog
urellidae
▁Evelyn
▁lèn
riel
▁Electron
▁Backeb
▁Khưu
▁Aver
▁Ữ
▁Daegu
▁Burkh
▁Noor
▁Sidewinder
ugawa
▁Ngõ
▁Christie
▁Ống
▁Hông
▁GRDP
ãi
▁Hermann
▁Vas
VCB
▁Bonaparte
▁IMF
ighters
▁Hitler
▁Carlos
▁McK
▁Lough
<618>
ophagidae
<508>
actis
▁ế
▁Maslin
Co
▁sáo
▁khước
atani
▁Shun
▁Dra
▁GIANG
evo
▁cap
acbon
▁Kenne
▁Tuva
▁lịm
inea
▁Market
▁Fig
▁INSEE
icosta
▁Annam
lax
▁phượt
▁Shay
▁Oblast
▁Vandel
▁Ip
▁vở
▁Donbass
rol
▁Stavropol
jazeera
▁Jin
▁Buck
▁Plin
▁Infin
▁Daiichi
St
yrodes
▁mươi
▁xinh
▁parv
▁Rica
▁Lacy
▁Kinshasa
▁ngạch
▁Hiroshi
cadion
<1033>
▁Ormerod
jab
<193>
▁lúc
▁Glyc
▁Midd
▁Brescovit
▁Ionia
<1837>
ento
▁Weibo
sson
iev
▁KR
▁ranh
▁Wat
enoides
nt
▁Northrop
▁Cho
▁Gạc
▁GSM
▁Chở
▁Breaking
▁Cựu
<1277>
▁Tog
▁Pavetta
▁Aceh
▁Pala
▁Barrier
▁Tahiti
▁Glong
etsky
▁yellow
▁Beta
SU
▁gáp
▁mẽ
▁lạ
▁rắn
▁Gavin
▁Algar
<1421>
▁miệt
ineus
▁Sall
acoce
lein
DB
▁Akihito
afar
▁Carlisle
▁Quàng
▁yen
ipan
osteroid
▁Tốc
D
▁café
▁pơmu
éril
▁Howell
▁láo
aeaceae
iope
▁VFF
▁hp
▁nigr
▁Francesca
▁VP
▁bus
▁dẹt
▁Rehman
▁Rockef
<740>
▁Cheil
▁Selenopidae
▁Lakeside
▁Otter
<1340>
hill
▁Boo
▁Ras
▁Cad
▁Òa
ail
impla
DI
▁hương
anthes
▁tư
▁Nao
▁Lafay
<493>
patrick
▁Mine
▁Ottawa
▁about
▁Bly
<1909>
▁Thessalon
apatna
ico
▁Desmidiaceae
▁ngạo
▁Qat
▁Dors
▁VX
▁hoành
ardia
▁des
▁Mikhail
▁rơi
▁Trag
<69>
▁gọng
▁gửi
▁Seri
▁Mân
▁venez
▁Thing
▁ệ
▁Ngai
▁Cổ
▁Sybra
▁USC
▁Bào
▁RFI
▁Cháy
▁Thị
▁Thốt
▁ram
ých
▁trẫm
▁atlant
▁rơ
SCO
eti
<1332>
▁Ratchap
<1844>
▁Yasumasa
<689>
uador
<290>
otidae
▁NGỌC
▁Meliaceae
▁NXT
▁Foods
▁Wars
opp
▁Pắk
▁Canav
▁Kr
yar
▁Belarus
▁XXI
▁DHC
▁hênh
▁Eud
▁Walckena
▁ngòm
▁Lanh
▁this
▁TBD
▁Brennan
▁biểu
▁Extr
▁Hern
▁Chặt
occ
▁đề
▁liền
▁Guadalcanal
leurum
▁đương
▁NTSB
▁húc
▁Lamp
▁Càn
▁nhằn
ther
▁London
▁Ais
phi
lay
▁verr
LS
emburg
▁Melanth
▁Britain
▁Energ
cs
▁olig
▁Kamp
▁Sava
▁Arabic
▁Ernest
▁Pico
nham
▁Acalypha
ymph
▁mark
▁Sikh
▁Alem
▁Huo
▁Hiên
ettin
▁Tớ
▁ơ
▁môi
iago
▁Braunsch
ophthalmus
▁Thái
tm
▁Doug
▁Mandalay
▁Terme
▁thuận
▁ng
▁Hebr
▁Posco
▁Football
▁Ku
▁Maung
<1524>
▁Sở
ôm
▁Tiền
▁Scap
▁TNS
akhapatnam
▁If
▁Weg
▁Huyến
<1907>
▁NTC
regor
rotis
▁cỏ
▁Champion
▁ent
coni
▁ngụ
▁hủy
<10>
▁Phun
▁Predator
aleur
▁field
▁phím
xus
ellite
▁Midlands
▁tát
▁HTX
▁nớt
martin
▁Hek
▁Panther
▁bổng
▁Xót
anthemum
▁Khoáng
▁Nhạc
▁STAR
▁ổi
▁Xưa
▁Pilg
▁Na
▁Hamas
▁Libi
pan
▁chỏm
▁Sign
▁Sup
RV
▁Dreyfus
▁luy
▁Ela
▁Rason
▁Volod
OR
▁Hant
▁Raman
▁chẽ
▁Azz
<extra_id_91>
▁Aran
▁gảy
▁đôi
▁tuýt
▁mật
xay
▁Zara
▁Dah
atas
watch
ochia
▁Eleuther
▁khách
▁bầu
▁Eden
▁mt
▁quyền
▁near
▁Bế
ooka
out
▁Shal
aeth
▁tenu
▁lạnh
enca
▁Aquit
▁Community
andraceae
akes
▁Peperomia
▁Guillau
▁Maggie
sta
▁Niu
rych
ación
ET
▁floribunda
▁Pab
▁phàm
▁Leeds
<506>
PR
▁Juarez
PE
▁UBKTT
ibel
▁miếng
estris
▁BMT
▁hòn
rob
▁Paste
▁McG
▁Rashid
▁Inca
▁VietG
▁Roberto
▁Surigao
▁Kartapolov
▁Sống
herty
▁Kazantsev
▁Walter
<218>
ubb
erg
asina
▁nay
▁Trạng
cum
▁borneensis
▁XB
▁Ark
▁lẩn
▁Aeron
▁Choc
▁giựt
▁Tức
▁muông
▁đoạn
▁lượt
aib
<106>
▁Shek
<877>
▁domino
FI
▁Sut
▁Sauss
skoye
area
ason
▁Toscana
▁Zahn
▁half
▁Mál
▁Alg
▁xá
▁que
▁Sno
▁Poroshenko
▁ISNA
▁Rue
▁serr
▁Hê
▁Bruchidius
▁tiết
▁VND
▁Khả
bes
etty
▁Nhau
▁Monster
otoxin
▁Mt
▁Lại
▁Burch
unc
▁Trib
▁Thamn
▁Klatt
ouard
▁rufipes
<1665>
▁Preston
▁tw
▁lổ
<944>
ascens
PI
▁SƠN
ovych
ouk
▁Aech
sche
grad
ishin
▁Catherine
▁Hash
▁trầy
ombeya
ollern
▁tơi
▁Cairo
▁nối
▁Calc
enei
▁Rabaul
<238>
▁Amenem
▁BrahMos
▁Database
ti
▁HĐTV
light
ías
<extra_id_39>
▁Hahnia
<1882>
▁Emb
▁Amanda
▁Nad
aldehyde
▁Nông
▁Giỗ
▁Tiểu
▁Rousseff
▁Helioph
▁bấp
▁Fourier
▁Ophiorrhiza
▁Dehli
▁Pharmaceuticals
▁Sê
▁NPO
▁Sip
▁Tariq
▁CDC
<913>
▁Dua
▁huyết
<980>
▁Epstein
onium
▁parviflora
▁đặn
▁oăm
▁bủa
top
▁Tựu
rista
▁mim
▁Breton
▁Zinoviev
mok
▁Pink
▁Cathay
▁Farrell
▁lòa
▁Rous
rano
▁Harvey
▁Phrurolith
▁Hànôịmới
▁Ypsoloph
▁Lùng
ênê
<1906>
▁truy
▁Fergus
ulosum
▁Eco
▁ekip
<1322>
▁Bolsh
▁mil
aedt
boro
▁cost
▁Ail
▁cướp
▁BKS
▁Romero
▁Schae
▁Zach
▁Emir
odactyl
▁Truth
<883>
▁ghi
▁Xoài
▁lạch
▁Pahlavi
gart
▁Trôm
▁Dornier
▁JC
athon
▁Pocket
▁Ain
▁Osprey
▁megap
world
ists
▁Ophi
▁trườn
▁Gyp
▁rùng
▁Livni
▁Ochy
▁Vickers
▁rada
▁Dressler
<440>
▁Drans
▁tour
▁Croc
▁Darius
<1791>
▁Gap
▁Jessica
▁Đak
▁Fr
▁Najib
<1042>
idine
▁Zheng
▁USM
▁Claire
▁Fresh
▁ĐCS
▁JP
<1358>
aku
▁xoan
õa
▁Federation
cơva
▁Moroz
quir
▁TRƯỜNG
▁false
itarsis
enia
▁Áy
oker
cept
▁Sophia
ards
▁khắt
▁GM
▁Hữu
▁Solomon
▁cằm
▁Ọp
▁Espin
▁Gorlovka
▁Hudders
amani
▁!
▁Win
▁Gur
HK
iliidae
udea
▁Mấy
▁Dost
▁FIDE
ktop
▁AK
RS
▁shipper
▁chè
▁tai
▁Kind
▁Killer
▁Cắm
▁Nov
alisco
aye
▁Hypt
▁Holttum
▁Virus
ali
▁Bardo
▁minima
▁Ngành
ờng
▁Khamis
▁VU
▁Lộ
▁thằng
▁Pá
▁Aqu
uto
▁Đúng
▁Inst
amas
▁Shipbuilding
▁THI
▁Spot
resun
play
liu
ifasc
▁Ahn
os
▁Sac
otes
▁best
▁Ava
▁Essonne
<1875>
▁Đọ
▁buộc
▁Alain
udin
▁Peg
▁rà
▁Hippol
▁Chal
<662>
▁Ôxi
seud
▁DPR
▁Matxcova
▁Frullania
▁Tinh
▁Yad
▁Has
<1580>
▁phục
▁Chur
▁publ
▁Shonan
▁Royce
▁Vass
▁Knights
▁nav
illand
▁điôxít
▁nhà
▁Claud
▁Baot
▁NKVD
az
▁Tịch
Hock
archenko
bil
<extra_id_9>
<1784>
ská
<340>
▁Ex
▁Baby
▁Lauter
▁trí
▁khác
▁Asc
▁Asad
▁caespit
▁Bolshevik
▁Phải
▁thắt
ilob
▁Hoehne
▁Yung
▁Episinus
▁Phib
▁Naka
▁Rod
▁Láo
UR
▁shot
ẵ
izo
▁soda
ey
▁McLean
<864>
▁Australia
▁Contra
▁Angu
▁Elae
▁ý
ôịmới
ading
▁Zhou
▁Tinodes
▁Jup
▁Fimb
▁blog
▁Mind
▁Saxony
quay
▁Von
▁clar
ispa
▁Myrt
<241>
omor
▁Demetrios
▁Mega
▁giãy
ognathus
▁Illustr
nek
World
utra
▁nín
▁Capt
▁tiếp
▁peruviana
ini
▁nó
▁axít
▁khao
▁công
▁Sue
▁Ala
▁Cony
▁vơ
▁Algerie
▁Okhotsk
▁Heng
KC
<1480>
▁Đáu
▁Taiwan
▁tú
▁Indianapolis
<105>
rima
▁Otto
▁Xuống
▁Há
▁Sieg
õng
▁guốc
▁Full
▁Purg
atm
<34>
▁Bushehr
▁Berry
ophrys
xicô
ifolia
▁Philadel
▁Alan
▁Sokolov
igo
▁lỏi
▁Kesha
▁Jou
▁Kids
▁NDT
▁Mithridates
ocus
force
▁AAA
<415>
▁Rhône
▁PGS
▁Sào
▁Nung
▁Psaki
<1037>
oa
▁Ster
▁lặc
▁Thér
▁Naples
▁Leioproctus
▁Ampul
▁Grenfell
▁prô
oàn
athus
▁Brz
▁xác
▁Komorowski
▁Hơ
▁TO
▁Language
▁Ridl
▁Chant
▁vách
▁Reigns
▁lep
▁Mueang
ipet
▁Mn
▁BSR
dn
▁Vào
cle
▁quách
▁Raphidi
▁phosphate
▁ấp
▁brasil
▁amazon
omerus
▁Ceratina
▁Steud
▁Bean
▁BlackBerry
▁nhầy
▁Sass
▁bre
▁Fritz
erse
▁Vend
▁hét
▁Nhu
▁Performance
<1648>
<556>
▁Đĩnh
▁Ná
▁Hér
▁cm
▁Toby
▁Comedy
▁Tsi
▁quấn
▁Voronezh
▁FV
▁Kardashian
▁Teo
▁Hải
▁Stanley
▁did
▁ml
ophthalm
▁Stu
▁Brooklyn
ueang
▁Papademos
▁Vĩ
▁ge
és
▁TNK
▁vuông
▁Oldenland
ni
▁Kuang
<367>
▁sylv
▁metall
yong
<1284>
▁Yukar
▁Dek
▁Buzz
▁Toei
▁Another
▁reggae
achis
<1056>
▁Dur
▁hiền
optera
▁ob
avi
▁Venez
▁tột
▁Rox
oidu
▁Pozna
▁cricket
▁Sỏi
▁Adele
▁cath
▁Patrushev
▁Buckley
▁thôn
▁Soccer
ocephalidae
▁ol
<1829>
▁Isai
▁Prinz
▁ped
▁venusta
▁Tzvelev
▁Interactive
▁sũng
▁Khod
▁Gruz
ript
▁Đôm
ashiro
▁nhức
▁Shakh
alen
▁Pied
▁Turbinidae
ewski
irensis
▁Rõ
▁Ngữ
▁ez
▁AWACS
▁Dac
▁californica
▁Cerop
wide
▁Rosenberg
idze
tsov
▁khung
▁fran
bang
▁Dober
bis
▁Suc
▁splendens
▁Gurion
▁Cid
▁Schia
iyama
▁Siluanov
<570>
▁thấp
▁Wikileaks
▁which
▁Prisc
▁Muh
TR
▁Branch
▁Sk
lk
▁Pest
▁Forest
▁telen
<604>
▁Hợi
êm
▁Boston
▁nổi
<449>
▁od
▁Nhứt
▁vali
▁Fay
▁Agrostis
▁quăng
▁Têh
▁af
<192>
▁fluor
▁Kiếp
▁ngoái
<151>
<1173>
▁Comps
▁thẳng
▁êm
▁Why
▁nứt
▁Duyện
▁Choszczno
ond
▁quấy
▁RMS
▁cache
▁g
idi
▁soài
esti
▁TNLĐ
▁Zy
▁Burkhalter
▁Jakarta
▁líu
▁Tuyên
▁sặc
▁Cẩu
▁Xôn
▁Pardubický
▁Heyd
▁Kadena
▁Bosmans
otrichia
pei
ierz
<920>
▁Cyt
▁lưng
anth
▁buồng
ivka
▁Hylaeus
▁Acal
kare
▁Shanmugam
▁Papil
▁Cana
▁sinensis
rovia
▁Tiger
▁show
rica
á
▁Dnipropetrovsk
▁cort
▁Cage
▁Maxon
▁Ot
▁Ion
br
<175>
▁Shakespe
say
▁Maharashtra
iêm
▁Stra
<1404>
▁Parv
▁LLTP
▁Đói
▁Beau
▁Gmel
▁Gốc
▁Platystictidae
mannia
▁Én
▁Phuket
▁Kew
▁Kazakh
▁ANA
ính
▁Piano
▁arch
▁Chess
▁gigas
▁uy
▁Lóng
icanus
enium
▁Phapluatplus
hotep
▁Romance
hwa
▁THẠCH
▁Adulyadej
▁SU
▁Print
▁Haji
▁Asura
▁Syrphidae
▁Wyoming
▁Benito
▁CO
urb
▁Imperia
▁bầm
roni
▁V
▁Bet
ský
▁đờ
mata
▁pour
▁Shueisha
ebe
▁Eliz
▁Fax
▁Connar
ae
▁sắm
▁small
▁se
▁Hind
▁Kang
iw
▁Stanis
<extra_id_83>
<1131>
▁Anatoly
▁ẵm
▁Pavlo
iker
▁Fowler
▁gộc
▁Leyte
▁Chickering
rab
▁Attelabidae
iffer
▁nhị
▁Ói
▁Nắng
▁Fif
<1715>
▁Poit
ania
▁Thayer
▁cất
▁Fitch
▁khô
▁Platycn
▁Thai
dale
▁Hills
ác
▁Pizza
▁Gironde
West
▁Olympique
▁anom
eský
▁Campo
▁lẽo
NO
irus
▁lẫy
▁Hosp
▁Già
ikatsu
TI
▁Jaya
▁punctatus
▁Duyệt
ves
▁nhóm
▁Marse
▁Chion
▁Gracillariidae
<1667>
▁Reyes
▁Haute
▁Lưới
▁Oxyopes
▁Microst
▁Mãi
▁G
▁Mlô
▁PC
▁God
▁Hour
▁Đượm
▁Ampulex
zyce
▁Lee
▁Ada
metall
▁Rosh
▁cil
▁Pờ
▁Vittor
▁Piô
▁Soviet
▁Schwarzenegger
▁man
▁Nguyen
vip
adena
▁Kiên
▁guan
▁Macro
▁Lecce
▁Wei
▁Sarkozy
▁Rosob
bel
▁Keb
>
<614>
▁Road
▁Evening
▁Javad
eks
<1178>
▁Trợ
▁Nazarb
▁Fisher
<1799>
▁quái
▁Symbian
<1526>
▁Verm
▁Hách
▁Poltava
<1469>
▁Olearia
▁Guill
<302>
erat
▁ce
▁Carthage
ặ
gol
▁Arb
ớp
▁hằng
▁Đậm
▁Ronald
▁Teen
master
ottis
angnam
▁Pei
▁lạt
<466>
▁vẩn
▁Eyes
▁Dolich
▁Hort
agrion
▁hipp
▁keo
▁luồng
▁Lyc
ret
▁Endomychidae
▁cùi
▁Phạm
ymus
▁Quýnh
▁Mêhicô
<1116>
▁Ig
ullo
▁Philodromus
ictus
▁Wagner
▁Tereb
▁NV
▁dư
▁fragilis
Chat
reg
▁Ahmadi
lywood
▁gam
▁Juz
otel
<243>
▁Ferrari
▁Chalc
▁Gianni
▁Gaming
▁FMS
▁Fico
▁thìa
<609>
▁Fumio
▁hep
<835>
▁anno
▁Mott
elium
▁Rizal
▁Andrey
eny
▁dát
▁hù
▁nả
▁wik
▁sig
▁tao
▁Thor
▁Anno
iec
▁Xavier
▁Anatolia
▁vựa
erk
▁Carolina
▁Vishnu
teri
▁Del
▁Instagram
▁Kardashi
▁Cầu
▁Sequ
gon
▁Wes
vat
▁Hilary
▁Chas
▁Pray
▁Lina
▁delicat
▁giữa
▁bỉm
akovich
▁Zon
▁Thù
▁Broun
▁tợn
▁brand
▁Cáo
▁khàn
▁rô
▁NGC
▁Neville
▁Biến
upta
Fone
▁nuông
▁khập
<1708>
▁Diallo
▁bới
▁Euth
undai
▁São
▁Poll
▁Dijk
ran
▁VIET
É
▁Jak
▁Galilei
rant
▁Temn
▁Andrei
arada
▁Indies
<1207>
alib
sburg
▁nếu
▁Lexus
aily
▁Zai
▁Ont
▁fish
rd
▁Tusc
▁đông
kiv
▁Jo
▁Omar
▁Đổi
▁Rôma
▁Giadinh
▁Ride
otha
▁Antigon
▁Banerjee
J
▁Zain
obar
▁Union
<1860>
hia
▁Bè
▁lẽ
▁sit
<1317>
asbeh
ATA
▁ruồng
▁obscur
▁lết
▁Byel
▁óng
▁xx
▁Gnophos
▁Quái
▁Turchinov
▁Antilles
▁Kashgar
ova
▁Saul
▁Nakhimov
▁mexicana
umb
anii
▁Hoạt
<170>
tti
▁Scottish
▁sour
TLD
▁south
▁Pik
azar
ilh
▁Verbes
isie
▁Clay
▁Plagioch
sville
▁Lân
▁Verb
▁Maria
▁Raza
kom
▁Kazimierz
actylus
▁Zang
▁McA
▁ảnh
▁titan
▁Đỗi
▁Salpingidae
▁laodong
▁chẹt
▁BXD
▁Crassula
▁sầu
ictidae
▁Ceres
rath
▁Trừng
kho
▁Nueva
▁Ngưỡng
<1353>
▁bơi
▁HCM
<332>
at
arajan
catus
▁Ried
apeu
▁Stav
▁Lydia
▁lẫn
▁OECD
▁thuỷ
▁Medici
▁phátxít
▁lucida
▁Alawite
▁Ng
Ý
▁đới
▁Trích
eni
▁mút
fat
▁Garc
▁Tephrosia
▁Hyuk
▁cười
cal
▁comm
▁Action
▁Eniwetok
▁Mel
▁Alberta
▁Manitoba
▁BLGĐ
▁lúp
▁Baranya
▁lar
▁Loxosceles
▁IB
▁Tràng
▁Epiph
▁vietnamnet
▁Dermestidae
▁MẠNH
▁Gab
▁Nir
▁Aero
ersen
▁Tipula
<874>
▁Kevin
▁Hil
▁Theodora
▁Thav
▁Braga
▁Perseus
▁Trot
▁Kor
ocene
▁Cosa
▁Rey
▁FSA
▁khiếp
▁Hous
ẻm
▁Mogadishu
▁Angkor
laki
▁DIA
▁BMD
QS
▁Đởi
atal
oles
▁AQAP
▁pr
▁Lauren
▁Stanford
▁Hille
▁Napolitano
▁Didym
▁GX
<1513>
▁Godzilla
▁McFaul
▁Cis
▁Đau
▁Irene
▁sủng
▁Andrea
otriches
▁toment
pson
▁graph
▁Rooney
ẩy
asz
▁Tèo
▁tiều
▁Lazada
▁Pittier
uro
<1296>
raf
▁Kagoshima
arb
▁ẽ
odar
rass
ocoleaceae
▁Hiểu
▁Batt
éro
▁Yasum
▁ISI
ote
▁Peru
▁Tahrir
fth
▁Rohingya
avský
▁Tiếp
▁sếp
▁Phẩm
▁Tahir
▁Vedan
▁Psitt
▁Polycentrop
▁Sum
<1286>
<1007>
▁Roosevelt
▁TL
rana
▁casting
ionidae
▁Geographic
<623>
pel
▁Playboy
eri
▁ối
▁Asparagus
▁khéo
▁Ngoại
▁width
▁rành
inder
▁Oslo
▁Afyonkarahisar
▁Yakuza
ƠNG
▁Ctenus
iland
▁yeon
▁tịt
▁Vũ
▁Logunov
or
▁chậu
▁Jorge
▁Takh
▁bốc
▁Gregor
▁Cordul
<1171>
ắt
▁chị
▁gracil
▁chíp
▁Yue
▁Sharif
osterone
▁Adidas
▁PRISM
▁Prat
▁Scot
itrium
▁Doha
▁Tơ
▁Maw
▁Hộ
▁Shinsengumi
▁Chaly
▁vol
▁xùm
▁Ashton
▁NBC
iza
▁Kwangmyongsong
▁Carcelia
ourea
▁nan
▁Compton
▁cocktail
osiphon
▁MENA
<1682>
▁ằ
▁Mull
▁Anchorage
▁Sus
▁Deo
▁Essen
▁Downing
ep
ecta
▁thumb
<1590>
▁Taen
▁Dưa
chnyj
idus
▁psych
▁Chị
inae
▁Vượt
riet
▁test
▁DSI
▁neph
amot
anny
▁Belize
▁Geoffroy
▁Norman
▁Danny
▁mè
▁hừng
▁NL
▁Casey
▁Osmaniye
N
▁Tutankham
▁Shinkansen
▁xuôi
▁Guantanamo
▁Napoléon
▁Abhisit
hig
▁arcu
▁Math
▁Davis
▁Labor
▁Fatah
bird
▁lầy
▁Archimedes
▁MBH
▁McLachlan
▁Dino
▁Vanuatu
▁PPP
▁Mayor
▁Kuntze
▁phosphor
▁Sed
▁Gaut
▁wh
▁Com
▁Malacca
▁Cartagena
rs
▁Psychomyiidae
▁Diospyros
▁TSA
▁Beatles
▁Spetsnaz
▁von
ayam
▁bakeri
▁Sond
▁HTV
▁cảnh
▁Pleopeltis
▁Khương
▁chật
iko
▁mine
▁Scel
è
▁cồn
▁lớ
▁Mann
▁AVG
▁Ôzôn
rach
▁rhod
▁Ngắm
▁Atletico
▁cup
▁sik
Cl
▁chù
▁Seen
<1645>
heed
Times
▁Tats
▁East
▁Toho
mania
▁Chinh
▁Games
▁Tonga
▁Luna
▁cài
atis
▁Giăng
▁Oks
▁Smir
nok
▁Katip
▁Prith
▁Independent
▁Nacional
▁Edison
otaceae
▁Tamer
▁bầy
ron
udh
▁Spi
<1464>
ayev
▁Tartus
▁Hond
▁rig
▁uống
▁Mah
isson
▁Kadokawa
▁Third
▁Lob
▁exilis
UB
▁Sold
▁sultan
▁bor
▁Baill
▁Saff
essor
<420>
▁Artem
▁Novos
▁Senegal
▁Bulgaria
ứa
▁Giam
▁real
int
evsk
▁gạo
▁Ort
▁flash
▁lổng
▁Geithner
▁Kut
▁Cool
▁Aslan
▁Calophyllaceae
▁Harbour
▁Huffington
▁vỉa
▁Puma
▁kal
idonia
▁dẳng
ự
▁Nat
▁Sussex
▁mét
▁Bổ
▁gr
▁Coul
▁Mav
<160>
▁Silv
▁Dơ
▁kilômét
▁Fulham
▁Sym
rada
▁Hib
LOS
eres
▁Starbucks
▁già
▁ngạt
▁Chế
▁Johnny
▁transvers
▁ON
▁Viking
▁ven
▁HẢI
<123>
<706>
▁cận
▁Bos
▁9
pha
▁Jó
▁xăm
▁Campanula
▁aph
▁fam
imana
<1008>
hisar
▁Dess
richia
▁ã
ocles
rava
▁Cheonan
▁Giôn
▁Kid
<1594>
aeta
▁làm
▁exp
▁làng
▁bir
▁thơi
▁Fahd
▁Đòi
<extra_id_30>
▁Syracuse
▁Lủng
▁Korn
▁Rhac
▁Dni
<1834>
▁Gibb
▁ví
acidae
▁Tus
▁Esch
▁Winnie
▁Low
▁Kasper
▁AIP
▁bóc
▁nuốt
▁Dữ
▁Mend
assus
▁Rajiv
▁striatus
▁minh
▁Leucania
osma
▁Ghana
▁nhụy
▁parabol
▁Cause
▁Standard
▁Shiite
eshi
▁Vậy
ƯỜNG
▁ôxít
▁nhạo
▁cấy
▁Malag
▁plac
quensis
▁Đeo
undum
▁chợ
t
▁Sánchez
▁Sorry
▁bal
▁Kênh
oon
▁Yangon
▁Ulchi
eg
▁Wimbledon
▁Alexandria
▁Duty
lo
ostachys
▁Ẩu
iani
▁Kady
▁Đắp
▁Stalin
uve
egh
▁Mỹ
▁CONMEBOL
âm
▁cuối
▁Ach
▁Glee
▁Keller
▁Ngoài
▁Vực
▁Dap
▁Valve
Ỷ
▁Pseud
▁vượn
▁đưa
▁xyanua
zeb
▁Kông
▁Xác
▁Lex
▁Savo
arai
▁Yatseniuk
▁Nag
long
▁bicolor
<1102>
▁Tạ
▁Davall
▁Kita
▁Sev
▁Knowles
▁Borneo
▁Dôme
▁báo
agen
QT
▁Erz
▁mẩu
utth
▁Genoa
oura
▁FC
ongensis
▁Adnan
▁giê
gary
▁Elvis
▁thorac
owii
▁Sté
imia
▁AirAsia
haus
▁Severus
▁sến
<1026>
▁Quỳnh
▁Lakes
ERC
▁trùng
<960>
ids
▁magna
▁Bourbon
▁Ishigaki
▁lít
▁Thuế
nha
▁nude
▁Sath
▁Triệt
▁Ehr
▁Chloroclystis
▁Borngen
▁Enterprises
▁thảm
ublic
ât
eric
▁sám
▁toi
elta
▁Fasciolariidae
▁pra
▁Thạnh
acter
▁Desc
ole
▁Rồi
▁Huawei
▁Abaúj
anis
▁Chea
oxus
ri
▁Plus
▁Stutt
barga
▁when
▁trương
ằng
▁Nagar
▁Bombus
kou
▁Bruni
▁Bougainville
▁TIME
▁Basel
▁approxim
▁thùy
▁Betula
▁miên
ens
▁dai
hoven
▁Pack
▁nhiêm
rek
▁One
pressa
▁Arlington
ựu
▁Heraclius
skii
▁Odin
elda
▁trào
▁Ran
▁PDRC
▁Neot
Ể
<1774>
▁Dalmatia
▁Kale
▁Yên
ord
▁Cheney
▁Butt
▁Orientales
▁Ulyuk
▁NE
▁sanct
opimpla
celli
▁điền
▁Commelina
▁Wil
▁Clif
▁Felipe
▁Argent
▁Aphrod
okawa
<714>
▁Natal
ife
▁Midway
▁ruble
▁Juncker
oun
▁Huy
▁Sans
▁gầy
▁Chen
?
▁Fernald
▁Coonabarabran
▁Prince
▁funk
▁Alex
▁Berm
▁TM
▁thuyên
▁Leningrad
ad
▁Emirates
▁Vikrant
aré
▁Katrina
▁QUỲNH
▁Krylov
uridae
ops
ony
ullah
▁chanh
iopsis
▁Khosrau
bold
▁Kaen
tax
jiang
yl
outi
▁mỳ
▁Go
imoto
utherford
ayyad
▁lign
<346>
▁Quao
ilac
▁Goldman
▁Nhơn
▁Shai
▁Lafayette
▁Justinianus
▁NGH
▁Prudential
▁nhả
ui
ocarpum
▁Hurricane
▁Break
▁Sổ
▁az
▁lõm
▁đố
▁Pasc
▁Quyển
▁Killip
▁đốn
▁Laser
▁Khoát
▁Diy
▁Mein
iler
▁Xavi
▁Nottingham
▁trắc
▁Ngạch
ever
cie
▁jih
▁Ngòi
born
▁KC
▁Dragon
wari
▁Hayashi
orchis
▁Nagasaki
ashev
<1449>
▁Sinclair
▁LH
▁Kiir
olabus
▁peri
nut
▁Yuz
▁Soricomorpha
emp
▁Universal
▁Takfiri
▁IISS
▁Jas
▁Guadalupe
▁Philipp
ann
▁Gert
▁Szatm
▁Oánh
▁Mb
▁Porcellio
▁Canc
▁Novosti
irm
ăn
▁Fernand
▁Gà
▁Watanabe
▁Tex
gn
see
▁Sot
▁Leicester
▁sumat
▁mp
▁men
▁desert
▁common
▁Stereodon
▁Kishii
▁propin
▁Séné
▁Ethi
▁Mor
▁top
▁Ducke
▁tằng
▁Edith
▁Sảng
▁túm
▁theo
▁TNGT
▁TD
▁Koehne
<1672>
▁phộng
▁bác
▁PCI
▁Dominican
▁Neoscona
▁NHK
eo
▁Ayy
▁Myrmeleontidae
▁bìa
▁Ston
▁Anopl
▁Logo
▁bazơ
<582>
▁Gund
▁Lycosa
▁Malaya
▁Auckland
▁Abruz
▁Elo
nom
▁Pắc
▁Quy
▁Schltdl
▁Vietsan
▁leon
axim
▁Eupatorium
agiri
▁Litva
ephal
▁Grimmia
▁Rz
▁Honduras
▁Washington
▁Aichi
▁Buhari
▁Khánh
wagen
▁Athan
▁Muốn
▁Amas
enner
▁váng
▁lạng
▁Exciter
▁penicill
ailles
▁Eriocaulaceae
<98>
▁bền
▁Gilbert
EAD
▁ngờ
▁Hugh
encia
▁Mỳ
emon
▁dõng
▁BOT
▁Nuevo
▁Watson
<217>
imaculatus
▁Warm
▁Thản
▁Ami
▁xụp
▁Par
▁mic
▁Vaj
ianth
tonia
▁sóng
▁khuẩn
▁Myanma
▁Admin
▁Again
<1078>
▁Maluku
▁xao
▁ass
▁Scarl
▁axetat
▁Kaoru
▁đùng
▁Kuhl
▁báy
▁mind
▁hạnh
▁Mayer
▁Scytodes
▁Faz
▁Gorham
▁tuồn
osorus
▁Thọ
unes
ẳng
▁CDP
▁Seymour
▁Gomph
▁ham
etis
▁love
▁Tyn
<677>
▁maj
<288>
<15>
neis
▁ạt
we
▁EG
▁judo
▁Erics
▁Đón
▁Anast
▁hũ
▁Bayb
▁Vásquez
<477>
▁Jr
▁Core
▁Bavico
▁HC
▁đành
▁Lauder
▁đổng
▁Thrau
▁Thẻ
▁amyl
▁Hook
ogen
▁A
▁Indom
▁hydroxit
icifolia
▁Asahi
▁Acanthod
▁đụn
▁Nặng
<514>
▁Liam
▁Yee
▁Gelechiidae
▁Ạch
▁chips
istance
▁Mansur
▁hye
tical
▁Fukuda
<1413>
▁Som
▁Molina
▁Tay
aman
▁tàn
▁gà
▁Duke
▁Rui
ary
▁Magna
▁Oc
<1437>
▁BK
▁Integ
iffe
z
▁Amur
▁Verd
hyun
▁Wag
ide
xing
▁TN
▁Hotline
▁Geograph
▁xiềng
▁Hampe
▁minutus
▁Say
gur
WAS
▁Yel
▁GA
▁POS
idal
houn
cephal
sto
yal
<413>
ụp
ta
▁Toan
▁quinqu
▁Naryshkin
<1601>
▁Đền
▁GDP
niya
▁tiện
▁Dar
▁Nobita
rato
guk
eom
rk
▁Yoz
<993>
▁CAO
▁Joseph
<1420>
▁Chử
▁Damian
<369>
▁ngào
auk
▁Tetragnathidae
▁Elb
▁khiêm
▁Flo
▁wolf
rates
▁Powell
<337>
▁Hye
▁Tránh
DN
▁Indig
ỘC
▁Samara
▁Spider
estro
jee
<1548>
▁Phasian
▁Schw
▁Ficus
<1769>
donia
aras
▁Number
owska
▁Gan
▁Oas
ingen
ariq
▁Py
<1273>
▁but
▁Ola
▁Pathum
▁Mourinho
▁Mễ
iria
ulation
istria
▁Tiếng
yt
▁đươc
▁phanh
mur
obrz
▁Vogt
▁khắc
▁coca
▁Mbit
▁Gerst
▁Tachibana
▁MiG
▁Mord
▁Khá
jak
▁talk
▁Mendels
▁Sultan
▁NRA
▁Vijaya
▁Brian
▁đỗi
<17>
▁bè
▁Tad
<1245>
▁Đẫn
▁Veneto
▁dạo
▁Humb
▁Henrard
▁Kuznetsov
▁Felic
aucas
▁Nature
<1052>
oboda
▁Jayapura
▁Palear
▁U
<1706>
skaya
▁nghị
akorn
▁FA
▁Love
▁Tovichakchaikul
PT
▁Meteor
▁nép
▁ad
▁Corri
al
▁TNBT
▁Eclipse
<1495>
▁Kremli
▁Kalinin
▁Mick
▁Perm
▁Hammer
osissima
ốm
iềm
▁Bóng
▁Ương
▁tráo
orax
▁Rùng
<1663>
<651>
ắp
<1605>
▁beg
▁biếu
▁Charleston
▁Kuwait
▁TTTT
▁Loong
▁Khắc
▁Muammar
▁tràm
gang
▁intermedia
▁kl
ère
▁crass
▁stud
▁khoét
xa
▁Xo
▁Chibi
▁Khoan
▁cảo
▁Suleim
▁aequ
▁Slav
▁Hariri
một
▁tái
▁Tekir
▁Koss
▁Conch
tach
▁municipal
▁ngầu
▁modesta
▁Poland
<159>
▁sưng
▁Mores
qué
▁Lương
<177>
▁Khoai
petes
▁Katy
▁Cockerell
orama
▁Sheph
▁Rò
▁Flight
▁Birth
▁tất
▁Lib
emic
▁HV
▁vẹt
HO
▁Plum
<456>
fee
▁pit
<1121>
▁diễu
▁thế
▁răng
▁xẻo
▁Shinichi
▁Đá
▁subsp
▁Region
▁PetroTimes
<750>
▁Torp
oàng
qui
▁AMD
othorax
▁pin
▁Ắ
▁Generation
▁Hani
<1307>
▁Cụm
oven
▁Makassar
▁Concep
▁Cyphon
▁Peleliu
▁Ất
▁Barbuda
andens
▁Heb
▁Resour
tress
idan
▁Gingrich
ellum
▁choai
▁Homo
▁Phủ
▁Ammophila
▁ESM
▁sứt
▁Sik
▁Tournefort
▁Pyrene
▁gờ
▁Samantha
firi
▁Norwich
▁NGUYỄN
uosa
òn
aet
prom
▁Towns
▁huy
▁Cobos
▁Sl
▁chút
▁Wer
▁trồng
<206>
▁Mainz
▁Teng
▁Owens
▁Moure
▁salic
▁Wunderlich
▁Ahmose
epro
▁Miên
erner
▁Victoria
▁giai
▁Disne
▁Vl
acanth
▁sởi
yanin
▁Shib
▁Cưỡng
▁Sounds
▁Helic
▁Cost
▁Tank
SV
▁DAPA
<684>
ropus
akin
▁Ranch
▁Konstantin
wara
▁giở
rida
ibus
iodes
▁Chich
▁Hường
▁Tc
▁chilensis
▁tụt
▁lũng
▁Method
<1891>
lott
<1009>
▁Byd
▁Empires
▁Sog
▁Prun
▁Coh
arp
▁Bần
▁Polt
▁Việt
▁pô
▁Olom
ozone
menes
▁Parn
▁Fol
ás
Torrent
▁Lãn
▁Trigon
▁motor
▁District
endez
oye
▁Philippe
▁cần
acanthus
▁sỡ
▁Quỷ
lawi
▁Gerhard
▁opioid
▁Raw
▁Mian
ju
▁Rights
▁Ptin
▁Chiapas
▁Cricket
fri
▁Adri
▁HL
rnberg
▁Mujah
▁Wi
silk
▁Yonhap
tor
▁Basic
<1045>
▁Zahar
▁tè
▁Villers
▁lao
▁Dm
▁nhịp
▁Akita
▁rỡ
▁Kasparov
oub
▁Oleksiy
▁Bobby
▁lườn
enae
▁Vertu
ilio
▁Giật
▁Bok
▁Poklonskaya
ensin
▁Teleg
▁nigra
▁Ngập
▁Saturd
▁bảnh
<991>
▁Brett
▁đĩa
▁Palatinate
som
<1673>
▁nghĩa
<1550>
▁Prairie
▁Hastings
eneveld
izza
▁Polyg
<38>
igna
▁tuệ
▁Trở
▁lú
▁đoạt
▁Zou
<469>
▁Munich
▁Obser
▁Chhattisgarh
▁ă
▁Philippin
▁Odo
▁Demon
▁Vinacon
Caprio
▁Donn
arensis
▁NaCl
▁Pechora
anax
▁Kyrgyzstan
▁trối
▁Wyn
oclava
▁dur
▁Dynamics
unkh
▁Kishida
▁Koidz
<1913>
▁thự
▁mart
▁Mercury
meister
▁Bal
▁elongata
▁lắc
osia
fon
▁MacD
▁Loạn
leton
etala
▁Fyodor
▁hết
<711>
▁cãi
ophilus
AD
led
aunt
obacter
oán
▁JTWC
▁Oita
▁Judith
▁Solid
▁Albert
▁Valois
ows
▁Lít
ữ
orning
▁Graf
▁Crassulaceae
arraf
▁Saviors
▁Dialeurodes
▁Konashenkov
▁điếm
▁sign
▁Varoufakis
▁Bark
▁Uy
▁Jefferson
▁sỏ
▁vơí
▁Diplazium
▁xxxx
▁rần
▁lb
allus
▁thuật
▁xưng
<extra_id_38>
▁tong
▁demo
▁lơ
▁Myrmec
<1613>
▁Ji
▁Reis
<866>
▁Weissia
▁Vỉa
▁Pred
icia
aguchi
▁RFA
▁Koval
olid
<985>
aum
▁Yous
▁GV
<1569>
▁chèn
▁Bogot
▁Phoen
otype
<1619>
▁Râu
okov
▁Siêng
CK
<1847>
▁đong
feld
▁exc
▁Carbon
▁DL
▁Hel
▁Ray
▁super
opl
▁Chang
▁ngọc
▁Dent
▁Achae
▁Borg
▁ậ
▁Hus
▁Musharraf
▁Edmond
▁Sayy
<130>
▁khóa
▁Alb
▁Travel
▁Ponce
rawi
▁Urb
pet
▁Yêmen
▁Armadillidae
▁trụ
▁Eut
▁Schmal
holm
▁Akk
▁thềm
IVE
▁Ravenna
▁Tông
▁Sân
▁ATVSTP
▁Dreams
▁Cá
▁robot
▁Miễn
▁đã
but
archus
▁Loại
▁vĩ
▁dì
▁Ferr
▁Ms
▁Agnes
ựa
▁Coulibaly
▁sor
▁Pilar
eru
▁Lotte
<517>
ij
▁nhoài
▁Calv
ourg
▁Hokk
▁CĐT
▁Hmeym
▁bật
▁đếm
▁Beats
▁Asif
▁Oxalis
▁Yell
▁Nus
▁Productions
▁Inner
▁hức
▁Clav
▁Schinz
▁Saropogon
hl
Ẹ
eamine
▁Thraupidae
▁ethyl
▁Trogoss
uyệt
▁kiên
▁bỉ
▁Brezhnev
oed
▁Iwate
▁Kyok
▁racemosa
▁Vader
<597>
▁Larry
ergic
AMA
▁nhác
▁Andhra
▁lữ
ưm
▁Tch
▁Menzies
▁Andersson
▁Bras
▁check
▁Moo
ile
▁rách
▁Thạc
▁BGD
▁hộ
▁col
▁GS
▁Kurdistan
▁VKSTC
old
▁Japan
▁Brig
▁Pò
▁giao
▁Brong
▁Devi
▁sq
ichrysum
ianthera
▁Azul
▁Khum
▁AEO
doni
ổ
▁Jules
▁Nymphalidae
▁brunnea
▁Ắt
▁tiên
▁Cunn
▁amphoe
▁Leverkusen
▁Háng
▁Shahab
annon
anker
▁Hamad
▁phông
▁Suss
▁LS
▁Slim
▁đực
▁Daf
Zulu
▁velut
<895>
<396>
▁Acanthaceae
<1484>
▁TI
▁yến
▁Sand
▁Crim
▁sord
▁NSƯT
▁Magnol
▁Seed
▁fall
▁OL
▁Anad
▁Galeotti
▁cợt
▁Radlk
▁Isle
KS
▁Vitt
▁Emma
▁Coral
▁Stol
los
▁them
uw
▁Josephine
▁Cowboy
▁Yoshits
▁Nên
amu
▁Guatteria
▁sinu
<extra_id_37>
▁Ott
▁Veronica
▁phập
▁Vari
▁tru
▁Rập
▁Keyserling
ABank
▁Hann
<1684>
uyệ
▁cephal
▁Yousuf
▁Ngu
▁Len
▁Himmler
▁hoạt
▁Ahrar
▁CPU
rapt
estone
▁Lieberman
▁Phry
<784>
▁thóp
▁Sector
▁ĐÌNH
vironment
▁đác
▁princ
▁Viềng
aueri
▁hem
▁Siberia
usus
▁Linn
▁Pérez
▁Abkhazia
▁Saladin
▁Sen
▁Hoài
▁Minsk
▁rh
ums
▁Studies
akar
▁Tuấn
▁phạm
▁Richardson
▁Slovak
bau
ralis
odi
▁nigripes
▁Sheraton
iata
ivision
aina
▁Province
▁Benoist
▁TNVN
▁Kurz
uachi
uhl
▁Khanh
▁code
▁địa
▁Nà
▁nòi
▁Moor
▁Bela
▁lốp
▁Kabul
▁Fog
<816>
oland
ulosus
▁Paraná
otine
nath
▁Harry
▁Jason
▁Mỗi
▁Dam
zno
raer
▁Publ
▁lutea
<295>
▁đèn
das
▁Sàng
▁Alzheimer
▁Cường
▁Lus
▁Cork
obarb
▁sant
▁chấn
▁Cun
▁Zurich
▁hàu
▁Nieder
ery
idas
▁Khó
▁Mau
▁NACC
▁Laura
▁Pteridaceae
▁Poz
<461>
▁Lên
▁Chiền
▁Làng
▁PHẠM
▁PCR
▁Prof
GS
<283>
▁thuyết
Ọ
ikov
▁CNC
▁DSCA
▁Thu
▁Bước
▁Vostok
omics
atsuki
▁Kail
▁Đôí
NTN
▁Thiện
▁Latinh
▁Kemer
▁ngoài
<575>
avarman
▁Muội
ventris
▁Volodym
▁stand
yat
▁Nguy
ochloa
▁Sanga
<1399>
▁Mald
<1390>
▁Alib
cheong
chyn
▁Bandar
▁Croat
RT
<479>
▁Mez
▁Trident
▁Philipin
▁lứa
icaule
▁dồn
▁rệ
▁Yakut
▁Gone
▁pseudoc
▁quang
rian
▁hoe
ozh
<1803>
▁Prov
▁Buff
▁Juno
rona
▁Chirac
▁BF
doch
illing
▁Phẫn
▁cheo
▁nive
▁World
▁fallax
▁JASSM
▁NSX
▁Lỡ
▁pilosa
▁ec
AFI
▁Fal
atom
▁Sarg
▁nhỉ
cul
▁Noord
det
▁Tomorrow
▁Gerais
▁nucleo
omon
▁Descartes
▁Norris
▁Lebedev
▁Omer
▁lệ
▁Chưởng
▁Hent
▁metal
▁Chớ
▁Hurriyet
▁moi
▁Duval
▁Crotalaria
▁lần
▁Hayek
▁Alaska
jima
▁Nauru
<553>
▁Citt
▁lề
▁nít
ification
▁léo
▁bat
<214>
▁Balboa
<328>
▁Sốc
▁robusta
với
▁Kato
▁Cục
uck
aisal
▁Likud
▁Rochester
▁So
▁Canyon
ledge
▁Kuhn
ị
▁Krem
▁Alz
▁Renn
otom
▁Đảng
▁j
▁Iqbal
tefai
▁Italian
<908>
▁Stam
▁Ida
ag
ilee
<210>
▁American
▁thiện
▁Jungermann
▁Nan
▁Palmyra
▁Triana
▁plus
▁thoảng
▁Isar
▁Hagel
▁Humbert
perience
▁Baonghean
▁PHÚ
dag
▁Chikkaballapur
▁sic
▁Gobi
▁Oda
▁Progress
▁fo
▁thống
accharide
ois
▁đớn
▁Foundation
▁Thiêm
▁Birds
▁xịt
odka
▁lầu
▁Horm
▁Fée
▁Zuckerberg
annis
▁Ariadna
ithecia
Ó
▁Benf
edit
aic
▁Abbey
▁rình
oncus
▁Kaspar
▁Chungcheong
<427>
VC
ỡi
▁bọn
▁Nhé
▁Đêm
▁Beng
▁lym
▁Vernonia
<1067>
erh
▁Tượng
▁Angry
▁Ruộng
▁Bosna
▁Heracles
▁ròi
▁Haqqani
▁bội
▁Mặc
icaulis
▁rupiah
▁Nhiều
▁Fred
▁Monroe
▁sibir
andin
▁Nón
▁tả
▁Bund
▁dors
▁đỡ
▁Chee
▁ten
▁Valentin
▁DOS
▁Cavendish
oan
▁Mất
▁Lai
▁hirs
▁Kiệu
▁Nhiệt
▁tho
athan
▁Cymb
lê
▁bạch
▁lepid
Nguyễn
illy
▁Garrett
▁Extreme
▁Nguồn
▁Battlefield
▁Growler
▁HND
▁Porcellionidae
▁Thửa
▁true
<1804>
▁tuy
rieri
▁Mịch
▁Pterolophia
▁hồi
▁CEO
▁Werder
ograd
▁lèo
ontinental
omas
▁gly
▁Pristimantis
▁acanth
track
▁Microlep
<1084>
▁Vahidi
▁dừa
<163>
▁nọc
▁Gondwana
▁VŨ
▁Duran
▁Antei
<1124>
▁Manm
▁Francois
▁thiểu
▁Cyl
iner
engers
▁chệch
▁capill
<extra_id_14>
<491>
▁Caporia
▁Gau
▁Kobane
▁p
▁CG
▁Nancy
▁Ghan
tee
fert
aequ
▁Calyp
▁mà
▁BG
▁Bruno
▁USAID
▁Ink
▁PLVN
▁Takeshima
▁Mirage
▁Puget
▁Rack
▁Depp
▁Sep
▁Perez
▁Beech
▁Paju
▁Ilya
<1293>
<407>
▁music
▁hòa
▁Ust
▁Dalbergia
ayak
ilidae
▁Mạt
ets
▁xây
▁TOS
ylon
auss
▁Rô
▁Wien
▁Svet
▁hêrôin
<262>
▁Stefano
core
upi
▁Ngh
▁Nghịch
▁hướng
obates
▁Lepanthes
▁thùng
▁Pia
▁Almeida
▁Legends
▁FK
▁q
▁Yasen
▁Pr
▁Technology
▁CNQSDĐ
hion
▁Jord
▁Gas
▁Jupiter
▁phụ
▁Lửa
pong
▁iPod
▁Kuy
▁DPJ
▁Pac
▁Amr
▁ornata
▁Petrop
ổng
orh
▁Kenichi
▁Ishin
bala
▁humeralis
▁Antioch
▁UAV
usai
▁SOS
oste
▁stress
ipalp
▁Babylon
▁sanh
▁Aleksandrovich
▁XML
▁gùi
▁tonkin
▁Lena
atus
eke
▁Khieu
▁gãy
▁Mountains
▁Kỵ
▁ga
illata
▁Sats
▁AI
▁Inside
▁Grev
▁Barnes
▁Hats
ehogne
▁Siham
▁Hollywood
▁máy
▁ẹ
▁Hè
▁BSC
▁Lựu
▁QLTT
▁tăm
▁Osamu
▁Telangana
<823>
iru
endron
bourne
▁Wisconsin
▁final
rest
ĐK
▁Garry
▁Vissan
▁Kanye
▁phố
marachne
▁Leigh
▁Đần
<pad>
▁Cát
▁Chesapeake
▁tạp
▁Ngải
▁Kbang
▁Ankh
estia
ilv
▁Ritz
<1886>
▁Map
▁Carney
▁Tortricinae
▁GMP
▁Paradox
▁Bulgari
opus
▁CGV
▁kình
▁ghét
▁Ultim
▁Cannon
▁uniformis
anga
▁IG
▁Bỉnh
ll
▁Malvinas
uba
leria
rei
▁Ascoli
ayat
▁Ting
▁Ext
▁Prawit
▁Pharm
▁Waterloo
▁Mahar
▁Trichon
<1732>
▁ươi
<1864>
An
emouth
▁bêtông
▁Avenger
▁Kensley
egas
<1750>
▁Kiều
▁Chevrolet
▁PVTEX
ernia
<1653>
▁xám
ld
▁gạch
▁Brandenburg
▁Vig
▁Guerrero
▁hoen
▁Randall
▁vr
sm
&
urak
▁Gl
▁Qing
▁Ect
▁Your
▁Mò
▁karate
▁Riau
▁Bị
ules
▁Phương
▁Viettel
▁BHTN
▁pound
ouf
icola
atro
▁Dat
▁bậy
▁Gum
▁Illyria
vik
▁phun
aca
▁Moses
àm
▁myr
ifel
IS
▁Shapiro
Ar
▁Germ
<242>
▁Rim
▁nhe
▁Karn
ochlamys
hof
▁đáo
▁nor
▁chuyện
▁Quần
opidae
▁gấp
essler
▁Equ
otic
▁Label
▁hích
▁Eileen
▁Kyi
imble
▁Xyri
▁Hart
▁kun
es
ơì
▁Kamb
ipat
▁Laguna
▁Brahmos
anews
▁Anders
▁Dow
▁Mén
▁soc
▁Chevrol
urm
ino
ogatari
ủ
▁Badr
▁Cess
▁Riss
▁Lùn
▁Sulawesi
▁Kup
Al
rof
▁UNODC
▁Exim
▁Fry
umar
ghur
▁tắp
▁Double
lett
▁Spacewatch
▁Sphaer
▁Scyt
▁nằng
▁Ibar
ocentrum
▁chóc
▁Xim
<1446>
<998>
osph
▁Churkin
▁Whe
tram
▁Tethys
fam
alina
isl
▁Fi
▁bướu
omot
<1862>
▁Diplomat
▁nhớ
▁Lycidae
▁Tilly
▁Velvet
▁Concert
▁Mạng
▁status
tera
▁Vần
Nh
▁Harvest
▁hẻ
▁Korat
▁Jund
▁Alia
oglio
▁còi
bury
▁Waterhouse
▁KDT
▁Dimitri
▁Hans
▁Hứa
▁tóc
▁organ
▁Calvin
▁vê
▁Daraa
▁boy
perm
▁Gener
▁hàn
▁Suê
▁Plut
▁à
umer
ais
icos
▁Ald
<extra_id_80>
▁for
▁Calymperaceae
▁nục
▁pyg
▁Roth
▁Môn
▁lánh
ifornia
▁Thorn
feron
uner
eolus
▁Laphria
▁Erioptera
▁Zia
▁RTS
▁nguyện
▁mại
▁Soci
▁nốt
▁Kell
▁Intelligence
▁ext
▁Buriram
▁DU
elater
▁Week
▁Jamil
<1225>
▁bản
▁Danser
▁Dawson
<880>
▁Nicaragua
<1111>
▁Sphec
▁khoán
▁LP
▁Raymundo
<627>
ux
huahua
▁TUẤN
▁Bảnh
▁Peleg
▁dúm
▁Harm
yot
▁tím
<1841>
▁Giót
iath
▁Tajikistan
▁Hai
▁Sầu
▁Unic
▁Brem
▁Riy
▁Sóc
ramma
▁Phyt
▁Nevada
▁austr
▁VQG
▁Pearl
▁Firef
▁Mèo
▁Sapa
▁HUD
lap
<1270>
▁Macron
▁Goi
▁Vold
▁Aconitum
▁Quỹ
▁đáu
▁PVC
▁Pyotr
▁Nhánh
anor
▁hom
▁Carina
▁Amaurob
▁Ferdinand
NI
▁SN
omelas
▁Burnley
▁tàu
arie
agne
▁Nakane
Book
ophor
ols
▁Thymus
▁Obama
▁bạt
▁Kay
▁Kolomoisky
▁Boer
▁Diosp
▁Qian
▁Syn
omyces
▁Lathyrus
▁Lugo
▁nhiệm
ostemon
▁vấn
▁Medic
<777>
▁Andorra
▁Bee
▁ăng
aida
▁Tumkur
▁arc
▁Colombo
▁khua
▁Philosciidae
▁Anem
▁thắm
▁Dịu
▁DongABank
<729>
▁Jonh
<1741>
ct
TC
ược
▁Bennett
▁phẩm
▁rư
▁Sou
iglio
▁Avatar
omi
iplaga
▁Cler
▁Moham
itaria
ãng
▁Side
▁rugby
cephala
▁ann
▁Clubiona
▁Berkel
▁Lamiaceae
▁UDD
▁vac
▁hỏng
▁Qaeda
▁Joong
▁Sinmun
▁Phyllon
▁Bashir
alov
▁Nọi
▁Ranger
▁Ít
▁mirabilis
▁Computer
▁Sperm
▁NGUYÊN
▁DDG
▁DC
ert
▁Awlaki
ess
ưởng
thor
ầu
▁Fallon
hab
▁Worcester
▁bẫy
<465>
▁Koh
omantidae
tion
▁Ashikaga
aged
▁lươn
▁smartphone
▁Worm
▁Lewin
▁Vá
isetum
IST
▁Nairobi
▁Motors
▁Tên
▁Húc
▁ot
el
ense
▁xăng
▁lợp
apo
▁Zhi
ibol
▁Wir
imal
▁Uranium
▁Serb
▁Carmel
nament
ephone
eyama
<1350>
gui
aoka
ẹn
▁Hễ
▁yoga
oway
▁Guantánamo
ospora
atter
acus
▁Lill
▁Mante
▁Bol
▁Scirt
▁Saône
▁rèn
▁lượm
▁Cosmopter
▁Kont
<93>
icket
▁NMNĐ
▁PGĐ
tica
oplex
▁NTV
▁rầu
▁jung
▁Brachi
▁Vắng
<848>
xell
▁Juncaceae
▁Cola
▁Aube
▁Cowpens
avid
▁Novo
▁Burgos
phone
▁Bergamo
che
▁Tess
▁cưới
▁Vict
elist
▁bel
▁Glam
▁Đùi
▁Lancashire
▁Suneo
▁TNCS
hani
▁Bureau
<1192>
<515>
▁Hazard
▁ins
▁Scandal
▁Tủa
▁Stud
<905>
<965>
lan
imp
▁viêc
▁Castille
▁borealis
▁Poir
▁Yuryevich
▁Sú
▁JT
naya
▁Wake
▁Croatia
yber
opr
▁selen
ève
atten
terol
▁XUÂN
▁Fitz
ahya
▁Espiritu
▁Scorp
▁OH
▁Ưng
▁UCAV
coin
▁Fuj
▁Dorset
▁Rai
▁phosph
▁Canterbury
▁Shine
▁khoải
opelma
▁rùm
▁SSJ
▁Remember
▁cụt
valu
▁Ano
▁Sèvres
AS
▁Short
8
▁Pitbull
▁căn
▁Neb
▁Lự
▁Economics
▁PCTPMT
▁Carn
▁Harbor
▁Jaish
▁Kế
▁Zealand
▁vũng
▁brev
▁Nit
▁by
▁Mack
arro
▁Sad
▁Aleyrod
▁Serra
▁AFC
agar
▁Q
▁dật
orks
▁Phalanx
▁Farook
Generes
ideen
ophthalmidae
▁Nour
▁Lut
m
▁Ptolem
<16>
<739>
▁xuồng
▁Chảo
▁Metropolis
▁Advanced
▁Elite
<145>
▁shotgun
▁Đọa
▁tưng
<1631>
▁MANPA
▁Siegfried
▁tán
▁Huang
▁Pompei
haniel
▁Beyond
astan
▁Ngăn
phalia
▁Perciformes
<743>
<21>
<269>
ỘI
▁CHV
azo
eiji
▁Brod
▁Waff
▁Sull
ề
<1717>
▁Ra
▁Oper
▁cậy
mash
▁Lin
▁ccTLD
ionville
▁Dopp
▁Pillay
▁upon
▁Domen
elop
▁Lệnh
▁Complete
▁Years
▁vài
▁Thảo
▁Hỏi
ysa
▁sạp
▁Novosibirsk
ễu
▁vert
▁Erichson
▁White
<1713>
▁s
cin
▁Einstein
▁Timothy
▁ghì
dor
▁chặn
▁UFO
▁Quebec
▁nhủ
▁đóm
usa
inness
▁thia
▁Mata
abd
▁CFA
▁CSKA
▁griffithi
amol
ấc
xia
jeunea
▁Sênh
▁Camb
▁hăng
▁Alexei
OI
ilos
<325>
▁UM
▁facebook
▁hist
oproctus
▁nơi
▁phiện
▁bơ
azi
▁an
▁chống
▁Till
▁Zhu
▁Braun
witz
▁Leonard
▁frazioni
▁Collins
ophy
▁Mansfield
▁xét
▁hắt
<199>
▁Á
ceum
▁ang
▁đánh
▁CU
▁hol
▁Pedicularis
▁Vill
▁Khau
▁Azov
▁Vinh
▁Toquoc
▁Court
▁trừ
▁UBTP
▁Oster
▁insularis
▁Montes
▁Ngon
▁corn
▁Guiana
▁Oerlikon
▁Geneve
essitt
▁Schim
é
▁Santos
▁Wilton
vres
▁House
▁Pike
iferus
<1662>
red
▁BJP
▁Tacoma
<1213>
▁trừng
▁Bề
<1378>
▁Đãng
▁Conc
▁tròn
▁Abbas
▁chúa
ifasciata
ướm
▁Oricon
gaon
▁qu
▁Bênh
▁nar
▁Beth
▁sộ
ograph
▁LPR
▁lĩnh
▁Camp
▁BR
▁Future
▁Yin
▁Aqsa
ayoshi
▁Providence
▁Levinson
cos
▁IMAX
▁Cic
▁Bij
▁Ở
▁Mikania
▁Brahman
▁lặng
▁Salmon
<1181>
ete
▁Nyct
▁Krishnaraj
▁Nachikatsuura
kien
<434>
ship
weight
▁xách
▁Lobelia
erial
▁sina
▁phối
▁Chá
<857>
▁Thaco
▁cạnh
▁Honey
▁Dib
urgidae
mont
▁Trại
▁cụm
ilet
▁Renauld
ér
▁Sakar
▁Vila
<31>
elurillus
▁Pomerania
▁Pyrenees
▁BVDP
▁TIM
▁Nồng
<1237>
▁Aust
▁hái
▁đúc
▁PO
▁Pict
▁Rw
▁Miq
▁contin
▁Elder
▁TMZ
dio
▁Vich
▁Oprah
▁Kíp
▁Tyson
<1364>
▁CNN
▁cùm
<470>
▁Somchai
uctor
▁Đúp
antis
▁vit
▁Hector
▁Rạn
▁Mohamed
▁Rex
IE
▁chưng
▁Sepp
Plus
inette
kit
▁Sừng
▁Nieuw
epend
▁opera
▁Pô
▁digital
▁giật
alya
đăng
▁Heldr
ont
▁lão
▁Cyathea
isto
News
▁sessil
etsch
ỲNH
▁vằn
<594>
▁vest
▁Rider
▁casino
▁Self
<1000>
▁Sterling
▁cúc
▁Khoái
awan
▁Urumqi
▁xy
▁fusca
terdam
▁speciosa
ross
▁Rumble
uh
▁ngáy
xi
▁Duck
▁Mariam
<1566>
▁Adams
▁Onth
▁Germar
▁Coss
<144>
<581>
▁Cath
▁với
▁Ễ
▁Poa
▁Running
apan
<1129>
▁Phá
iak
NAD
▁Adiant
▁lẹ
lock
▁Ababa
▁Nephrotoma
▁Dal
▁Didel
▁Mustang
▁BLC
▁Dun
▁Myc
▁Philippines
▁Polystachya
▁ja
▁trinh
▁Kha
▁Ralph
▁Viktorovich
<110>
▁Amanita
▁BigC
▁Mrs
autiful
▁Ngạc
▁Maiziere
eil
▁gal
▁Stan
lando
▁Khách
▁Echo
▁OVA
▁Thay
artz
▁Rough
▁VB
▁Bặc
▁đều
▁Gda
▁Củng
terus
▁nut
▁LLVT
▁Krakow
▁Ary
opter
▁Xổ
▁đượm
▁Liêu
▁Castello
▁Chil
▁Sportiva
▁Jew
uang
▁Oecophoridae
▁Luxury
jaz
feng
▁nigrop
▁lăm
▁Độ
▁Nền
▁Ạ
▁Pas
<1565>
▁Sau
eij
▁ĐVHD
▁chẻ
<1220>
▁big
ochlora
▁Kola
▁Thảm
▁PAGASA
▁Quick
▁Dryopteridaceae
yg
▁ngoan
▁phar
▁dại
▁Selagin
▁Pratt
ste
▁Karls
▁chìa
ection
▁Gạch
▁Rubus
▁Tò
▁Rowling
▁Tod
▁Khêl
▁Nghê
▁Chích
▁Bandai
▁mạng
▁Lạc
▁VietQ
▁Calam
▁UH
▁rỗng
▁Đen
▁CARAT
atilis
<1022>
▁Cheiracanthium
wy
bH
▁quần
▁Aram
blem
uza
▁Djokovic
▁đờm
▁Lev
▁Embrik
▁Psychomy
▁nhục
▁Đấng
▁Izvest
▁Gepard
▁Sin
▁oliv
▁Treviso
▁Lieftinck
▁UNICEF
▁CLB
▁nhu
ollis
▁Gill
oct
▁Boyd
▁Alek
▁Dalton
<916>
▁nhặng
<1120>
▁Vocal
▁Mgar
editable
▁tản
▁Young
▁Vidal
▁Thổ
bertii
eyev
▁Chik
▁Euphrasia
▁Hertz
▁Mersin
▁Constantius
▁sal
▁Fallujah
▁Seconda
erte
▁nhiêu
inek
iế
hradecký
▁Herr
▁LÂM
▁trịch
auld
▁Lok
▁McVaugh
▁bơn
ans
fir
▁sn
▁ẩm
▁Haz
▁Tara
▁BAF
▁What
▁Rôm
▁tetr
▁Corinnidae
▁Bury
<1334>
<399>
▁Turn
esium
▁Đệ
▁equ
afari
<1714>
▁xệ
▁left
▁ngợp
<390>
▁lồng
erm
▁sod
<899>
▁Welsh
▁Eubelidae
into
▁mới
▁Diaea
▁Pf
▁Myth
<1554>
▁Arènes
▁Puerto
phria
NMT
▁chẩm
▁Fernandez
▁AirBlade
rington
eko
▁Erm
▁Reims
▁CAF
▁Bia
▁Valentina
▁Waziristan
imura
▁THA
▁Barb
▁chịt
▁rel
▁NY
▁Lewthwaite
▁Morton
▁Dara
▁Yakov
ididae
▁khám
ref
▁FLC
<1472>
▁Helmand
▁selfie
imon
▁Ústecký
▁cáp
iên
▁kèm
MC
▁Stadium
▁Nơn
▁Viện
▁Gaudich
▁Swansea
undus
▁rưỡi
▁AII
▁Yum
▁Itachi
eed
▁Windsor
▁Malik
in
▁Louis
▁Nhâm
ound
▁vắt
color
▁Sec
▁CSCĐ
▁nhàu
▁TUYẾN
▁toang
▁MX
athea
▁after
▁Nhà
▁móng
immer
▁Agath
▁Zol
▁khóe
▁Belgaum
▁mục
▁Mitter
<501>
▁Daes
ache
▁Kiện
istis
▁Emil
▁Enr
▁Salma
▁Navajo
ban
umberland
amel
utaka
▁Euclid
▁Meer
▁ter
▁Tp
agu
▁Chevrolat
unculus
akht
<75>
▁IPO
star
▁hé
oleuc
natha
▁Syrac
gr
▁Sác
<724>
ôme
▁mirab
ikos
▁Uzbek
▁vùi
▁Joa
<1564>
▁CONCACAF
▁truyện
<154>
▁Osius
ôi
▁trạng
▁align
▁giậm
▁kì
▁cord
▁Seab
▁CASA
▁Kunze
▁Kae
▁Hormuz
▁Motschul
▁Hóc
escens
ander
aoh
▁Anyphaenidae
▁DO
▁Nadia
umn
<843>
<971>
▁jan
TN
shine
bei
HI
<339>
ương
▁dù
▁Battle
▁Baut
▁hoon
▁vờ
▁Series
▁Latvia
▁UAC
▁Ê
ben
▁Centrom
▁thụ
▁Catas
esearch
▁Reeves
organ
<1267>
▁Krupp
▁Thợ
▁Chikk
nathus
▁Constantinus
▁orth
▁NGO
eym
▁Put
▁Beijing
▁Engineering
▁Mehmed
▁Jay
▁SLBM
▁Sic
abal
▁Schalke
anne
▁Akin
▁Cacbon
▁Tsip
▁glut
▁Étienne
▁Combretum
▁thân
▁Normandie
▁alp
▁Tả
▁Eye
imin
▁Schiff
<extra_id_84>
▁della
<721>
odeship
▁Thuy
ò
▁Gã
▁Khảm
am
▁khủng
▁ST
▁Krab
▁Ili
abase
<1596>
chinov
▁thần
▁Hidey
▁OP
▁Federer
▁chửi
▁Brain
▁Martino
▁Scrapt
▁tề
▁Micrathena
▁chửng
eldoko
▁ắng
▁Xả
<1711>
▁Trấn
▁xép
▁Cu
▁Dzh
▁Matsudo
▁Arabia
▁Chun
▁Antonio
▁Tchad
ippon
▁Okh
▁UI
▁chùn
▁Eucereon
▁Nhi
▁Pou
▁nic
▁vỡ
▁Niigata
IX
▁three
ellan
▁Idris
▁parsec
ogyne
▁Lux
<70>
<1379>
Ễ
▁Macle
une
▁cua
▁Carin
▁Hampton
▁quánh
▁Vladiv
▁council
asa
▁đứng
▁spp
izan
▁Ditrichaceae
▁Nug
▁Tracy
aia
avo
otra
all
▁Allison
▁Obe
<226>
▁Saakashvili
▁Sinh
▁Om
▁Hồ
▁Phanh
<1247>
ải
les
▁Eich
▁Haqq
▁Rend
xơ
▁ID
his
▁Mộ
▁xâu
▁Mạo
▁Bahamas
▁Huber
▁Stard
▁Ouagadougou
▁Sonia
▁đười
acz
ECD
nd
▁mìn
mus
▁Bear
▁control
▁Neg
▁Polygon
▁rắp
▁bh
ớ
▁Shimon
gress
<1620>
<1545>
<760>
▁vây
▁bệ
▁Món
▁nập
▁Muz
kala
opaea
eer
▁giếng
▁Liszt
astes
eco
▁beta
▁ĐSPL
▁MAI
▁trơ
▁Dombeya
▁Arts
▁debut
▁Hươu
▁Palicourea
▁Samar
▁ém
▁Vib
owy
▁domin
▁bế
▁Korean
▁Burns
<1478>
▁Kw
quel
<330>
▁Hend
▁tùy
▁Fir
brook
▁Ign
<910>
▁nông
bre
▁Hyperol
ínc
IM
▁Guant
▁Grenada
▁Buss
▁hryvnia
▁Yaz
sov
▁Messenger
▁Vedom
bye
▁Pushkov
racia
▁Klein
▁Foster
▁ngã
▁Rach
▁People
▁vánh
EI
▁nil
▁Bef
<35>
geru
▁Beaver
▁Nội
oms
ovis
ind
jae
▁Bông
<1149>
▁Orléans
▁Vang
▁dul
▁Scr
▁Galápagos
▁pi
▁Cruise
▁Mint
<820>
▁amiăng
ifah
▁giằng
▁cúm
etum
ycn
▁Yeom
▁Monsters
▁eng
ia
opleurus
▁chào
radamus
una
▁Dakar
<1119>
▁Fox
uty
ians
strom
▁Ultimate
<1292>
▁Boug
▁Aden
▁khiễng
▁rest
▁Kazan
▁trần
▁Pol
▁NN
▁Maxwell
▁Trọng
▁Aerof
tar
dinand
▁Sarat
sar
▁Epilob
▁Cub
kenh
ahri
head
uguri
▁Bretagne
art
IN
▁Kura
▁Wrestle
▁Charlotte
ertae
▁Lựa
▁Yamaz
▁thấu
▁ương
▁Ecuador
falz
▁Shoigu
ồi
▁Staff
▁Phan
▁Tiếc
lang
▁Vauc
▁Cah
<1125>
<978>
▁Did
ianum
▁ĐTTP
▁Gama
▁Evgeny
ysis
<1318>
▁Khiên
ardy
▁Conquer
▁Durham
▁Chronicles
▁Huynh
<999>
ymat
▁Lomonosov
▁mổ
▁Kuiper
▁rốc
ción
▁Kassig
▁trailer
▁Celtic
▁Karak
▁Brzez
▁Wehr
▁Ảo
▁Dần
gg
▁Ces
hean
▁máng
▁conc
▁Kạn
▁Wol
esses
▁Sei
▁Gabriela
▁Persian
▁McH
▁Must
▁duyệt
▁vặt
ooney
Ị
▁Bartramia
▁VL
▁pham
▁Sank
▁Fras
▁Phoenix
anu
▁gồ
<137>
oph
▁đâm
▁Baj
ske
oucký
▁Thụy
ysz
alit
▁Gangnam
▁Ông
▁Ivy
ilova
▁choàng
appa
juku
▁Nintendo
▁Bronislaw
▁Foal
▁Jubulaceae
▁Apulia
lyna
▁Perib
pina
▁BGTVT
▁Anac
▁HSD
▁Daniela
▁cret
ibaly
SE
▁magma
iể
▁Shank
▁Gấm
▁ANHK
▁Mash
▁Hick
▁ITF
▁Shahid
▁Cư
▁mi
▁nhưng
▁Lưu
▁Zamb
▁True
▁UTC
▁Quyết
▁Roh
▁N
wong
▁sút
▁Iq
▁Cyph
▁Jarba
ena
▁Crac
▁Dijon
hom
▁rọc
▁giặt
▁Pi
▁NQ
▁Hasina
icom
▁Sài
▁Gurevich
▁Damascus
erie
▁Invincible
▁Megap
▁email
▁Arsaces
<1573>
▁Always
igata
▁Modi
schul
▁Henrietta
lavi
▁Stim
▁Suất
▁sedis
arapet
▁DNR
▁Điền
▁Nh
▁Maryland
▁Make
untia
▁fen
<1426>
de
rost
▁Colch
▁dig
▁Rud
▁Quyến
▁Loiret
nicki
▁Inter
▁ngớt
▁sâu
▁nẹp
▁chững
CB
<1872>
▁Gắn
iat
▁ps
▁Yoochun
▁Hỷ
▁Begonia
asciata
<168>
▁comp
ecia
▁Lauterb
▁Bode
eletia
▁Vladivostok
alea
▁Unas
▁Triple
▁Regina
<709>
▁tụng
▁Dollar
▁Fuad
▁Phỏng
khan
▁Chennai
▁Tos
emm
▁Triện
▁Majuro
rug
anyang
▁Advent
<1391>
oloch
tim
▁americana
andan
▁thiết
▁ah
owei
▁Brignoli
0
▁tas
egor
▁Kon
agos
▁Laboiss
▁-
▁Atriplex
â
▁Organ
▁Selaginellaceae
▁Atlético
▁rep
▁Salim
<865>
▁Mathias
<606>
metr
irky
armia
▁lôi
ipp
▁Denise
▁Africa
git
▁giành
▁Jabal
▁lẹt
▁Ví
▁Bhumibol
ished
▁đổi
▁MTTH
▁Yen
▁bợ
▁Esen
▁steroid
▁hip
ilia
▁Istanbul
▁africana
<792>
▁Molniya
▁Anjou
uction
▁Đuối
▁Prize
▁lục
ươi
▁Kumho
▁Irm
▁zing
▁Smart
jaj
▁Meis
▁Gerasimov
▁PTNN
▁Wave
▁Vỡ
▁mann
omit
▁Prescott
▁ạ
nat
▁Hei
▁Mohr
<1490>
▁Doctor
▁Sud
▁Giang
▁Đọc
▁vạc
▁Kampong
tafa
ely
▁Chodat
▁Chicago
▁PID
▁Ò
▁Trẫm
▁xoang
▁ITLOS
<778>
▁Blechnaceae
▁Osmylidae
▁Nicobar
▁Christina
▁Pes
▁Enix
▁dượt
▁Whit
▁đám
eds
▁Giúp
▁Dharwad
▁Sì
▁Péc
▁Fein
▁sửng
▁Capparaceae
ày
▁Re
▁Lorraine
▁Gem
▁drone
<extra_id_86>
▁sụn
lak
rai
▁ep
hol
tenus
▁Indon
▁Copper
▁Masam
▁Savchenko
▁Elaeoc
▁hổi
x
▁Elis
▁NLL
▁trừu
▁Davidson
R
<1845>
▁BLDS
nho
▁Parab
▁km
▁Silvan
▁Lum
▁Volta
▁intermed
▁Rang
▁Paint
<1556>
▁xe
▁nệ
▁Xoa
▁Security
ubercul
emat
▁Chiếm
ardi
▁Chờ
indy
▁Freib
IT
iloba
▁Manh
▁Leonid
▁Banglad
▁nhô
▁metan
▁Kuril
▁Tusk
▁Illus
▁DS
▁fi
▁Tây
▁Úc
▁giềng
▁Prot
▁Earl
▁Dean
▁Pros
▁Rasputin
▁Auch
<264>
▁Tuyết
▁Meiji
▁Dall
▁Elmer
▁quy
▁Tudor
▁Atr
▁PAP
▁Đang
spot
▁Michonne
▁Felix
▁Buồn
▁Inters
ieng
▁Rajoy
rotoma
uzh
▁Bopyridae
▁Vây
▁Dich
▁lùn
▁Bối
▁Gifu
▁dĩa
▁Astana
▁Tatiana
▁Hed
▁ANH
▁rẽ
fran
ibi
icaceae
▁Salih
▁Scinc
istic
▁Kịch
▁Fos
lesh
▁Gorshkov
▁Alternative
utell
▁vầng
▁Colchicaceae
ology
▁Ieodo
▁Erem
▁Kard
▁Asilus
▁tị
▁Elliott
ask
▁tít
▁Shim
▁Private
▁đọ
▁sừng
▁Tric
▁Pepsico
▁Paulian
Con
▁cắt
▁Rast
▁Closer
▁Vann
▁Isabella
▁Semiothisa
omorpha
▁Lomari
▁xôn
▁Ost
▁Julien
▁Giulia
▁gần
▁atrop
▁Pả
▁Sepang
CMT
enone
▁khớp
mina
▁Choer
back
▁Ris
▁Bul
▁nện
▁Merm
▁Phlegra
actic
▁Tchaikovsky
▁Mần
▁Berlusconi
▁Tenc
▁sảnh
▁Res
▁Cook
▁Kwajalein
▁Cười
▁Arro
▁Brice
▁Baluchistan
▁vấp
▁ngựa
▁Bô
▁Shiraishi
▁Nemtsov
▁tươi
▁Kumsusan
▁Esc
<1777>
▁Biền
▁borne
▁Joaqu
▁Bieb
anagara
angelo
▁Reap
astis
ansas
▁Iss
▁Arnold
▁Louisville
▁Cart
▁LI
ylla
▁only
▁Fars
<1176>
▁Hachi
▁Bitburg
ỷ
<1177>
▁Andalusia
▁Doo
▁PCTP
▁bòn
▁Căm
▁Zaporizh
ez
<497>
▁Huoai
▁gel
▁caosu
▁Vexillum
alism
yana
▁Holdings
▁Mazda
kl
egaard
▁trap
iễu
leck
enda
▁quanh
▁Perdita
▁Techcombank
irne
▁Kriv
baum
▁Makar
irrh
<884>
nag
▁prox
<319>
▁Arleigh
▁Bí
odora
rinus
<33>
▁Gujarat
▁hwan
▁Lufthansa
▁Eryth
▁Katowice
estin
▁penalty
▁ach
▁Vỵ
▁Karam
<898>
▁nấu
agnum
ilde
ovela
▁Ear
phantes
▁kiệu
▁Krishnarajpet
<1211>
▁nghiêng
▁Confeder
▁sinh
▁Châm
▁lôgic
ấn
▁style
idz
▁Anonymous
▁Tripoli
[...]
